[PAD]
[UNK]
[CLS]
[SEP]
[MASK]
!
"
#
$
%
&
'
(
)
*
+
,
-
.
/
0
1
2
3
4
5
6
7
8
9
:
;
<
=
>
?
@
A
B
C
D
E
F
G
H
I
J
K
L
M
N
O
P
Q
R
S
T
U
V
W
X
Y
Z
[
\
]
^
_
`
a
b
c
d
e
f
g
h
i
j
k
l
m
n
o
p
q
r
s
t
u
v
w
x
y
z
{
|
}
~
¡
¢
£
¤
¥
¦
§
¨
©
«
¬
®
¯
°
±
²
³
´
µ
¶
·
º
»
¼
½
¾
¿
À
Á
Â
Ã
Ä
Å
Æ
Ç
È
É
Ê
Ë
Ì
Í
Î
Ï
Ñ
Ó
Ô
Õ
Ö
×
Ø
Ù
Ú
Ü
Ý
ß
à
á
â
ã
ä
å
æ
ç
è
é
ê
ë
ì
í
î
ï
ð
ñ
ò
ó
ô
õ
ö
÷
ø
ù
ú
û
ü
ý
þ
ÿ
Ā
ā
ă
ą
Ć
ć
ĉ
ċ
Č
č
đ
ē
ĕ
Ė
ė
ę
ě
Ĝ
ĝ
ğ
ġ
Ĥ
ĥ
Ħ
ħ
Ĩ
ĩ
ī
ĭ
İ
ı
Ĵ
ĺ
ļ
Ľ
ľ
Ł
ł
ń
ņ
ň
ŉ
ō
ő
Œ
œ
Ŕ
ŕ
ŗ
Ř
ř
Ś
ś
Ŝ
ŝ
Ş
ş
Š
š
ţ
ť
Ũ
ũ
Ū
ū
ů
ű
ų
Ŵ
Ŷ
ŷ
ź
Ż
ż
Ž
ž
ƃ
Ɛ
ƒ
Ɨ
ƞ
Ʃ
Ʒ
ǀ
Ǎ
ǎ
ǐ
ǒ
Ǧ
ǧ
ǫ
ȉ
ȋ
ȏ
ȓ
ȕ
Ș
ț
Ȧ
ȧ
Ȩ
ȩ
ȯ
Ȳ
ȳ
Ɇ
ɇ
ɐ
ɑ
ə
ɛ
ɡ
ɫ
ɳ
ɸ
ʃ
ʄ
ʇ
ʊ
ʔ
ʕ
ʦ
ʯ
ʹ
ʺ
ʼ
ʽ
˂
˅
ˆ
ˇ
ˈ
˙
˚
˜
˝
̀
́
̂
̃
̄
̅
̇
̈
̊
̌
̧
̱
̲
̴
̶
̸
͌
Ώ
Α
Β
Γ
Δ
Ε
Ζ
Η
Θ
Ι
Κ
Λ
Μ
Ξ
Ο
Π
Ρ
Σ
Τ
Υ
Φ
Χ
Ψ
Ω
έ
ί
α
β
γ
δ
ε
ζ
η
θ
ι
κ
λ
μ
ν
ξ
ο
π
ρ
ς
σ
τ
υ
φ
χ
ψ
ω
ϊ
ό
ϑ
ϕ
ϝ
ϭ
ϱ
ϲ
ϴ
ϵ
Џ
А
В
Д
Е
И
К
М
Н
О
П
Р
С
Т
У
Ф
Х
Ш
Э
а
в
д
е
л
н
п
р
с
у
х
ч
я
ѐ
є
і
Ѵ
ӧ
א
׳
،
ا
ب
ج
ح
خ
د
ـ
ل
چ
ۛ
ߝ
क
ण
ॅ
े
ै
ॉ
ॕ
ॖ
ॠ
०
ᅟ
ᗞ
ᴀ
ᵋ
ᵒ
ḟ
Ḡ
Ḣ
Ḥ
ḧ
Ḱ
ḱ
ḿ
Ṁ
ṁ
ṃ
Ṅ
ṅ
ṕ
ṗ
ṙ
ṡ
ṫ
ṭ
ṽ
ẋ
Ẑ
ẗ
ẫ
Ẽ
ẽ
Ỹ
ὀ
ὄ
Ὠ
ὰ
ὲ
ᾱ
᾿
Ὼ
‐
‑
‒
–
—
―
‖
‘
’
‚
“
”
„
‟
†
‡
•
…
‧
‰
′
″
‴
‹
›
‾
⁎
ⁿ
₀
₂
₃
₄
₆
ₑ
₦
€
₹
⃁
⃑
⃖
⃗
ℂ
℃
ℇ
ℋ
ℏ
ℐ
ℑ
ℒ
ℓ
ℕ
№
℘
ℙ
ℚ
ℛ
ℜ
ℝ
™
ℤ
ℬ
ℰ
ℱ
Ⅎ
ℳ
⅓
⅔
⅕
⅘
⅙
Ⅰ
Ⅱ
Ⅲ
Ⅳ
Ⅴ
Ⅵ
←
↑
→
↓
↔
↦
↾
↿
⇀
⇌
⇏
⇐
⇒
⇓
⇔
⇜
⇝
∀
∂
∃
∄
∅
∆
∇
∈
∉
∊
∋
∏
∐
∑
−
∓
∕
∖
∗
∘
∙
√
∝
∞
∠
∣
∥
∧
∨
∩
∪
∫
∬
∶
∼
∽
≃
≅
≇
≈
≊
≒
≓
≔
≖
≠
≡
≢
≤
≥
≦
≨
≪
≫
≰
≲
≳
≺
≻
≿
⊂
⊃
⊄
⊆
⊇
⊈
⊑
⊓
⊔
⊕
⊖
⊗
⊘
⊙
⊝
⊢
⊣
⊤
⊥
⊧
⊭
⊲
⋀
⋂
⋃
⋄
⋅
⋆
⋈
⋊
⋎
⋏
⋒
⋘
⋯
⌀
⌈
⌉
⌊
⌋
⌐
⌖
⌽
⍰
①
②
③
④
⑤
Ⓕ
Ⓡ
▀
■
□
▲
△
▵
▷
▽
▿
◁
◆
◇
◊
○
◦
◯
★
☆
☓
♀
♂
♢
♦
✰
⟨
⟩
⟶
⟹
⤖
⥈
⧹
⨯
⩽
⩾
⪅
⪯
⪰
⪳
、
。
〈
〉
「
」
〖
〗
㎎
㎕
㎚
㎝
㎷
一
三
上
下
不
且
並
中
主
义
之
乎
也
予
事
互
些
亦
人
今
仍
代
以
件
仿
估
但
何
作
佳
使
來
例
供
依
便
係
保
信
個
們
值
偏
備
傳
僅
價
儀
元
充
先
免
入
內
共
其
具
再
出
分
划
判
別
利
刮
到
制
則
削
剪
創
力
功
加
助
動
勢
包
化
十
卡
卷
原
參
又
及
反
发
取
受
可
台
史
各
合
同
向
否
吧
吸
吹
呈
命
咖
品
哈
員
售
商
問
啡
善
喜
單
嘗
器
嚴
回
因
國
圓
圖
在
地
均
型
域
基
報
場
境
增
外
多
大
天
失
套
好
如
子
學
它
完
官
定
宜
客
家
容
實
寶
封
將
專
尋
對
導
少
尖
就
展
屬
工
差
已
市
師
常
幫
平
年
幹
庫
廚
廠
廢
建
弄
式
引
強
彈
彙
形
彩
彰
影
彼
往
後
徑
得
從
循
徵
念
思
性
想
意
愛
感
態
應
成
我
或
房
所
手
打
找
技
括
持
挑
掉
掌
探
接
控
提
換
握
搜
擇
據
擬
支
收
改
故
效
整
數
文
料
新
斷
方
於
族
既
日
旨
昇
明
是
時
景
晶
智
曠
更
最
會
有
朝
期
未
本
材
来
析
果
查
格
案
條
業
極
概
構
標
模
樣
機
檢
權
正
此
步
歷
殘
段
比
民
求
決
法
注
活
流
浪
消
深
減
測
準
滿
演
漸
潔
潮
濾
為
然
爭
片
物
特
獨
獻
現
理
環
瓶
甚
生
產
用
由
申
界
留
略
異
當
發
百
的
皆
益
目
直
相
省
真
眾
瞭
知
短
研
確
示
社
科
程
種
積
究
立
競
符
第
等
策
節
篩
簡
簧
粗
精
糊
系
約
素
組
結
給
統
絲
經
維
網
線
緻
縮
繁
繪
續
美
群
習
考
者
而
肯
能
腦
膜
自
至
致
與
舒
舠
舡
般
舰
艂
艃
良
色
若
莊
萃
萬
著
葦
葷
蒐
薔
藉
處
號
蛋
蜒
蜴
蝄
融
蠀
蠁
蠄
蠅
蠐
行
術
表
衰
裝
製
複
要
視
覺
觀
规
解
觸
言
計
訊
討
設
評
詞
試
該
認
語
誤
說
調
請
論
證
識
議
變
话
象
貢
買
費
資
質
購
走
趨
足
跟
路
較
輔
輕
輸
轉
辨
迅
过
近
还
迴
追
透
逐
速
造
週
進
運
過
達
適
選
避
重
量
針
銳
銷
鋼
長
開
間
關
階
隨
集
雙
雜
難
電
需
青
面
響
項
須
預
領
頻
題
願
類
顯
風
食
飲
餘
驗
髒
體
高
鬆
鳴
點
ꜗ
ﬀ
ﬁ
ﬂ
ﬃ
︒
（
）
＋
，
－
．
：
；
＝
～
𝐷
𝑀
𝑑
𝑝
𝒒
𝒞
𝒪
𝔸
𝔾
𝕃
𝕆
𝕊
𝜀
𝜂
𝜃
𝜌
𝜖
𝜺
##u
##l
##t
##r
##i
##n
##g
##v
##e
##o
##p
##s
##c
##y
##T
##U
##R
##O
##P
##L
##E
##X
##S
##d
##h
##G
##D
##I
##W
##a
##m
##b
##z
##N
##F
##7
##2
##k
##x
##C
##0
##K
##M
##1
##w
##6
##V
##A
##f
##Q
##H
##8
##B
##3
##4
##Π
##q
##Z
##ż
##Y
##j
##J
##5
##®
##9
##°
##∗
##è
##ş
##τ
##×
##ñ
##û
##é
##Ŵ
##š
##á
##™
##ë
##→
##í
##∪
##ĝ
##€
##α
##±
##ä
##⩽
##−
##μ
##Ú
##℃
##Ω
##△
##⊥
##⋯
##̸
##ü
##ń
##Â
##ú
##⊙
##ℓ
##δ
##¯
##̂
##ȳ
##Ä
##̇
##ó
##ç
##˚
##≤
##⪯
##ψ
##θ
##ω
##π
##γ
##ö
##≥
##∼
##≠
##√
##æ
##β
##⋅
##Ö
##◦
##˜
##Œ
##Δ
##ॅ
##č
##∞
##∘
##Ž
##↾
##≪
##∈
##∖
##â
##þ
##£
##⊆
##ð
##ẽ
##à
##ł
##ℕ
##⊗
##À
##⊂
##ℝ
##¬
##ﬁ
##ο
##Σ
##ˆ
##∩
##↑
##ī
##ā
##º
##ž
##∊
##̄
##ĩ
##ϕ
##ॕ
##¢
##ò
##õ
##̃
##∕
##ţ
##´
##∥
##㎕
##ē
##σ
##å
##↓
##ν
##ẋ
##Ã
##≫
##ø
##ï
##≈
##ă
##Λ
##ε
##ȯ
##ȧ
##∙
##ś
##ǧ
##⊧
##η
##ã
##λ
##ʼ
##ǒ
##ę
##⇝
##∇
##ß
##µ
##ō
##∧
##¼
##ṕ
##φ
##½
##↔
##κ
##ϵ
##³
##∨
##Ф
##⩾
##ι
##ğ
##∣
##ı
##̈
##̊
##̱
##Ⓡ
##Φ
##ć
##ρ
##Ł
##≺
##÷
##□
##≅
##Ï
##Š
##а
##ḧ
##ý
##Ì
##ƒ
##∑
##∫
##Ñ
##ļ
##ũ
##Ŷ
##ĕ
##ȩ
##ŕ
##ě
##∀
##î
##Ȩ
##χ
##Å
##Č
##̲
##⊣
##＋
##ǐ
##˙
##ū
##ņ
##Γ
##ô
##Θ
##œ
##¨
##ॖ
##Τ
##∏
##𝑀
##←
##ﬃ
##≡
##¦
##ᵒ
##ℬ
##Ι
##Î
##̀
##Ô
##ℒ
##К
##υ
##ə
##ℙ
##Ê
##⟶
##⊤
##⊕
##²
##Ψ
##⃗
##Í
##∶
##⋆
##ɡ
##⧹
##㎎
##₂
##Е
##ė
##ù
##ζ
##ź
##Ʒ
##ê
##Ǎ
##ξ
##ὲ
##С
##ƃ
##ℂ
##⇔
##É
##ﬀ
##İ
##ř
##ț
##̅
##Ш
##○
##ů
##ḿ
##Ø
##₃
##₆
##ľ
##ˇ
##Á
##⋎
##⋘
##ᴀ
##≓
##℘
##ą
##Ṁ
##Ó
##ṫ
##क
##ẫ
##̧
##Ŕ
##ℤ
##¥
##⍰
##♂
##Р
##˝
##ő
##⥈
##ų
##Õ
##Ⅲ
##⋈
##∅
##Ü
##∝
##Ⅱ
##ǎ
##̌
##᾿
##ʹ
##א
##в
##н
##≻
##ṅ
##≿
##𝑑
##ĥ
##Э
##М
##㎝
##≃
##ẗ
##ϊ
##с
##ḱ
##©
##ċ
##∃
##О
##Ë
##ʊ
##Β
##ʇ
##́
##Т
##ℜ
##Ā
##∆
##ߝ
##đ
##ì
##⊖
##ɛ
##☆
##ℋ
##ℐ
##ṭ
##Ⅰ
##Μ
##↦
##Ũ
##▷
##∂
##⋄
##ﬂ
##⇒
##Д
##ÿ
##ʺ
##ӧ
##ॉ
##Ç
##Ȳ
##⃖
##ṃ
##ί
##▿
##★
##ṁ
##㎚
##А
##Ć
##Ù
##∉
##Ś
##Η
##Ρ
##ĺ
##⊃
##ۛ
##♀
##ű
##Æ
##⋏
##⇓
##у
##ـ
##Ė
##ॠ
##ȉ
##ň
##ɐ
##ɫ
##ʕ
##ġ
##⋊
##ŗ
##Χ
##▵
##ĉ
##⌀
##𝑝
##έ
##≔
##п
##₀
##ℛ
##ό
##е
##ₑ
##≲
##ȏ
##⊈
##⨯
##Ɨ
##Н
##х
##⌐
##⊔
##₄
##ĭ
##ѐ
##ť
##ϑ
##ч
##я
##⪰
##Ɇ
##ȓ
##ل
##ب
##د
##Х
##⪳
##𝜖
##ti
##he
##on
##er
the
##es
##in
##en
##ed
##or
##al
##tion
of
##nd
##at
##ro
##ing
in
##ar
##an
##ic
and
##it
##is
##re
##el
##ent
##ation
##ec
##as
to
##et
##le
##ac
##om
##st
##ur
pro
##ul
th
con
is
for
##od
##ve
##im
st
##ith
##em
##ig
##ce
##ol
##il
##si
##per
The
##ts
on
##am
##ut
##ow
##ly
com
##ng
##tic
##uc
an
with
ex
re
##ter
##os
##ff
##ess
##ab
##ri
##ity
##us
us
##pp
##ment
be
al
are
##ate
##ra
as
##ir
that
##ver
##id
comp
##ot
##for
res
##ting
mod
##ag
##ect
##ear
##ure
##mp
de
##qu
sy
##form
##hic
##tive
pr
##iz
app
ac
##stem
##vel
by
##um
##ud
system
met
model
##ain
##ated
##ine
cont
##ad
this
##oc
bas
di
##ign
##ations
##ers
sp
##og
In
##op
##un
##ork
##hod
##ance
imp
##pos
method
sh
dis
##igh
##ble
##sion
##ach
des
per
ne
su
##ch
##ical
we
ch
##se
par
based
en
pa
int
or
##etw
##her
propos
##rom
##ap
cl
eff
##if
##tim
##tions
co
##ay
ad
dat
tr
##ant
##pl
can
##ech
Th
resul
##ents
##hich
which
from
paper
##ge
at
##ob
##rol
##ence
##ust
##aly
##gor
##able
str
stud
##ort
##and
##act
##ous
##ual
##ies
control
ob
##ithm
##cess
appro
##der
##gorithm
##ial
##age
This
##ility
##sis
perform
##uct
##ni
algorithm
##est
data
inc
fu
##all
analy
sim
using
##ore
proposed
inter
sc
results
##ication
##ning
pres
##di
design
##ans
##enc
diff
##velop
##ari
##blem
tim
##hi
op
problem
rel
eng
##res
##rib
##ou
ev
was
##ak
##alu
develop
rec
has
se
show
me
##ors
##tical
##ave
tra
##enti
##etwork
##ulti
man
pl
##str
fe
##vi
##rou
used
acc
##ection
##ves
##ell
gen
##end
##ization
##ion
##ack
ind
process
det
le
appl
exper
##ram
##ati
ar
differ
time
tech
##olog
##ven
mo
##ures
##ere
network
We
##ard
performance
whe
have
##ary
##ties
##ther
##ace
engine
##tain
##ution
it
##vid
clas
##wo
##ric
##ability
lear
optim
un
suc
rob
##ied
##ase
multi
##ehic
gener
##ved
##low
##ici
##ative
sol
##our
##ew
##duc
##th
vari
##ments
##ating
been
approach
trans
two
vehic
systems
##gh
no
high
po
##yn
##ple
##erm
##so
mat
##tional
##formation
were
##ving
new
##ail
present
##nder
##zz
##ural
##istic
##ulation
analysis
im
##ens
##ature
##ill
##unc
pre
out
##ree
ass
##ding
set
under
##ight
different
disc
##les
##yp
effec
experim
study
compar
aut
##een
##zzy
also
learning
##ory
num
impro
rep
dec
red
##ering
##etween
between
##ip
##ynam
##earch
use
provid
##ular
##ates
dist
such
##ally
not
sign
oper
##ome
##fer
##ency
func
ext
meas
over
##ber
##ue
their
sub
work
form
information
##ong
##anc
##ject
##ision
##ep
##amet
fuzzy
reg
##ific
es
struct
these
its
##ower
##ound
ab
##now
comm
##ynamic
##ized
##oad
##oth
##ang
##niqu
non
comb
##ined
##ex
##edic
comput
##uring
more
##out
el
methods
##ha
real
##jec
em
##ire
char
##sif
qu
##gy
##ast
##cep
requ
evalu
effici
cor
paramet
incre
##ist
##tern
##ology
ag
##pon
##ely
dem
fin
he
loc
##int
into
sel
vehicle
consi
##lement
##led
##lex
id
ver
##ational
condi
##ental
##are
classif
techniqu
##ining
one
##eg
test
so
##inear
col
all
##ise
predic
other
cr
desc
##rec
vi
know
##eng
models
dri
spec
##acter
fi
##rough
consider
ser
order
##hem
##lu
##lud
##ement
our
##ages
##irst
dynamic
typ
##ize
##ft
both
##vir
character
level
##ted
##onstr
##viron
##ission
obtain
partic
##pec
sur
ph
##ines
att
supp
##ension
pat
ma
##ential
##ult
cap
##put
##xim
##ite
##ever
fuel
valu
accur
prog
gra
than
sam
##ide
##vic
environ
car
spe
well
equ
##tig
##ask
##ications
estim
repres
through
techn
cur
reduc
each
##aus
developed
An
##ness
##eld
##echan
power
autom
expl
It
##hed
##ark
##vely
includ
##ected
##atic
number
##atures
##ator
mak
##sive
will
##vestig
main
##ph
improve
task
##ry
exam
research
hy
##entif
some
##ub
##00
fram
when
distrib
##action
##ange
presented
inf
investig
tem
##ress
##ration
mechan
##til
problems
lar
program
##owever
##ities
##ses
go
algorithms
##havi
development
def
import
##hie
demonstr
achie
gi
##uld
cy
##vers
hum
min
##ently
##eri
proper
exp
represent
robot
pos
##acy
describ
dep
up
complex
behavi
elect
first
image
measure
##ron
To
parameters
state
conc
integ
plan
##rain
objec
strate
##uce
Ex
speed
term
simulation
signific
##ism
sm
const
##hes
conditions
three
produc
##ful
but
intro
sens
##tiv
determ
##ergy
optimization
##nition
cost
low
##hile
##oy
##erial
discus
features
networks
##als
##ases
##ass
identif
##ord
##ext
##ene
environment
air
most
##ser
##ets
##duct
##tin
##rid
am
##ased
neural
##ledge
direc
fact
emp
only
significant
##sition
##ke
function
general
implement
concep
human
mach
load
val
fre
##ose
sec
tes
decision
compared
where
##su
St
propose
applications
coll
structure
Con
qual
##ired
##ework
##por
##ences
##urther
adap
##ware
li
However
knowledge
energy
##its
##ler
##ix
##istics
experimental
need
##ier
##ond
##ling
##ater
##ten
##ertain
##king
##over
obtained
framework
engineering
av
class
addi
large
##onom
classification
compon
adv
pol
##par
##imension
during
grou
effecti
##val
sever
important
commun
cal
local
Com
wh
material
bec
simul
##ros
conf
inv
flow
recog
##atis
lim
##face
##nel
##ically
space
##oun
##ression
clust
##ib
##olution
constr
application
##ty
students
accuracy
how
provide
novel
hand
##arg
tool
applied
##rr
schem
##ination
##cc
linear
there
possi
optimal
For
multiple
techniques
bu
dimension
robo
##mal
vis
##ile
##ind
##utions
scal
##hen
##omet
allow
various
detection
##ll
##ough
case
respon
##ety
##ples
feature
require
##rent
field
analyz
dom
##tif
##ces
temper
may
emission
minim
sing
efficiency
while
##agn
##hip
many
##ference
##vice
del
then
##tual
##ane
err
##isting
press
obser
##rop
##etter
##lic
quality
frequ
rate
properties
given
##te
Fin
sa
bl
##ified
they
characteristics
experiments
several
discuss
##ays
introduc
support
##iti
effect
fil
fl
solution
sem
add
##av
vehicles
soft
##abil
util
tak
##one
##ced
technique
ste
##ward
track
prac
unc
bi
##tit
##ilar
pattern
##ured
##ances
##ys
##ators
##oci
due
mechanism
##ocus
On
As
extr
do
depend
##veness
##ffici
##izing
##fact
##fore
presents
stand
single
valid
better
##lis
buil
impact
indic
##tivity
fac
consis
chall
prob
##ock
existing
integr
##urb
images
numer
behavior
prot
##aches
##ole
focus
noise
##uction
recognition
found
##ade
calc
##astic
designed
log
lab
##ld
technology
limit
motion
##ustion
Pro
hig
##ould
syn
pot
specific
conver
robust
##ffic
##tically
Al
about
efficient
##ause
manag
pressure
evaluation
effective
small
wor
relations
bound
machine
inst
##ength
mem
assess
maxim
top
gas
temperature
These
search
demonstrate
##ason
##reat
influ
indust
very
type
result
datas
ins
##inal
domain
similar
approaches
training
lead
##ov
ke
point
terms
combustion
group
gl
super
deg
rem
##ological
##ditional
##art
functions
##ables
current
particular
chang
##iter
strategy
##rip
##linear
mic
surface
them
within
occ
part
Finally
deri
##jection
##ector
effectiveness
theory
##asing
##old
##let
scheme
##ience
off
##port
range
distribution
##rel
same
standard
gu
##vious
##brid
input
considered
pers
##row
user
##tinu
##ule
##ross
approxim
controller
##ufact
traffic
without
dies
##loy
shown
selection
year
##view
cre
mon
##ison
uncertain
##ules
effects
Res
Exper
ge
value
diesel
##oid
possible
##ount
lay
visual
##ribut
##gment
employ
including
saf
##obile
##ollow
filter
end
##ensi
##ings
avail
higher
##chit
##fter
##ints
aim
prediction
lif
conduct
address
cyc
dimensional
ful
nonlinear
second
world
sequ
cent
##NN
potential
##de
##ource
sets
error
##stand
##oint
##ink
##ystem
##otor
related
targ
call
##ised
road
any
aff
components
modeling
##chitect
processing
te
20
cour
conn
weight
##line
object
studies
initi
region
Experim
##gg
direct
ret
path
##anced
shap
##ral
provides
learn
Our
pur
##vices
addition
increase
nor
way
manufact
numerical
sw
fail
estimation
cons
##sing
##edi
##ode
feed
discussed
##ention
##ost
enh
reduce
ther
objective
##etic
concept
performed
There
sl
hel
pri
##gan
graph
reason
management
##ellig
architect
emissions
##ulated
ill
long
values
operation
follow
scale
vol
frequency
view
software
continu
proced
##ocial
reduction
quan
transm
reli
stability
tests
invol
##ching
computational
hybrid
associ
est
##ics
artic
challeng
clustering
ec
adaptive
success
improved
##ible
Based
##up
rati
##aces
##back
##inc
##imin
##ants
conven
##allel
##ily
##uch
##oring
##ately
##rix
sensor
##ying
planning
##duce
step
achieve
making
transport
hard
rad
##round
tasks
made
##less
##tics
computer
##ording
ref
lo
##bers
size
##ablis
comparison
previous
##irc
##verage
solutions
common
further
glob
understand
##tively
available
##ivid
##angu
good
known
response
establis
##ologies
##fficient
factors
##els
##ividual
representation
mix
four
##uture
geomet
##ources
prof
##ming
types
cyl
among
Ad
requirements
conducted
communication
##mption
##ended
simple
strateg
back
force
matrix
##ank
key
##andom
driving
individual
required
position
##atural
sk
dynamics
Further
##ood
pe
social
those
19
##pect
increasing
vib
help
##ame
project
##osed
##annel
cell
##ian
robots
could
##ner
mark
signal
target
called
advant
parallel
relationship
safety
enc
processes
##tal
##pping
fa
context
correl
mean
constrain
phys
##ital
users
complet
being
means
dam
##ition
heat
Ch
best
life
output
testing
##uted
##icial
hyd
organ
##ern
service
langu
future
##ody
experiment
area
complexity
##uting
injection
nec
rele
##omm
implementation
phase
lower
sugg
parameter
##inder
influence
sit
global
##arm
text
##ture
conventional
prop
detail
##ice
production
constraints
##igur
tracking
natural
traditional
carri
less
subs
uni
econom
##ince
##ification
Mod
micro
##respon
methodology
introduced
##otive
More
diffic
intellig
bo
article
statis
##ick
condition
ris
structures
##aw
ratio
altern
spati
investigated
caus
theore
mobile
##ensity
correspon
System
cri
distance
maj
engines
shows
random
illust
##rete
los
segment
##ef
evaluate
Eng
scen
##atter
act
3D
##the
##eloc
ens
significantly
pub
flex
channel
##urn
if
purpos
Sim
example
changes
suit
make
bel
parti
prec
##eler
necess
##lying
self
art
allows
##erg
because
objects
##ecting
##ising
##atory
contain
mode
##oper
solve
strategies
ang
##ults
points
series
stress
##ially
##way
veloc
##epend
via
##onal
circ
bus
orig
seman
major
described
interaction
after
##ior
transfer
change
finite
liter
determine
element
cylinder
##odes
risk
motor
cam
provided
line
studied
##osition
Then
demand
uses
like
##enef
occur
should
course
pop
princ
pass
feedback
levels
agent
bra
map
manip
wid
##versity
find
##li
materials
intern
architecture
##ons
maximum
##ously
years
10
initial
evaluated
benef
able
layer
##abor
exha
##ench
200
operating
prom
sched
##ually
satis
##och
cases
##sequ
joint
rules
ide
distributed
patterns
run
analyzed
electric
review
tran
datasets
##bed
variables
body
interac
thermal
short
##ulate
often
With
oil
##ires
ability
##ights
##tificial
Des
##ument
##ibility
construct
product
fr
##more
deep
generation
##ish
##sumption
carried
constra
##orts
reduced
tested
De
ele
##eria
mechanical
ear
transmission
##ogra
achieved
##pling
situ
vector
critical
implemented
even
generated
adop
light
educ
##izes
she
evolution
turb
equi
##vised
defined
respec
industry
delay
structural
Re
average
component
posi
automotive
useful
describes
coun
simulations
shape
##que
capac
illustr
descrip
##iteria
role
difficult
By
##phic
##sues
configur
consumption
attribut
measurement
prim
practical
scenari
Moreover
et
water
##raft
move
tor
link
First
diagn
exhaust
##orpor
Tr
Furthermore
##mark
basis
monit
prior
language
active
physical
procedure
rail
Using
measured
vibration
##ax
Rec
cycle
##verse
finding
strength
manufacturing
datab
transform
computation
grow
##ray
##reg
Experimental
ig
decre
##iod
integrated
##ok
predict
acceler
cho
factor
ori
extract
successful
probability
according
vide
##inary
flu
accurate
increased
##pre
near
tools
literature
consist
explo
measures
proposes
recent
derived
avoid
independ
instr
traject
ax
measurements
##ener
plat
cat
failure
solving
sum
spatial
coe
##ake
associated
stage
degree
sensi
gre
##rical
##vant
source
neg
actu
issues
Multi
##eti
purpose
Fu
programming
ed
velocity
diagnos
separ
eas
correc
examples
##ring
cou
criteria
##ras
rest
##ump
total
cross
environments
bench
must
##EM
period
Therefore
spect
variable
mathem
##ins
##jects
computing
free
logic
##emb
functional
observed
identify
##man
attention
concepts
fast
##gue
online
Cont
##iness
exc
magn
radi
##atively
combination
wheel
##ustom
Par
theoretical
recomm
##poral
##IS
assessment
##bility
particip
agents
necessary
identification
construction
Sp
thus
ha
parts
surve
report
converg
showed
incorpor
improvement
##ify
limited
Un
ques
areas
loss
auth
##red
mass
##sue
dig
##pecially
##rial
CO
##irtual
along
gain
open
##gen
orient
##ensive
vary
NO
##ects
##CA
regard
##iver
##ather
##ude
##itation
continuous
post
##PS
##tice
demonstrated
adj
signals
investigate
201
##not
##ume
##rad
contact
##pri
Engine
rot
content
##bit
synthe
##ategor
##atically
##aging
account
respectively
nam
explor
platform
Analy
technologies
strong
##ger
base
custom
understanding
rol
##ultane
##ield
include
##omes
interest
CA
loop
##uck
Int
embed
dra
elements
##atical
wind
appropri
##ogene
Man
##erc
##ense
satisf
great
##lusion
full
##ierar
autonom
face
displ
Op
describe
##vities
En
special
much
overall
##rast
##otyp
App
basic
normal
princi
assis
cle
##uts
##abilities
polic
suitable
segmentation
medi
##own
artificial
rule
shar
operations
##encies
building
subject
original
goal
student
suggest
##tives
certain
fix
memory
Results
categor
##volution
cog
sensors
effectively
word
experience
##tivities
samples
At
##ighb
capacity
##ulations
##irm
doc
percep
devices
##SS
especially
corresponding
schedul
employed
does
##read
ent
tun
##pr
hydro
##infor
##enting
resulting
uncertainty
lat
reliability
Aut
##till
selected
##omp
established
##riction
introduce
Ar
stor
play
metric
##omen
steel
##ends
##idence
feas
iter
challenges
##ernel
combined
##ct
similarity
Network
public
##ove
simultane
fault
One
length
##chron
would
##pects
statistical
determined
deal
##yc
reve
complete
##alth
camer
virtual
estimate
behaviour
head
##perform
regression
##mm
access
acqu
dataset
##ream
toward
highly
location
##VM
##SA
adapt
Design
again
activities
rece
agg
outperform
wide
video
semantic
actual
equations
##ash
benchmark
matching
exec
correlation
Ind
MA
abs
ground
##nitive
observ
hist
Cl
##resh
density
##ories
works
automatic
neighb
##ute
temporal
##nov
team
coord
indicate
robotic
guid
resources
emerg
##atigue
index
respect
times
prototyp
##though
hierar
requires
simpl
maintain
appropriate
wire
classifier
competi
##pport
advantages
few
tri
generate
considering
varying
relative
torque
cool
alternative
become
##earc
##bon
label
##ably
convergence
##ne
##ited
##ery
##aster
compos
bal
electron
contrib
pack
amount
##lect
##craft
sequence
interpre
##MA
Model
##equ
analyze
##pled
market
ignition
block
fund
nodes
##ges
ur
assign
following
sti
kernel
##urity
digital
mathematical
facil
##ochastic
ox
##rees
controlled
##ars
##ither
##get
##ata
angle
driver
programs
aspects
game
##hical
intelligent
##ia
compan
train
travel
##ban
##aching
still
issue
Sc
appear
cataly
device
cooper
##eter
concent
##ective
action
monitoring
pair
##oud
interval
mining
sample
needs
internal
reasoning
activity
##acts
minimum
reinfor
vision
scheduling
additional
makes
##hers
wa
setting
against
since
detect
##tle
ess
extended
friction
closed
consists
##ople
aircraft
discrete
fluid
environmental
fatigue
Rob
##oding
extraction
integration
Imp
collabor
##pped
sus
##wn
heur
##faces
empir
enti
##apid
relevant
##cept
##ocol
importance
discr
assemb
##ruct
##ID
##ises
Analysis
##ogeneous
##ded
##know
innov
##rie
##ayes
resist
simulated
passeng
##iers
##ead
##isc
##ran
mechanisms
independent
##avig
##ems
widely
flexible
Met
Lear
##sc
##ternal
reference
##ries
driven
labor
##of
##mer
wear
Two
equip
code
Ne
particle
ever
propag
repl
##ean
Control
##ping
##rem
phen
kind
expression
fit
directly
skill
autonomous
##ante
services
modified
event
equival
static
upd
exist
genetic
capability
drive
beam
insp
health
regular
##umer
##edical
##ient
squ
reducing
stiff
##arante
costs
cognitive
crack
hardware
developing
##other
database
compression
treat
people
Bayes
Su
##sible
depth
##ifically
fron
tree
rough
Fuzzy
smo
swit
dependent
down
constant
rates
expected
dynam
transportation
members
stochastic
challenging
transi
##iding
Di
##asting
approximation
guarante
##ffer
operator
##ive
unit
fixed
##ope
industrial
rig
manipul
identified
Learning
##acement
##emp
variety
##ocation
##hood
dur
concern
impl
batter
##puts
increases
compare
take
protocol
regions
chain
formation
forces
education
reconstr
classes
aggreg
##side
##IM
##ST
what
##come
trajectory
##ections
##umin
scenarios
##ending
formal
##ingu
constraint
reveal
##abilistic
12
robustness
urban
induc
##known
law
##ession
navig
rapid
##ug
boundary
constructed
##oline
phenomen
equipment
volume
retrie
technical
investigation
##arse
sound
##ox
fully
improving
##vision
Uni
across
cluster
##inem
products
includes
##hy
##mmet
extension
providing
taken
working
Optim
##LA
configuration
errors
##und
illustrate
advanced
##idd
external
norm
When
##ests
##sian
operators
built
##CC
however
unknown
##rac
either
perspec
##ium
relation
mul
researc
difference
valve
##road
susp
recommend
##ways
wall
##MS
15
defin
Trans
Sec
positive
##iting
Thus
security
nature
pati
aims
gear
survey
##overy
presence
differences
Compar
commerc
sources
##eness
usually
##DA
remain
direction
analytical
##ides
compre
poly
cut
##ived
##ging
circu
correct
states
final
superior
had
camera
Co
inference
heav
differential
##enge
applic
SA
##rating
least
synchron
side
weighted
##ders
band
Engineering
##SP
chem
##pace
benefits
advantage
interface
disturb
resource
supply
gasoline
##ie
calculated
cloud
##chical
hyper
capable
ST
adjust
desired
build
diagnosis
groups
##tenance
##to
cannot
before
clear
yield
needed
who
forward
enhance
##atics
generalized
##amental
efficiently
summ
bear
##ompl
practice
Vehic
semi
simultaneously
stiffness
mis
comprehen
moving
attack
confirm
toget
together
lingu
produce
whether
recogn
drivers
mapping
Simulation
##SO
damage
NOx
##isation
##ote
strain
thresh
policy
discrimin
land
interpret
clos
schemes
controll
edge
lik
explain
give
che
deliver
loading
resid
##alog
variation
##lit
wireless
Inter
experi
geometry
grad
Stud
collision
pip
estimated
stable
Tech
##ality
uniqu
question
typical
##ild
##ground
probabilistic
ro
SVM
ped
aer
empirical
##ned
detailed
forec
Acc
five
##uments
weights
##ool
here
electro
##urrent
##icit
pen
version
ul
optimized
conve
##ograph
challenge
reported
caused
module
apply
##EA
resolution
business
dual
automatically
every
kinem
cover
##esting
Although
modes
prefer
##rary
propagation
establish
early
mom
around
##air
maintenance
expert
produced
##load
interactions
port
fundamental
offer
##rently
care
calib
100
successfully
fields
geometric
##fort
authors
applying
Ac
##ract
popular
##otion
read
community
later
automated
Develop
color
essential
center
star
resistance
##ale
suspension
classifiers
description
etc
done
web
machines
station
amp
##ters
Intern
transl
catalyst
Gaus
##usion
Spec
equation
composite
economy
storage
classical
gam
Eu
##stain
stream
outperforms
meet
##ER
coefficient
##elf
Bayesian
laboratory
##ird
brake
quanti
commercial
##iterion
##pportun
##FD
##ET
core
events
extracted
##rosc
modelling
spray
sustain
turn
construc
included
linguistic
##ploy
assist
collected
adopted
Some
truck
sensing
mixture
passenger
Tra
prototype
rout
sufficient
actions
node
record
Second
Autom
projects
involved
uniform
capabilities
preser
sampling
##onic
extrem
promising
above
movement
shif
primary
##cement
utilized
recently
##oor
##ich
rou
Sh
##tices
numbers
quantit
validation
battery
Since
namely
therefore
##uate
loads
assembly
relationships
findings
navigation
##entially
enables
growth
sparse
neur
leg
supervised
connected
reliable
arm
personal
facilit
whole
binary
##othe
choice
validated
flight
fusion
While
hierarchical
property
gradi
##assive
##ancing
analyses
examined
Per
attemp
fam
hom
##Vs
leads
skills
medical
mainly
alloy
criterion
##cent
steering
heavy
##eline
upper
coordin
frame
opportun
New
mus
##io
##atives
##mb
smart
Data
##rum
##CM
##anti
heter
intu
30
50
towards
accid
electrical
##ropy
##ists
ga
quad
##odynamic
##ipl
count
thick
##sequently
Mark
lack
Systems
verify
compens
deformation
brain
hyp
jo
##ectors
sensitivity
upon
Comput
deploy
Mat
##orting
##iles
calculation
trained
##stac
valued
own
Gaussian
##sw
University
arg
domains
precision
acceleration
wal
past
negative
fuels
##ographic
##anking
allocation
Gener
economic
##ula
##igm
science
##EE
carbon
combining
representations
cham
sal
##edom
participants
broad
quantif
##jective
intelligence
##aries
central
pul
effort
sch
solved
ensure
Hy
metal
having
Experiments
contribut
##ressive
GA
wave
express
##GA
draw
last
variations
threshold
bar
heuristic
easily
situations
explicit
smooth
learned
motiv
##ening
six
exhi
therm
attributes
population
treatment
capture
After
##bal
reac
assum
perspective
tire
retrieval
obstac
##omposition
Elect
stra
taking
particularly
##emic
improvements
199
##rit
Pr
neighbor
designs
coupled
##RA
grid
localization
##raul
subst
##vari
induced
##ero
surfaces
prove
##omial
feasibility
procedures
front
weak
background
speech
cause
decisions
##ime
define
pan
unique
rather
##ructure
II
formulation
bre
focused
swarm
##con
mm
Pl
distributions
handling
##izations
accept
priv
operational
hypothe
##aser
partial
courses
explore
pist
##CS
sequences
##rosion
stat
thin
Europ
idea
Research
All
MP
refl
au
verified
So
embedded
##emble
gover
evidence
asy
alumin
now
affect
another
predictive
##ots
modal
Development
gap
validate
principle
mixed
sci
timing
contribution
attribute
##oming
relatively
volt
approximate
create
##vity
oriented
##TS
##eting
fract
##tile
##lier
improves
Also
remo
##ious
organization
Techn
peak
25
convolution
##ks
##na
teaching
plant
##ighting
cooling
##vent
limitations
lub
predicted
##RI
spaces
behaviors
controllers
transformation
exch
overcome
##has
##iesel
represented
comprehensive
fo
acous
proved
accurately
transient
modern
Method
toler
equivalent
electronic
discusses
evolutionary
researchers
section
elastic
Eff
plastic
focuses
Comp
start
##ements
responses
changing
##raulic
perception
11
absor
##pro
chemical
clusters
aid
greater
enhanced
##andid
##ief
From
extensive
convex
gradient
Dynamic
situation
decomposition
install
get
see
reduces
##orph
enter
document
##mental
optimum
concrete
##fficients
ont
amb
Det
##obility
temperatures
chec
steps
##enced
##aced
##iring
Appl
larger
fing
sliding
##eas
Numer
neu
candid
plate
answ
previously
rank
achieves
Neural
characteristic
games
UA
comparing
crash
##geb
whose
filtering
inj
ones
units
##comes
##uty
highl
cars
##ury
close
words
##by
High
coefficients
##arily
optimize
##ps
designing
piston
regarding
inject
##ynomial
##ES
enable
manif
constrained
##valu
AI
running
rigid
##time
place
qualit
nan
##bo
infrast
##LS
EC
##erti
underlying
Mach
far
optical
refer
circuit
aud
takes
stro
capt
curve
instances
execution
consideration
tub
consistent
competitive
parad
##au
manner
combin
objectives
sensitive
person
##ues
transmit
conclud
contrast
partition
chamber
reconstruction
##DP
graphs
exact
emphas
items
##tor
discussion
generally
##quid
minimize
maps
##ulating
##ches
query
moun
##ometric
stead
intake
##ored
##mit
underg
CNN
transition
mess
ir
Or
##struct
Col
braking
topic
SO
##DM
Such
leading
gras
possibility
domin
stim
##zed
occup
degrees
quantitative
voltage
pump
align
##estri
invari
##sed
##ulum
##ceed
##rations
integral
computed
##ography
synthetic
elimin
DO
profession
tw
##anol
ways
##idden
plane
stabil
##apor
pose
pix
customer
inters
inputs
##arge
entire
restric
modules
divid
thickness
adaptation
scenario
DC
consum
polynomial
enab
##af
scene
redund
##EG
mut
dise
They
measuring
cooperative
##tr
##xt
expon
meaning
wavel
##ulty
compact
spark
soci
PM
brid
iterative
diversity
expos
routing
ranking
decrease
determining
bearing
arbit
substanti
SC
##ancy
becomes
reinforcement
handle
trade
hydraulic
correspond
dou
created
locations
gives
mill
select
##head
distin
introduces
percent
laser
No
##herent
suggested
SI
##pervised
##hing
##sy
algeb
cruc
child
##osi
generalization
currently
principles
zero
moment
##ched
##GR
concentration
##elding
intensity
cells
agre
##anning
ep
modeled
residual
##vation
paradigm
spectrum
lit
curric
interference
heterogeneous
intr
duty
verification
hor
tel
##tered
Algorithm
configurations
solid
liquid
mobility
steady
##ilib
Under
balance
##ze
Sever
usage
Additional
##isition
manipulator
membership
##ultural
##otic
standards
Numerical
##gments
next
Vehicle
##ameter
fab
##mbol
##ender
railway
##aged
predictions
charge
sense
##ores
evol
utility
Both
##ath
speeds
metrics
He
sat
16
##LP
##ites
##ilibri
entropy
actuator
activ
Markov
Due
involving
shear
offers
CP
Ass
##scill
##aking
counter
school
always
calibration
sent
##iminary
mes
orientation
ensemble
acoustic
orth
Car
##uation
lateral
examine
Ly
conceptual
pedestri
overl
engineers
generating
abstr
crucial
freedom
commonly
phot
definition
stroke
companies
implications
##SM
propor
##olation
profile
##agement
##unov
evaluating
derive
embedding
collaborative
AN
##roscop
Several
##eli
##AR
br
##iv
author
exploration
experimentally
Fe
2D
##rup
depends
belief
performances
Differ
analyzing
questions
##apunov
##ony
goals
##Ns
others
keep
performing
infrastructure
Dec
preference
EM
indicated
##osp
faster
Many
Ob
curves
collection
patients
dimensions
subjects
channels
uncertainties
sharing
acad
instrument
prepar
##ilities
##most
##iec
sequential
impacts
extend
soot
equipped
acquisition
##LM
Adap
summar
mission
square
##car
utilizing
qualitative
formulated
##mmetric
parametric
Lyapunov
##CI
conclusion
##gram
progress
##zation
oscill
connection
manifold
Most
##ete
comfort
displacement
imm
seat
##ards
Comm
faculty
##elet
forecasting
combines
outcomes
corrosion
##acing
Non
flexibility
bounded
graphic
affected
validity
SP
might
characterized
equilibri
topology
##osen
cer
stages
##rap
Through
##day
medium
vertical
Specifically
cutting
##raph
##wise
estimates
yet
consequ
rang
##ancial
easy
conflic
quick
layers
hidden
typically
manipulation
##ulus
roll
GP
##ners
ter
forms
possib
Vari
##rated
manufactur
##EC
delays
requirement
inform
feasible
##menting
involves
coupling
considers
##ict
##SI
Be
rear
##eu
constit
fill
vectors
AB
##ones
theor
##idation
symbol
degrad
reach
inside
consistency
##viation
##SC
walking
por
structured
##amin
predicting
observations
Networks
bur
instead
protection
auto
spectral
addressed
trust
databases
big
benefit
##actor
job
vers
composition
magnetic
Here
visc
deals
trajectories
little
hol
Inc
Reg
efforts
realistic
chosen
compute
compress
sty
instit
##ycle
##ili
texture
interactive
convolutional
##vo
##here
##rices
aggregation
EGR
performs
##asi
weld
##off
minimal
dr
##supervised
Perform
limits
pil
comparative
determin
shared
smaller
though
##exts
growing
##ifying
##ancement
Internet
##ME
##rief
equal
paths
IC
13
lines
identifying
particles
attit
switching
war
40
allowing
damping
guarantee
inspired
##atch
experiences
##oph
penet
Im
perce
filters
##ren
experts
inerti
ii
##FS
Ph
financial
company
##RT
kinds
route
##sych
Additionally
interesting
discover
aluminum
##ocal
##ensus
simulate
causes
third
##unction
tend
media
instance
matrices
Three
coating
recommendation
Web
##ouse
##ansion
day
revealed
Partic
Pre
invest
cycles
rotation
named
duration
robotics
##umption
semantics
addresses
meta
recovery
synchronization
saving
containing
Le
powerful
Sub
window
investigates
film
##ogram
right
shift
passive
flame
particulate
almost
innovative
conduc
intuition
preferences
Optimization
Each
specifically
horiz
harm
agreement
assumption
European
brief
ey
multim
turbul
joints
##rang
display
##RP
topics
cold
##20
Process
18
arbitrary
According
compli
##ott
equilibrium
Bo
##ours
achieving
composed
Dist
14
added
Firstly
Performance
expand
double
infer
increasingly
followed
finger
##pite
Mon
modular
##MM
inverse
categories
imple
clin
contains
expansion
##IN
FP
architectures
existence
inequ
demonstrates
##aling
##itud
Program
##br
Impro
##amp
details
poll
##ull
repe
##anes
govern
coding
DP
##arities
poor
reaction
##ometer
##ices
canc
##entific
diag
wavelet
array
targets
accompl
carry
During
PSO
city
simulator
hot
turbine
##raduate
tuning
##eries
cop
gran
biom
secondary
synthesis
lubric
shapes
##isy
directions
delivery
controlling
ideal
##AN
pay
Adaptive
##hest
radio
Qu
applicable
received
##ipal
resol
expressions
##erior
horizon
anten
aspect
introduction
Hum
##ading
kinematic
Time
amplit
observation
##ades
demands
larg
representing
algebra
AC
phenomena
itself
und
detecting
regener
diameter
bounds
analog
subsystem
##orth
jud
chap
##irect
000
##ina
Intellig
multic
showing
##ritten
##AC
approximately
illustrated
positions
80
fracture
discipl
morph
prel
ball
zone
documents
ANN
likely
Ma
beg
##OS
Integ
assumed
subset
##ensor
Es
calculate
individuals
frequencies
adequ
musc
Four
##sibility
reports
fine
educational
emo
marg
spring
##oel
##RC
observer
exhibit
interpretation
safe
family
##elines
aerodynamic
##ished
##sively
specified
consisting
proof
detected
represents
And
##odal
Cent
##RS
utilization
##ratic
kn
facilitate
##we
60
vo
unsupervised
assignment
candidate
reson
depending
aware
complement
anti
phenomenon
rational
sil
systematic
consensus
hydrogen
##liers
rating
psych
##rication
greatly
publis
##eed
frac
disturbance
nozz
Cor
##ret
notion
HC
determination
Appro
drop
##ogonal
##pers
mi
CFD
curriculum
policies
accoun
overview
NA
languages
##DS
board
##lo
##vention
##roduc
motions
expect
If
association
preliminary
jet
list
Ins
##ready
##alf
IT
scientific
cha
plays
##tingu
Evalu
Machine
pairs
lane
##irec
characterization
remote
Technology
representative
seen
##itive
pilot
##esides
slow
age
Recently
##50
estimating
simplified
technological
labels
break
##mpto
bit
##ygen
rolling
##rate
##sist
Em
humans
##set
movements
##uth
already
phases
supported
Ag
tunnel
translation
neighborhood
histor
perm
prem
##MP
##anks
enough
Pol
chapter
intuitionistic
eth
ring
spread
status
soil
practices
score
deriv
automobile
machining
tre
fiber
Space
diss
198
specim
biological
formed
##pus
excell
rotor
bridge
academic
formula
introducing
subjected
##asc
##DC
##acting
##process
precise
PC
annot
##LC
Hence
baseline
look
alternatives
neurons
Over
NP
minimizing
##erning
imaging
links
settings
deform
##umptions
privacy
characterize
facial
indicates
implic
conversion
Comb
##itude
Information
##angular
applicability
Deep
Li
clut
adm
##oder
mol
##EV
##osity
innovation
origin
assumptions
##rence
explan
highest
distingu
##room
undergraduate
squar
Predic
forming
EEG
communications
##ton
share
compr
##flow
##irable
Dri
opportunities
ontology
whereas
diverse
##inion
employing
attacks
update
price
##cing
coordination
extent
actuators
disturbances
Diesel
additive
##use
invariant
trees
recur
recon
##point
Human
##fect
bott
##ung
radial
explored
##itudinal
augment
prevent
exchange
##go
##vement
clim
comparable
Sm
penetration
complic
selecting
trends
generic
asympto
##vance
conditional
oxygen
countries
starting
##ectivity
axis
scre
maintaining
children
coverage
manual
MC
den
##TI
failures
history
Application
exponential
##echanical
recorded
90
##elihood
tax
Disc
locom
customers
Am
separation
##ON
today
release
fra
put
##DE
inspection
true
humanoid
##elling
##ensile
bending
US
##ocharg
##MI
profiles
##istration
speak
##turb
diffusion
guide
gram
pure
availability
lean
obstacles
highlight
##versal
hence
##idth
his
magnitude
disease
##yl
combine
mitig
split
box
projection
principal
professional
##MC
latter
RB
concerning
converter
##encing
integrating
teac
##train
check
flows
##inning
##entioned
piec
trend
reasonable
tail
confirmed
gait
##assif
excellent
hydrocar
##FC
noisy
just
##DI
suggests
Compared
##ifications
stock
neuro
##aptic
##lab
considerable
slip
too
plans
##yond
occurs
MI
electrom
comple
projec
cellular
trig
pedestrian
realized
confidence
conj
AT
controls
ign
utilize
mesh
statistics
tack
generator
##lish
##ption
##aps
##ediate
patient
aimed
longitudinal
welding
##iction
dynamically
led
Energy
durability
proven
sizes
##ands
losses
##Net
injury
sustainable
clean
Air
inver
did
dynamical
incompl
##war
quasi
straight
Io
stere
codes
throughout
opp
operate
Mic
orthogonal
##ishing
compati
##ompos
contribute
eye
Min
likelihood
##zing
variance
return
##icon
amplitude
appearance
Computer
Mean
emerging
##lege
Bec
##ormal
rich
reinforced
segments
difficulty
har
Sw
wheels
##factory
inherent
Hybrid
##otors
category
ratios
missing
throughput
PA
separate
accident
##eto
multipl
supporting
charging
##water
incorporated
##tensive
latent
computationally
MO
##igen
Power
tensile
fav
##uge
##BS
completely
##meric
enhancement
exploit
la
perceived
barri
published
degradation
avoidance
resulted
hypothesis
waste
turbocharg
Modeling
##tra
clinical
cylind
##utive
##width
distinct
wr
encoun
##orm
Rel
incremental
##like
integrate
divided
English
attempt
relax
Because
satisfaction
discovery
##ged
perturb
accidents
General
imbal
nar
ideas
enterpr
RF
answer
remains
incorporating
17
helps
##riting
concerns
nearest
edges
calculations
Study
fractional
located
fall
periodic
strongly
MIM
obtaining
programm
subsequ
fair
fabric
positioning
rapidly
depart
comparisons
visualization
Cal
outputs
overhead
communic
satisfy
quite
teams
complicated
##vis
encour
##imination
guidance
aver
implementing
classroom
combinations
Problem
optimizing
nozzle
##ayer
##izer
nit
##ru
thereby
diagram
realize
quadratic
Different
solar
intended
##sider
sheet
EV
topological
terrain
crow
frames
deterministic
green
##umn
developments
gr
creating
MS
expressed
minimization
classify
AP
Wh
Besides
recommendations
relay
impul
recurrent
assessed
alignment
theorem
##tors
##RF
##°C
##rative
partially
opinion
UAV
unified
Sur
faults
##CCI
##seud
accum
correlated
Meas
reflect
planar
kinematics
purposes
relevance
theories
stationary
competition
Mo
##vals
State
stresses
##osing
evaluations
beh
Extensive
##roc
rise
site
acquired
##hol
preserving
connections
ord
dry
Sem
##variate
tube
decreases
conser
discre
quickly
pixel
simultaneous
oxidation
produces
queries
##lation
left
indicators
Artificial
specification
dimensionality
##olds
##aily
##inding
km
pipe
shock
discriminative
##ident
expensive
anim
maximize
redundant
arri
interm
##isp
##ulties
NN
bandwidth
##son
##insic
subjective
activation
recover
relational
21
extreme
specifications
collaboration
diver
allowed
##lines
powertrain
Indust
##tification
match
##stra
cred
utilizes
dealing
##oti
sector
##co
exists
Inf
##figur
SV
views
modification
supports
processor
hierarch
##ush
##ourse
deployment
advers
conges
rub
incomplete
firm
mac
##igu
decreased
##ED
extremely
##ape
maneu
ra
CO2
tac
##weight
newly
flat
historical
Jap
compound
adapted
cooperation
constructing
Rep
homogeneous
height
longer
reviews
##STM
implicit
interp
proposal
occurrence
transit
generates
width
SS
variability
##den
protocols
CN
net
meth
considerations
platforms
##forward
beyond
##entiment
diagnostic
interior
Bl
##RM
subspace
analysed
numerous
compensation
university
hear
##inese
severe
##oded
contributions
gest
##iling
IP
China
international
But
infin
labeled
mil
potentially
##agnetic
dro
##iler
attrac
mer
significance
message
##oted
Test
Support
daily
Image
##aim
##oms
removal
manufacturers
automation
angles
argument
Ser
serve
highway
CF
fluct
##aff
congestion
concerned
trip
axial
affects
obstacle
column
##stead
##manned
panel
Comparison
fire
half
pit
Americ
influences
facilities
Chinese
surround
Robust
difficulties
shell
subsequent
Real
24
##ma
dependence
##ented
##rag
##alse
reality
acceptable
distances
becoming
describing
##cessive
effic
##entral
injector
identi
frequently
Evaluation
Gi
plates
blocks
insight
##TC
attract
reasons
Do
ship
anom
imped
valuable
logical
##ulture
Log
Consider
although
##IC
atten
singular
directed
hands
##raction
##while
drag
earth
pow
##wareness
##NA
IoT
distor
Bi
ren
##ynchron
foot
Vis
##habil
##alities
setup
insights
Kal
##vable
sections
fraction
##board
##anger
pseud
##ectric
bip
continuously
placed
emphasis
eigen
pred
mal
##sel
RO
intersection
LP
aerial
arrang
##ucle
CB
desirable
fle
heuristics
investigations
probabilities
organizations
##udes
##olute
##conn
##AM
##ulf
Adv
reward
repair
##aneous
frequent
creation
Typ
chaotic
Recent
majority
ann
differenti
satisfactory
##RO
##stream
belt
National
##ta
pulse
gramm
Next
Ext
MIMO
tag
connectivity
efficacy
inser
appar
##Us
##iddle
scales
##ulsion
ultim
##edia
haz
##icity
proportional
regularization
assisted
vibrations
##ogen
hole
serious
mounted
##hentic
you
##active
employs
guided
incon
treated
STEM
ambient
excitation
mixing
CAD
traction
inlet
neut
papers
##apping
Conc
deviation
classified
incorporate
false
her
Soft
stations
##onomic
penal
kine
bio
rely
How
receiver
antenna
CC
regulation
estimator
enabling
decompos
yields
##eleton
slight
methodologies
versus
gather
matter
completed
##ulates
cyber
cancer
##ryp
adhe
Sol
consuming
stop
##ronic
intervals
induction
Robot
##ivil
multid
finally
##habilitation
compet
##FT
directional
packet
scores
emergency
emb
clearly
searching
adding
varied
advances
convers
lex
##hop
recognize
CV
##kes
##osk
abstract
##ided
##PA
Given
Gl
awareness
##uli
Red
##ested
lattice
spi
fitting
radiation
Kalman
##iscipl
CS
chip
Its
detector
agric
manipulators
CT
cameras
##itary
equivalence
##10
quantity
reviewed
transformed
PID
coordinate
explicitly
PD
cav
##OR
laws
##utes
superiority
assistance
##EN
depos
squares
ine
Expl
balancing
International
inner
Commun
sentiment
interconn
##ester
belie
vapor
coal
##ai
##lip
##tified
substantial
style
##rot
interfaces
contin
##itions
instant
trucks
pain
truth
##ML
vehicular
scaling
dev
heating
belong
ten
optimisation
grasp
primarily
isol
installed
ride
designers
lamin
mutual
circular
attain
imper
exceed
##asses
##ply
opportunity
##rif
facility
captured
70
authentic
boundaries
offered
##roscopic
attitude
Multiple
##GB
disch
instruct
gains
eight
fading
substr
biod
fri
##HP
item
adequate
##isciplinary
priority
tolerance
CD
FPGA
##bs
causal
examines
circum
##irectional
soph
string
advance
velocities
processed
processors
glass
variants
Know
boost
##ste
modifications
scan
bias
monot
exploiting
indoor
secure
defects
##inter
##mosp
encoding
root
below
Environ
roughness
GPS
industries
##crip
##urning
extensi
##arial
stereo
division
pros
fus
properly
Science
PI
table
##oS
schedule
correction
ML
##amic
operated
##roid
dead
AS
leak
sha
TH
influenced
DOF
outcome
templ
Transport
##TE
##ortex
contexts
##imensional
PO
monitor
Estim
satell
minor
correlations
##bing
retain
HCCI
##ulator
producing
focusing
explained
diction
communities
buildings
intrinsic
##ared
Management
##rays
until
##NNs
affecting
##ulas
exhib
graphical
iteration
dense
cyclic
MR
satur
BP
##umination
sites
conclusions
defl
synt
powered
grade
Local
##eled
lift
##rogen
##ault
date
circuits
ELM
requiring
Classif
raw
manage
contour
variant
earlier
videos
strategic
curv
##sip
weighting
##umm
Rad
ordered
changed
composites
##roup
drawback
plug
interview
home
profit
investment
AR
Dep
##entralized
makers
ethanol
Sign
##erman
aided
session
SLA
##aph
cultural
##bi
exposure
sho
Fl
motors
cab
evapor
ant
attempts
ambigu
burn
formulate
wing
##ysi
relies
compliance
##order
mechanics
foundation
##illing
bring
middle
horizontal
##icing
SN
Low
##normal
Effect
modulation
meeting
##utation
microstruct
##ragm
hierarchy
extracting
reconfigur
##IF
thinking
strict
##eral
##ership
fem
motivation
completion
choose
axle
##edicated
##ster
Ther
lot
tip
##etric
thor
restricted
22
symmet
regulations
##ached
stored
##ened
productivity
rotating
Decision
##lined
##TA
discourse
volum
independently
integer
acces
format
calculating
cities
involve
appears
intensive
Among
Cur
actuation
exerc
##ixed
nucle
eliminate
lin
Secondly
quantify
tele
Char
illumination
incorporates
private
turbulence
pressures
underwater
trigger
follows
rehabilitation
skin
synthesi
percentage
wee
interact
reproduc
SAE
Visual
AU
mentioned
threat
Is
plants
shaped
##idirectional
sup
atmosp
adoption
dil
FE
fulf
assigned
recei
##olding
spars
granular
vess
decades
discriminant
Tow
Finding
tis
scenes
absorption
meaningful
symmetric
sand
logistics
round
##neum
contextual
merg
entities
behind
specimens
Gene
shaft
##acking
##tures
spher
seven
##ept
trains
inconsist
SM
oils
graduate
Bra
angular
identity
lightweight
##ee
fleet
SU
##com
IV
ion
emotional
##oxide
##illance
absolute
tank
jus
ranging
Del
Despite
explores
margin
##plex
extra
negoti
impedance
bag
cast
stabilization
uns
##acc
emotion
CR
scalable
locomotion
weather
package
metall
##LE
##WA
subg
tension
Approach
mind
##irl
AM
panels
risks
wat
presentation
Consequently
sensory
yaw
assessing
Optimal
mental
##TP
inten
closely
national
Oper
alloys
##crib
geometrical
LS
Various
35
Micro
Monte
##isely
discon
covering
##osc
Cr
Fre
renew
why
destin
##lies
##assis
Coll
commit
enabled
Linear
dedicated
behavioral
reconstruct
Sel
clar
gained
##EP
experienced
guaranteed
layout
interd
##antum
##land
dissip
##selves
pixels
million
##print
concluded
Knowledge
recognized
messages
TO
corpor
huge
rod
##hion
universal
Previous
Form
Intelligent
reser
SD
adjustment
favor
suffer
studying
claim
rubber
workload
Carlo
carb
handw
##standing
enhancing
passengers
##pm
flux
indirect
corpus
conflict
inertial
PCA
promote
PS
##ocking
23
outside
Finite
TS
government
##ked
society
options
Automatic
Detection
United
locally
intermediate
bearings
iden
##ifies
##Hz
careful
algebraic
crowd
species
respond
NS
Fuel
guidelines
mostly
repeated
DI
inclusion
pic
Emp
hours
irreg
prun
sustainability
Sch
inequality
Qual
que
##wing
##work
DM
computations
tackle
##inting
scatter
##emporal
FA
written
##ommod
instruc
dependency
##oting
assume
occupant
##advant
argue
food
pseudo
arc
indices
vital
moments
sentence
Investig
multimodal
Efficient
foam
mar
naturally
updating
distortion
IN
teachers
AD
asymptotic
##RL
resonance
Meanwhile
knock
grasping
Clust
RBF
beams
alloc
197
histogram
Id
sle
Ge
##times
##ropic
drawn
Saf
##exp
partitioning
defining
guarantees
scope
disadvant
perfect
recursive
surveillance
deterior
reveals
bul
##ulner
hardness
iron
BS
functionality
integrates
torsion
referred
uncon
##ley
bran
comprom
regeneration
scalability
servo
institutions
letter
preprocess
sulf
adjac
##tis
remark
##ert
buck
ded
DA
##60
##haft
muscle
##rog
Dis
registration
spot
er
bic
master
lever
unmanned
fresh
intention
##versi
##ounts
Feature
##osis
usefulness
casting
mid
##ometry
streams
Pur
acceptance
Unlike
##titute
##esit
largely
determines
alle
physics
accommod
consumer
parking
college
beneficial
theoretic
##xili
disper
themselves
norms
##EL
dominant
occlusion
engineer
Considering
##olic
95
deb
waves
military
ray
pipeline
MAT
SLAM
tight
##sess
##ror
proxim
polar
simply
##ismic
savings
Center
randomly
extensively
##oking
derivative
Gra
chassis
viscosity
instruction
covari
##gical
dialog
##ube
inertia
electronics
gene
jointly
Recog
Measure
seed
biodiesel
SCR
recommended
bod
applies
decentralized
##itan
engagement
encountered
catalytic
sto
alone
steels
redundancy
prote
nom
augmented
Vector
placement
possess
CM
##edy
##ashes
Computational
Assess
od
##uries
Students
satellite
hydrocarbon
scanning
##adays
Electric
##roscopy
99
##atorial
##ositional
Part
States
75
reform
##xiliary
moder
##isms
Pareto
audit
Advanced
refin
Mobile
former
dictionary
Work
##rust
cracks
infinite
abnormal
##layer
responsible
propulsion
narrow
##ilos
IEE
attractive
symbolic
recip
come
partners
radius
Ab
possibilities
implementations
tolerant
civil
descriptions
300
##acec
neuron
Incre
adversarial
friend
curvature
roads
Traditional
surrounding
imag
dropl
PP
updated
##PSO
vulner
pneum
accep
adopt
statistically
2000
##lide
##fol
##tiveness
numerically
MT
##ospace
pool
descriptors
nearly
##box
demonstration
suited
occurred
Si
ultra
prepared
500
old
clutch
FC
peer
encryp
sophistic
routes
##etary
DPF
Self
motorc
triangular
##IR
ty
amounts
delayed
Equ
RC
##mon
precisely
subsystems
##actic
bottom
IEEE
selective
briefly
tum
Vehicles
pollution
##word
faces
conv
centers
rotational
floor
month
##hemical
##rig
considerably
conjunction
characters
complementary
##ogeneity
What
Se
bases
disciplines
orders
remaining
landmark
Character
dependencies
Fast
compressor
tensor
admin
outliers
fitness
Genetic
Gre
substantially
##oelectric
##stone
recording
grey
crashes
organizing
tract
extensions
##LAB
##oidal
bed
Random
forecast
heart
##ows
decreasing
onto
##ourn
##asive
computers
separately
26
German
RA
45
room
##ativity
installation
##pose
recall
identical
limitation
##hold
tractor
perceptual
##ynchronous
##sts
##urance
##luid
fed
ellip
perman
audio
institution
NASA
Can
fer
negl
Ear
black
distinguish
Sing
##ticip
volati
workers
multivariate
preparation
CH
exploited
speaker
periods
terminal
Current
Te
firstly
Lag
damper
##ilarities
collisions
##VA
perspectives
theoretically
hoc
hesit
atom
discharge
extends
American
max
learns
latency
regional
blends
contents
Third
distinc
reached
rock
trap
switch
auxiliary
DB
sentences
physi
FM
RS
##bre
transformations
slightly
##ributed
axi
women
##Ps
cry
Vol
32
quantum
Evolution
Effects
imprec
keeping
##theless
outer
##iez
Fourier
concentrations
accomplished
markets
tactile
##IT
##ositions
##part
Struct
lect
Stand
solver
##iency
aging
##otropic
philos
surveys
deployed
sen
##uff
lighting
avoiding
questionna
Automotive
##actions
vs
suppress
house
turning
allevi
intervention
integrity
versions
Exam
barrier
RL
generative
records
formulas
AF
##fficiently
transpar
explanation
electromagnetic
##iable
planner
consequences
##unch
approximations
retention
demon
invent
news
roles
analyse
IS
massive
crank
obvious
gravity
Manufact
Fil
haptic
participation
writing
gender
players
##book
semester
organizational
FS
##wide
analytic
abilities
linked
interpolation
28
combinatorial
Na
correctly
Fr
tires
choices
tab
Social
injuries
molec
##omb
server
factorization
RGB
agricultural
chrom
beginning
IM
Glob
##acecraft
rect
compares
occurring
##rared
intra
opening
Labor
largest
regul
benchmarks
underst
warning
##care
##uated
frameworks
Methods
FEM
dynamometer
Europe
intuitive
##ache
crew
electricity
conclude
##osting
simulating
lib
undert
##efined
seismic
indicator
##DD
isolation
contained
El
MATLAB
develops
##ife
despite
checking
##istry
maximal
polymer
DT
biometric
correspondence
pragm
Graph
adjusted
termin
inequalities
casc
##ugg
stack
batch
observe
Bu
##ey
unlab
Identif
##dens
LSTM
##oints
methanol
collective
streng
coordinates
restra
inhi
ceramic
turbulent
demonst
PH
examination
pairwise
##geno
motivated
sized
mathematics
Open
injected
nitrogen
maneuver
QoS
maximizing
evolving
country
library
IF
viewpoint
##uctive
sophisticated
poses
hazard
candidates
remove
Active
defect
feel
subm
##app
##orphic
learners
Similar
destination
##bor
exposed
cope
##uclide
recyc
seems
interested
##trol
ensuring
player
kernels
##BC
dram
aggregate
##ewise
subsets
Distributed
Cap
Tw
trace
catalysts
shop
##gence
decou
consequence
therap
reaching
credit
##ensities
descriptor
##OL
Theory
cognition
frontal
##anese
ordinary
discreti
##ologically
worst
severity
batteries
disp
Mar
##unately
accomplish
empirically
Wi
exhibits
##uclidean
spherical
tuned
fly
##coming
normalized
Search
##inality
covered
##sor
blade
mixtures
accounting
texts
sparsity
tissue
##OC
##usting
planned
portfol
Traffic
analyzes
Dig
balanced
once
buses
thorough
piez
fuzz
diseases
ranges
addressing
passing
##tition
afford
preferred
acid
days
radar
understood
intersections
reductions
WS
##olean
runs
Safety
Hz
oct
collect
##VID
##hyl
die
enfor
adjacent
exploring
philosop
DS
##house
prost
Existing
instability
Out
##lor
purch
Pres
coatings
##ki
anticip
exosk
fabrication
Service
spacecraft
kinetic
survi
##vit
outd
transmitted
permanent
00
##urate
similarities
Sugeno
##itting
27
pursu
##gery
missions
pneumatic
perceptions
synchronous
Seman
definitions
fig
signature
offering
GM
bud
connecting
happ
card
##lity
##heur
door
young
Prot
##versities
maximization
decade
sometimes
swirl
exploits
workshop
overlapping
automata
cylindrical
covariance
DE
shall
demonstrating
##Rs
##band
hesitant
jump
arise
Val
Station
##tinuous
hold
ratings
globally
##une
week
giving
reactive
##pectral
##akag
regarded
Global
98
pad
rid
pollut
identifies
investigating
Prac
##porary
summary
substrate
neutral
closure
thrust
Ham
##alk
branch
cues
penalty
span
authentication
instantaneous
Depart
##IP
Classification
Ste
##lass
Recognition
sufficiently
sales
legal
Euclidean
py
acting
arguments
kg
cable
blind
gases
geographic
bol
satisfying
##rically
dumm
labeling
impos
Influ
friendly
valves
compliant
bodies
##AS
refinement
##ametric
fat
manually
fluctu
replace
Findings
renewable
##ashion
Gu
##outh
inher
recommender
posterior
contributes
priori
hypotheses
tour
machin
switched
proportion
saliency
pet
stri
enric
pitch
continue
grain
choosing
throt
converted
nominal
Autonom
Particle
##agog
##forming
ampl
music
irregular
grip
PV
deflection
suppliers
Rail
##eller
##opic
white
Initi
flo
wise
Intelligence
Hyd
##down
Prob
##DF
DL
modelled
FCM
Pat
triggered
devi
unlabeled
##onym
##tise
preprocessing
entity
establishing
Motor
Now
relaxation
smoke
##augh
##oelastic
##ateral
absence
option
Experiment
comes
colony
lubrication
tang
thermodynamic
culture
unst
Industry
living
Gas
hop
trial
carrying
lowest
compressed
powder
MF
attitudes
Mechanical
influencing
tubes
exploitation
TC
respective
zones
actually
hous
healthcare
Never
##olar
viol
template
sampled
##inity
##elled
conditioning
insu
lubricant
ol
Parallel
mig
tradeoff
31
polyg
2010
repeat
optimality
attracted
Ti
SR
leader
##fortunately
jobs
held
offs
pruning
ordering
quantities
teleoper
Virtual
HS
neighbors
aerospace
##ocular
feedforward
magnet
DF
du
III
portion
##ception
climate
saturation
##ipher
limb
fulfill
mini
firms
tyre
AV
##omer
Nevertheless
contract
##phal
accepted
##ameters
compatibility
salient
cum
lifetime
farm
Maxim
supplier
°C
##herence
infrared
acquire
executed
harmonic
Pers
envelop
Estimation
discrimination
seem
Pri
workspace
wet
compressive
fashion
cranks
compatible
walls
pick
walk
##ship
actuated
pedagog
enterprises
Japanese
##FIS
UAVs
Instead
managers
fewer
disaster
capital
33
##empl
##oss
strengths
capturing
##KF
##ulative
##BP
store
print
Smart
##rade
##nealing
Applications
##dynamic
matched
##orter
serial
routin
##certain
pricing
possibly
permit
spr
unb
imbalanced
inventory
quantization
enterprise
thread
stimuli
late
replacement
gate
##rea
##aken
COVID
Statis
multimedia
attached
Towards
pin
##plane
prototypes
##going
##oh
##field
chains
reactions
psychological
payload
Institute
adaptively
Convolution
adopting
drawing
NV
indicating
kW
universities
##Ms
transmissions
##cribed
Laboratory
systematically
##US
elast
designer
patch
broadc
Sy
##uling
seal
viewed
bond
classic
Digital
stake
variational
condens
Lap
##dition
elabor
Department
cm
expectations
latest
logistic
##ampling
organized
Orig
reverse
pedestrians
voting
mel
overlap
##idel
initially
command
ensures
render
covers
subsequently
conducting
Prediction
Educ
##strained
senior
##amb
Enh
gears
macro
crop
classifying
##rought
ut
Group
##aving
unstable
H∞
Langu
rejection
##des
drawbacks
descent
LMI
ment
emotions
Autonomous
shad
##ithmetic
##itor
expertise
offset
HP
bin
transduc
converge
Flow
personalized
coordinated
healthy
host
drift
##eneur
Another
asymmetric
sket
sugges
Field
forest
compensate
loaded
accelerated
##preneur
Other
ease
interacting
ontologies
voice
Bas
Mem
##pir
ES
cub
easier
imposed
Thermal
interests
offline
aiming
shortest
earthqu
Quality
decoding
blast
Simulations
sulfur
##opl
##oration
##repreneur
##ees
membr
Models
Even
fan
drives
membrane
RP
##lications
probe
##acements
Boolean
stain
bor
##ho
##hetic
##ventional
conserv
Case
manufactured
detectors
Purpose
organic
metaheur
landing
##throp
Class
rigor
microstructure
Their
reflection
manufacturer
asynchronous
communicate
plus
Software
ID
leakage
Semantic
##isture
dissim
##OP
realization
provision
Conclusion
architectural
multilayer
CI
##eck
##amination
fabricated
suff
imbalance
handwritten
Manufacturing
NM
##agent
marketing
HMM
OFD
##itter
SL
##orld
##berg
helpful
Assessment
EU
pavement
disadvantages
coarse
emerged
shot
book
oscillations
Theore
Programming
protein
dB
duc
That
freight
mitigate
preserve
torsional
rev
##mpt
prioriti
mutation
momentum
##RE
perturbation
##obiles
welded
##entation
Ver
Material
danger
##aves
Clustering
artif
hour
##icate
instruments
extending
correctness
##iliar
embod
##ats
##rolog
cabin
Net
reuse
supplement
concurrent
portfolio
Direct
##acu
##idity
fold
Planning
diagrams
Go
##az
coolant
syntactic
arrival
simplicity
##len
Ec
sn
##ognitive
gray
Minim
viable
facing
posture
morphology
averaging
managing
thought
monotonic
substit
##NT
adjusting
highlights
centralized
visible
note
crisp
collap
Type
presenting
Follow
trials
merging
Wire
articles
rollover
PF
quantitatively
Online
2007
##ysical
preven
blood
necessity
##ribution
ongoing
Strate
regis
multidimensional
gesture
oxide
Automated
cavity
greedy
reading
hab
doing
faced
specialized
my
##icious
gradually
##trason
exchang
assessments
MPa
Transportation
hosp
devel
consumers
separated
fluids
Influence
phone
receive
anomaly
calculus
arithmetic
constructs
85
##aper
crossing
Ford
outdoor
touch
deceler
##reatment
isolated
##eterm
proceed
lessons
##ilding
##onomy
member
cracking
centered
IR
TP
abstraction
Nonlinear
##bons
##DT
##BM
formulations
patches
Lab
Unfortunately
ultimate
enhances
##ournal
Hierar
shorter
symmetry
Language
##ken
##etry
moisture
finds
satisfied
accounts
insufficient
lies
##ropag
reciproc
##pread
proximity
##objective
maintained
Road
##DL
##uates
associative
stimulation
persist
iii
Improving
AA
illustrates
##structured
RT
replaced
morphological
moves
opinions
biped
cylinders
##titude
Cloud
career
##ielding
serves
usual
OF
Fed
resolve
Use
coil
vertices
Motion
Within
##HC
##ift
away
##rocess
coherent
Integrated
surgical
publicly
restrictions
physiological
bank
vag
intrusion
generalize
FEA
electrode
400
outlined
##dom
percept
Py
disk
devoted
##acies
removed
LDA
holes
crankshaft
notions
Ed
mir
##operative
asked
answers
targeted
##orean
lexical
##erge
predefined
stre
unf
picture
assuming
Pet
Investigation
rectangular
Reinfor
kne
projectile
Fail
LA
##uit
recep
manufacture
EP
exactly
Life
ISO
consequently
Convolutional
minimized
excessive
Long
encryption
vessel
interviews
##ipp
facilitates
developer
acts
triang
essentially
harves
Logic
Po
modify
##relation
poli
##40
interf
fingerprint
##irt
disj
Fram
analytically
##ropagation
##eth
repeti
2005
reactor
##ypt
buckling
96
Impact
##trasonic
grained
conform
believe
##heric
simpler
assignments
drilling
emergence
epist
arrangement
Pattern
##NS
governing
pal
North
##nas
##body
##aught
29
Takag
effector
##irculation
lengths
algorithmic
idle
interven
tendency
Takagi
carefully
##akes
transitions
iterations
informative
internet
Fac
independence
##vial
negotiation
Subsequently
##acuum
modulus
try
##phone
trailer
##cence
##ompan
mor
##iss
##ames
consistently
LC
##amm
refined
##tes
categorization
annotation
bulk
dissimilar
Pe
annealing
seam
plas
##30
evolved
legis
Natural
##HS
##inent
Hop
causing
FL
circumst
Currently
topologies
##ermark
prep
anomal
Project
learner
cli
##unctions
irre
##ecess
decide
specimen
##ament
##opter
worldwide
moderate
##otes
defines
V2
gaze
grouping
##uced
arising
2008
Dynamics
proposals
attributed
prevention
Lo
HV
contamin
visibility
practition
97
AG
uniformly
tracks
impulse
36
budget
projected
erg
wearable
##12
barriers
perceptron
nine
##oon
fragment
Japan
##reep
1000
##sivity
argumentation
Empir
Lapl
machinery
FO
##min
eigenvalu
noises
quantified
##mission
necessarily
entrepreneur
smoothing
biomedical
##ordance
Constr
SEM
expanded
##loading
hydrocarbons
##ourcing
approximated
looking
rotary
captures
throttle
varies
layered
normally
Filter
brought
prices
queue
relate
textual
##be
##ont
##idelity
keyword
##ques
burden
restraint
regime
creates
GPU
Large
mask
##endulum
slope
exoskeleton
anthrop
arrays
CPU
costly
turns
undertaken
bottlen
deno
nano
Organ
compounds
Single
Following
rain
elimination
##nia
linearly
cros
reconfigurable
Eul
Emission
volumes
##holders
##hics
turbocharger
dummy
##ighter
##ppings
limiting
##IL
##atus
regardless
sin
recognizing
impulsive
Syn
accompan
carrier
preced
##umb
file
steer
failed
drug
AL
suppression
capstone
modalities
##ez
##pective
requests
predicts
curved
stainless
##erce
Arab
resolved
alleviate
questionnaire
automobiles
encoder
ANFIS
coated
illustrative
webs
##tt
actively
##axial
piecewise
motorcycle
grades
Combustion
rpm
affine
discovered
older
unstructured
48
Future
things
evaluates
2009
dominated
attenuation
nuclear
Task
operates
Improved
BCI
##then
needle
geometries
exhibited
deformations
VI
##ona
arch
##itives
calibrated
Algorithms
38
Bus
chemistry
increment
phr
blend
watermark
cryst
imprecise
subc
microp
wider
Computing
##place
##ada
never
CAE
bil
brings
copper
##BO
highlighted
female
initiated
Spati
nets
novelty
##istically
successive
Object
places
knee
SE
summer
Def
tables
spline
sharp
##ibration
accessible
##rect
fluctuations
compart
popularity
antennas
##posit
dialogue
transverse
cooled
hypers
65
outline
Exp
filled
Overall
marine
Complex
Element
convey
mappings
PL
spatio
pragmatic
fitted
##undred
World
##ularities
grammar
Flex
##Gs
wides
summarized
lap
2011
fueled
researches
disrup
relating
widespread
coded
Determ
##rous
##amping
retail
entry
150
##riger
##points
stated
convenient
readily
2006
permits
MV
speakers
turbocharged
segmented
beliefs
##lock
##well
molecular
Path
##ued
##ramid
incident
networked
ultimately
Back
Cell
playing
Supp
Err
Main
##oll
gaps
##ions
##Es
multip
Map
##sia
##treatment
##mitt
Behavi
2015
Introduc
Me
aviation
octane
Building
MRI
##esign
campus
heavily
weakness
mold
##RB
accelerate
taught
Examples
searc
Mathem
gestures
ahead
vacuum
evid
crypt
surgery
elev
Cali
versati
##opy
##lers
##enty
creative
Insp
hundred
theorems
creep
resil
Frequ
MM
fore
##rone
##tible
porous
enrol
thous
request
logics
deformable
##eper
##duction
##esis
misc
##ancements
utter
Nowadays
Vi
rural
explosion
workflow
forced
##ilt
experimentation
##kle
ethical
roof
Repres
Standard
Empirical
continuity
apparent
going
Hand
firing
mile
##anted
boosting
CL
aluminium
42
Aer
##ynolds
starts
Tree
##omorphic
accumulation
Ray
prescribed
sessions
sleep
regulatory
##ugh
MPC
Simul
seek
Phase
piezoelectric
Statistical
##Ds
subt
##edicine
interpreted
teacher
surrog
##Fs
comprises
NH
Top
coming
accommodate
implies
##expected
##WS
examining
pendulum
##ales
buffer
mim
started
Port
satisfies
Theoretical
##asts
retin
usability
##oplastic
Sk
competing
autonomy
##link
2013
Noise
Failure
multiplex
runtime
##NG
stratified
ultrasonic
Associ
displacements
##roscope
Califor
05
Cognitive
##TION
exempl
alter
solves
commerce
RE
century
Selection
reus
cru
leadership
wheeled
##ms
coherence
multiobjective
schools
conflicts
closer
##otemporal
container
stimulus
prev
dispersion
graphics
Robo
nonlinearity
Newton
Auto
solvers
hub
tut
expectation
PT
Press
##Is
##ilies
scoring
2017
Sensor
recru
goods
portable
minimizes
NVH
bum
inacc
alarm
additives
thresholds
windows
California
fidelity
derivatives
Prel
sides
##dy
anch
converters
Ca
SAT
professionals
Light
staff
corner
India
multiagent
practitioners
plau
Environmental
37
55
story
sorting
na
##etal
##uzz
##worth
paid
Reynolds
concludes
##cohol
Us
engage
marginal
Mechan
displays
Ur
##meas
cache
modality
initialization
silicon
OFDM
primitives
Speed
interdisciplinary
##BL
##att
milling
Weight
defici
liner
floating
backward
SF
termed
Force
Poly
grinding
metals
droplet
Practical
adapting
Super
imagery
##steady
sque
vortex
delivered
suggestions
Stability
adhesion
plasma
##urc
imping
generators
blow
downstream
philosophy
##ilistic
adver
remarkable
34
##osystem
Tool
iteratively
teach
formalism
ult
stronger
builds
conversation
PR
cumulative
stret
Att
behaviours
cone
Things
elementary
thresholding
strip
##emporary
##echn
##icians
twin
trading
lock
MLP
Ul
partitions
prototyping
familiar
Originality
GT
optimally
personnel
Surface
Simulink
conservation
deterioration
reconstructed
dioxide
characterizing
bands
socio
ambiguity
Structural
Wireless
warm
math
dilution
metallic
Sl
Set
networking
unexpected
refriger
springs
Preliminary
elder
Princ
##netic
2004
exercise
##ann
straightforward
printed
##iber
families
2014
instructor
signs
Cho
spectra
updates
arms
##cious
divergence
stakeholders
Formula
##OT
commands
##piec
regenerative
Lat
recirculation
loops
removing
##luded
launch
circumstances
densities
##bag
##atom
corresponds
algebras
Swarm
prol
HF
helic
department
dissipation
##Cs
contours
Joint
blur
ISS
lag
premixed
##heel
prone
leverage
TA
deceleration
ET
achievable
Conn
Novel
Cross
##odic
Identification
ITS
Sequ
##ifurc
initiation
MAP
Valu
accordance
visually
atmosphere
##unt
statement
lic
##OA
fibers
##lied
symbols
##iming
Transform
##lin
SOM
explanations
strengthen
EA
providers
ethics
dramatically
cargo
spatially
deposits
City
proposing
spike
shadow
counting
##orders
encoded
mapped
regularized
breast
Testing
##paces
resistant
decomposed
reflected
##fficiency
teleoperation
om
##terior
cos
##esium
outlines
populations
##GP
##orms
vast
articulated
schedules
2016
Techniqu
##tex
instrumentation
Education
reaches
obtains
2012
MB
##ether
shifting
encouraging
maneuvers
Robotic
impossible
estimators
##HA
proves
conflicting
fused
##oil
tom
repro
ECG
##entric
normalization
undes
Hard
##ecutive
potentials
ABS
##outs
transferred
monitored
protect
Aust
conference
decl
vertex
Rus
vic
##ublic
continuum
suitability
cong
parallelism
accelerations
indexes
graded
##sover
Ni
Architect
volatility
denoising
verbal
predictor
Communication
occupants
Driving
tu
##25
arises
##itanium
sheets
live
localized
Proper
sandw
save
name
rated
voc
devised
destr
lost
explains
Agent
gathered
##onical
maker
humidity
economical
AIS
autonomously
Heat
hardening
piece
undergo
synthesized
Dat
01
##embly
bridges
##pa
airf
Chall
neighboring
Act
Of
getting
##anish
avoids
asymptotically
interventions
##rest
##chain
##osph
eliminating
##level
efficiencies
scaled
##ogenous
Soci
##WT
outlier
demanding
encourage
specify
instructors
Che
revision
redesign
Generalized
##ithium
housing
Understanding
locate
flying
client
earthquake
##orted
surge
appropriately
##vability
##unctional
Modelling
execute
academ
traveling
##ushing
orbit
HE
##lusive
Once
involvement
achievement
collapse
##role
prominent
##hyth
##stepping
##YS
##estic
supervision
Bel
unn
HEV
##enz
backp
##arc
selects
##rotor
Recomm
excit
seeking
Processing
Compan
proving
screen
Federal
HT
htt
alcohol
fairness
mand
elderly
mism
##ANET
developers
specially
lecture
Text
##ae
factory
matches
SNR
altitude
neighbour
commercially
Variable
##related
individually
##control
Face
##isher
adopts
##voir
adverse
FD
EMG
##right
Index
simplify
discipline
mine
##ometers
responsibility
Rem
excess
92
Term
Collabor
94
Jac
bidirectional
react
##tee
imperfect
##ipping
College
constitu
metaph
##000
##comings
##iability
spatiotemporal
treatments
Reli
##quet
planners
transforms
##embles
Level
##worthiness
otherwise
CNNs
1D
Last
Seg
indexing
minority
compromise
##zil
##user
extracts
streaming
reven
inconsistent
##ris
derivation
clearance
landmarks
push
tracked
consisted
##biqu
Up
Neu
crossover
PU
Hierarchical
##fts
quar
clouds
bifurc
win
neck
insertion
shortcomings
RFID
interconnected
bro
##los
##pass
##olars
except
Respon
styles
onboard
converges
##optim
##arging
Short
apparatus
political
93
rings
asphal
dispar
##atories
originally
months
summarization
male
pipes
perturbations
Mul
South
specificity
Approxim
##leigh
##range
analytics
tailored
LR
dissem
axiom
supplied
Petri
skeleton
mitigation
animal
tends
fluctuation
fric
employees
centroid
promise
H2
GC
OC
hem
adaptability
DR
entail
Calc
##amps
modifying
surpr
airbag
##oked
workpiec
equally
pref
Conventional
burning
accessibility
anis
slab
Wind
Reinforcement
collecting
exponentially
deviations
##OM
closing
discussions
cortex
scrip
bill
inhibit
rigorous
TD
ho
adsor
unsteady
Industrial
colour
Compon
statements
artifacts
fish
van
reposit
Transfer
atmospheric
##rant
reporting
cortical
Jacob
replic
inductive
som
##80
receiving
RMS
furn
##tz
metaheuristic
leaf
TV
##static
revolution
packaging
mounting
Health
Obser
##GS
induce
filling
race
coinc
centre
##roleum
##raw
deposition
lattices
answering
genes
waveform
Cost
nonpar
recycling
##roups
Arm
oppos
conservative
pas
##orrect
surrogate
##ificant
justif
Pyth
OP
OEM
##net
##oost
evac
buy
physically
evolve
bicycle
adhesive
OS
traces
absorber
gy
lives
resultant
concur
wood
##ishes
progressive
noted
planetary
##vier
Dom
diagnostics
MAC
averaged
inh
##rasound
constitute
cubic
lubricants
columns
Probabilistic
VANET
gro
μm
creativity
eliminated
##onics
peripher
belonging
User
##itted
##tility
Stochastic
##AL
##inking
refers
sandwich
##adequ
##ah
connect
Student
##mitted
constitutive
conductivity
CE
continues
alternating
Uncertain
calls
critic
Tracking
heterogeneity
oscillation
43
NC
implication
Tod
colle
expressive
molding
sciences
Fluid
bad
printing
persons
VR
fibre
shel
Brazil
migration
Event
rever
##IST
stringent
shr
hash
Max
season
curr
seeks
airplane
functioning
consecutive
Dem
holding
##ignment
##posed
overs
pointed
traditionally
Special
transparent
UK
##ductory
Implement
embeddings
speedup
regulated
screening
AHP
Combining
asphalt
became
convert
prime
quantification
instructions
tow
intent
Matlab
Framework
marked
reflects
ice
##parts
synaptic
Particular
CSP
contemporary
incorrect
timely
roller
##icative
ammon
conscious
landsc
corporate
Cat
Regression
##eget
packets
120
volumetric
Cycle
Spar
##bles
Accordingly
contributing
interpol
trips
broadcast
Tests
slic
worked
Comparative
immediate
methane
favorable
Rayleigh
pyramid
resc
summarizes
##avy
aggregated
instructional
institutional
prepare
Depend
impair
aged
##OG
##imeter
Generation
ABET
meets
asset
Measurement
men
##graph
greatest
Lim
Point
##igible
blended
discrep
mild
flood
splitting
##cription
yielding
insulation
microscopic
backstepping
avoided
##mann
nm
engaged
##ports
irrele
LT
LED
commut
computes
##11
inadequ
preval
capacities
Near
##aseous
divide
drying
ubiqu
##aven
fourth
multidisciplinary
Evolutionary
SW
##imes
constructions
##log
bat
foreg
CBR
DEA
dangerous
Water
trem
parsing
cardi
participate
afor
##asonry
harvesting
microprocess
##isk
corro
Mars
immune
compartment
want
outage
suggesting
##oxy
dominance
paradigms
certification
judgment
Electronic
##ickel
assumes
##ounc
Detail
frictional
indeed
##traction
##ifier
Especially
cycling
Tai
tread
##itous
auditory
##ember
handled
slot
reasonably
Today
pron
trim
median
EL
sympt
monol
malicious
bon
upg
##hips
practic
annual
##issible
contacts
turbo
annotated
projections
SVR
propositional
##ecessary
upl
##pan
##entists
##ellation
corn
aftertreatment
broader
64
Indian
holistic
ED
ash
##aded
cavitation
gave
##NR
unbal
replacing
deposit
##iment
2018
##lear
domestic
discretization
Euler
opposite
default
hydrodynamic
neither
activated
##rangian
muscles
##ritical
config
EVs
Big
restoration
comprising
intentions
##EMS
climbing
##organ
##istor
Robots
##rupt
granularity
transaction
plasticity
Frequency
contrad
Conference
waiting
sports
everyday
Fact
Ret
tune
Dual
onset
Feed
thermo
transmitter
Earth
NE
kept
##urable
##UL
appeared
SH
gradients
viscoelastic
programmable
USA
UCI
rar
##zer
##ppler
decoder
MD
sea
##edomin
##iation
##ulder
compil
Star
CSI
hashing
predomin
cores
introductory
damaged
possibilistic
Urban
journal
reservoir
agree
parameterized
Matrix
expanding
standing
reliably
educators
Sched
begin
sun
brand
HD
microscopy
Cooperative
##eletal
39
abras
Ig
##iences
##izable
airport
SIM
CAN
spiking
exercises
Taking
magnesium
radiator
concentrated
##eway
##tention
raised
##vex
adults
plot
eventually
##artic
accuracies
infl
ner
##ectively
conce
##force
Bound
ICA
##ino
exit
semicon
brakes
Motiv
standardized
encode
masonry
trivial
41
supervis
Six
##uctions
perfor
##ycles
fractal
skew
Error
Load
planes
Order
owing
##PSIS
reproduce
les
shed
Not
relying
##arding
influential
adequately
##eep
##oders
FF
Kernel
##eties
une
files
##egative
demonstrations
BER
HR
##tally
positively
counterparts
##OD
Review
customized
##ethyl
##echat
tooth
##ementioned
Structure
##ney
BM
##uly
death
Innov
chance
exhaus
foreign
erosion
attach
inevit
Inspired
##wards
Mal
anonym
##mentation
##unk
arter
multis
suscep
##Ts
blades
esc
therapy
aforementioned
Taiw
##van
took
encomp
elasticity
Maximum
##asion
methodological
qualities
Fault
canonical
Word
tough
2003
ms
bumper
incur
##taining
monocular
##izers
Key
Simultane
cleaning
bore
titanium
##ivers
electrodes
polynomials
detects
Analytical
merits
assemblies
91
gaseous
secret
opposed
Lagrangian
hospital
##eted
affective
accordingly
innovations
##oo
##kin
suboptim
Surve
preservation
implements
RNN
veget
anatom
##abolic
##ereb
scalar
Prof
associations
##ugal
squared
Altern
Scale
Spatial
Tor
invasive
informed
THE
doub
evaporation
BC
argued
screw
##isis
sett
##oney
shaping
participating
exploratory
1990
think
Engineers
inherently
categorical
Electrical
immedi
HA
bits
Tem
seg
demographic
markers
spir
assets
cybernetic
prosthe
600
Turb
legislation
bottleneck
irrelevant
##udden
orientations
Interaction
seamless
Tel
##aired
autoenc
##GM
Twitter
Tag
##siveness
##otal
consol
Context
smoothness
greenhouse
CNG
Environment
##borne
87
venti
inverted
Function
ap
ranked
sectors
vocab
Quan
##gged
gearbox
correspondences
suffers
transactions
taxi
Arabic
foreground
formally
exchanger
tags
neuronal
Introduction
##puter
managed
randomized
ECU
hex
##omorph
##ichi
##scale
##stein
##tration
posed
played
##ips
oxides
interpretability
grids
Objective
pieces
L2
null
clarify
ME
deriving
##WM
fingers
##MEP
##inson
chaos
holds
vessels
succeed
ordinal
##case
constructive
Joh
##NC
##ensitive
SVMs
continued
restriction
Making
page
##gent
##uss
completeness
tractable
##eling
##vian
Semi
Unit
##joy
Increasing
biomass
Society
petroleum
Fisher
assistive
cascade
##fall
seconds
inverter
##steresis
Memory
Studies
pumps
##hythm
shut
Discrete
returns
bone
##rof
nut
facts
##ipe
minutes
schema
2002
asymmet
rarely
##arithm
competitiveness
##station
launc
Implementation
##ommun
incorporation
sphere
##yclic
twe
Vide
XML
##aring
hull
rhe
enjoy
multif
multiprocess
##bert
multiplicative
##lassif
##unctive
predictors
competence
ultrasound
helicopter
purely
routine
immediately
ports
said
gaining
TOPSIS
##ky
##antly
swing
linkage
##QL
Spanish
preventing
FR
VC
##IA
##etane
apprec
##itors
ends
branc
uneven
Tran
reconfiguration
nonparametric
ecological
MAS
ballistic
##hel
##isson
##oids
Though
noncon
slave
resonant
strictly
sudden
Plan
Cre
mort
##oles
44
snow
unav
shifts
arom
Electro
invariance
epistemic
ubiquitous
Mining
TF
pollutant
gripper
##urized
##occ
Ref
superp
descriptive
scholars
kinetics
88
##16
##ota
locality
partner
discovering
psychology
biof
Particip
802
axes
sight
steam
economics
nanop
discontinu
envelope
anomalies
DNA
##hyd
47
mount
##rupted
ADA
ware
Neighb
##easible
Differential
released
habit
bid
irr
##acian
legged
Small
Temporal
resin
##itiz
participant
SG
spanning
##play
##mers
Doppler
shoulder
TR
Technical
##OF
spons
viscous
fairly
Aiming
contamination
Product
medicine
radical
##oreg
##ductor
leveraging
Sens
relates
microb
scattering
##ilton
##bris
56
Bal
comments
sac
guiding
CDMA
Gabor
Au
practically
nonlinearities
personality
pedagogical
Reduction
spacing
shallow
57
workpiece
##mod
packages
drill
definite
250
spreading
ambiguous
Integration
GR
microcontrol
Applying
ammonia
importantly
##ava
participated
mirror
Tur
##uchi
multipath
lithium
unse
controllable
Extended
revenue
crisis
filtration
torques
platoon
faulty
Modern
biology
interdepend
assembled
aligned
comprised
TM
scheduled
accumulated
thousands
Af
Vibration
##ams
promoting
taxonomy
##cean
Effective
crowds
Cy
clock
unconstrained
SB
purchase
Pot
##lication
scaven
hysteresis
fails
bow
##VE
orb
##oustic
Austral
outs
##pha
maintains
joining
Behavior
ankle
enl
observable
graduates
negligible
appe
interc
pole
Exha
Vision
sink
talk
zinc
telec
Prior
outlet
##lists
helping
John
Conver
Compos
microm
outperformed
##table
deeper
##sification
microg
join
fragments
recovered
scientists
Physical
PE
reflecting
##top
references
Pressure
augmentation
Collaborative
Injection
initiative
subgraph
71
street
Post
orif
departure
embodied
##otechn
2020
beamforming
Accurate
stopping
EN
iris
86
displayed
survival
OR
bog
##ropol
Architecture
Cart
D2
laboratories
enrich
trib
##fold
itemsets
evacuation
Cons
##ergies
##ulary
party
Green
rare
phosph
airflow
IT2
Laplacian
EH
89
unburn
##aton
EPA
IA
signatures
flash
elic
circle
Reason
solely
animals
##rarily
Cu
assigning
ca
ANS
vague
Poisson
Mode
Prec
nur
##arity
Squ
TW
unlike
gathering
debris
##ride
Str
vulnerable
Temper
##ustain
72
##ski
##estern
primitive
aggressive
progn
Comparisons
46
CU
trou
Channel
films
rendering
Ignition
uniformity
Sam
cetane
##change
believed
paint
trapez
Company
interoper
sealing
filtered
corpora
ER
##hern
##atin
agencies
sounds
Problems
contributed
inversion
stoichi
DD
Nash
corrid
pooling
##eless
exterior
cruise
##actuated
DME
Free
pages
stic
##iously
Training
##argeting
2019
switches
thermoplastic
attained
unnecessary
SMA
Yet
Block
##O2
monoxide
##ING
##aker
correlate
##idents
Sparse
Bern
##15
hyperc
porosity
worth
##ette
##ilst
##rosop
mimic
suboptimal
##predic
facilitating
BI
multit
alternate
Ga
##rimin
EVA
##BA
comprehension
Central
rationality
Machines
countermeas
##isite
recordings
landscape
lens
##rep
sprays
fost
2001
curricula
##vol
##amped
administ
vir
templates
weaknesses
Fatigue
viability
entering
era
decay
organis
commitment
tumor
Hamilton
##rosophic
analysing
intermitt
excited
yielded
##problem
Har
5G
Ro
##che
disparity
Where
dex
Developing
67
DNN
ignored
repetitive
EF
You
##itely
L1
droplets
Taiwan
She
Only
follower
premature
MN
Nan
##usc
entirely
PRO
wake
##WD
ing
injec
refine
plausible
ART
dc
##hat
approaching
Hyper
Park
stem
##okes
threats
SME
##ij
incoming
fluores
tracker
unseen
LF
##fl
legs
Radio
nickel
bacter
Ent
Common
judgments
Corpor
gal
med
Controller
laminated
oxid
Germany
Instr
safely
strains
quadrotor
departments
cereb
multilevel
fruit
SMC
##eta
ACO
##arian
CVT
lanes
night
linearization
adjustable
dexter
finish
tries
##oscopic
roadway
Robotics
branches
Laser
logarithm
thoroughly
TL
##PT
##oses
wavelength
##ascular
backpropagation
inexp
LPG
52
Grid
##GC
blocking
controllability
##rame
macroscopic
thanks
Chang
rescue
NL
revised
interpretable
weakly
##electric
heated
foundations
dampers
UC
Euro
dissimilarity
centric
##unar
feat
##ronics
ensembles
headl
Correlation
Signal
##inated
goes
plastics
encounter
##akers
Indeed
diagonal
##hou
##eners
##sified
linking
##overs
##space
##ami
centrif
clustered
Transmission
qualitatively
occupancy
citiz
upstream
62
Sustain
row
##13
perme
inadequate
##ician
Exhaust
##ucting
peaks
eigenvalue
FT
##tation
distill
nowadays
vulnerability
BL
stay
##ditions
geographical
biased
inconsistency
discontinuous
odometry
vocabulary
83
ramp
##phones
Shape
constitutes
##rier
unin
##oken
Weighted
Game
LM
reject
establishes
Parti
substitution
prov
Highway
biologically
Ont
leaders
axioms
Construction
miles
76
constantly
82
establishment
Sa
income
funded
Therm
Loc
Generally
exhaustive
##arsh
perceive
HI
rib
mathematically
retrieve
meter
hazards
Lagrange
nanopartic
54
office
degraded
eliminates
programme
Measurements
GN
sigm
blending
Designing
arbitrarily
##agorean
Wa
interfer
Exc
School
terminals
bifurcation
##oeu
pollutants
Motivated
Region
inefficient
elevated
##bur
##eration
tox
Specific
manifolds
laminar
##agon
timet
campa
Video
AE
##ologists
campaign
initiatives
fuzziness
##losure
Risk
notice
advis
uniqueness
Rapid
##ker
whereby
viewing
propeller
Ori
##itoring
Materials
functionally
##entive
##DAR
BA
Cam
LTE
##esian
engaging
injectors
lubricating
estimations
Concept
transforming
ABC
interconnection
decoupling
herein
Good
MCDM
wrist
Mathematical
cornering
cement
drum
Production
stabilizing
symptoms
trying
Compl
approximating
Predictive
multiplexing
Sti
suite
##atisf
End
grammars
sketch
Mc
MU
tex
subspaces
searches
##elt
observers
Resource
regret
nond
complexities
bonding
spectroscopy
spent
shrink
currents
AND
lumin
counterpart
POM
distinctive
sizing
##chair
##hib
Continuous
Embed
conversational
##FSs
inferred
##oning
spite
workforce
Diagn
twenty
disciplinary
probably
rising
Ox
##estim
Pythagorean
84
manipulate
silic
Choquet
enorm
willing
executing
America
Solving
Initial
Scheduling
Reliability
differs
##overing
##ought
bounding
urea
unable
outstanding
observing
49
smallest
##HT
##eced
##ostic
manoeu
rat
##vasive
advancement
turbines
proofs
##oul
documented
emphasize
quarter
78
monolith
MDP
repository
obli
DSP
##ropri
suspensions
coalition
distinction
inexpensive
sinus
testbed
Taguchi
OWA
##acket
gask
##ailing
dupl
grounded
residential
Cartesian
ANSYS
auction
##19
phasing
emphasized
Afric
VM
##auses
employment
servoing
libr
Characteristics
ended
seats
consequent
shelf
Interval
SOC
agriculture
Association
mechat
ecosystem
Driver
hing
mist
tal
illumin
Unmanned
write
##sized
regards
blockchain
interpretations
semiconductor
53
der
vibr
##straint
##tiles
77
lung
subproblem
gauge
stabilize
analogy
coast
Comparing
partitioned
inhib
Pos
##ux
##ils
Ens
elastomer
Value
evident
regimes
impacted
Lastly
##apes
shells
nested
##abet
microscope
winds
Bar
Bio
decided
absorbing
Component
Const
Temperature
##ignition
convenience
researched
##orial
histories
Found
Spect
maximizes
publications
neutrosophic
versatile
undesirable
bub
meanings
Dir
Util
metro
Improvement
73
JP
duct
incomp
helped
Monitoring
anteced
##2O
##BE
integrals
overcomes
pursuit
74
downlink
Distance
Airc
##ovian
##esthetic
transparency
moral
robustly
claims
disorders
##thening
Iter
majors
surprising
Hig
scr
superch
196
incrementally
brow
##opes
##ovol
somew
##PR
workplace
accelerometer
corrected
emergent
epoxy
gets
##vous
contraction
##erequ
unrel
differently
NSF
Ang
convergent
certif
premise
Discrimin
tempor
##ographs
pull
bright
manoeuv
Position
##Boost
constants
summarize
French
Synthe
##rastically
multiscale
P2
hope
retaining
anticipated
##ounced
dimin
##ka
bee
served
lifting
invariants
annotations
EE
SCA
drastically
unpredic
emerge
textures
Motors
##where
marker
Access
breakdown
VA
subdi
lump
compactness
58
66
semantically
possesses
LD
Land
##BF
unus
provider
anchor
##usive
##lim
##met
##ovolta
GF
##rates
signaling
Cou
Five
colors
microc
boot
Sat
Constraint
careers
metallur
deduced
brit
overload
carbide
clients
ASTM
aspir
##hield
##ogenic
hazardous
Strategy
Hopfield
infrastruct
Aircraft
totally
stator
advantageous
Strateg
incidence
tremend
##alling
optimizes
servers
Response
##acity
compositions
##etermin
MW
##uing
68
enumer
trunc
##racting
Aerial
##IE
neurom
differentiation
##racts
severely
Admin
Coord
63
Rough
numeric
retrof
Off
##enders
excav
##olved
comment
leave
##power
##ront
stoichiometric
baselines
inaccurate
Tri
##rob
isotropic
immer
sequentially
couple
preserved
unburned
##ressible
##ressed
toughness
say
winding
leaves
##prehen
repeatability
launched
sacrif
Sha
Line
incidents
microprocessor
##NET
attend
misclassif
RAN
masses
Inst
verifying
GAN
##otely
telem
Significant
respondents
accompanied
##itness
prerequ
airfoil
##cho
Competi
FLC
developmental
simulators
critically
Attention
Brain
agency
instrumented
syntax
calculates
Swit
Circ
##ato
##dehy
ideals
substrates
ventilation
POMDP
shield
inferences
Potential
##ellect
Functional
hone
##itance
##orthy
protective
walled
multicast
Hor
anisotropic
culti
jets
muff
##omogeneous
locating
Concep
wheelchair
Representation
Predicting
##skii
ASP
Leg
cycl
reflex
pumping
##vet
collections
priorities
Flight
partly
figure
attempted
fif
##arded
Pen
##Al
Factor
##vest
##array
spoken
##ressively
pathways
necessit
Vehicular
##structure
exceeds
https
trapezoidal
grown
Distribution
TSP
targeting
memories
boiling
retinal
cuts
ocean
piv
instanti
Kras
##sp
Conf
ANNs
multiclass
multiplication
hyperspectral
Link
native
coupl
ready
distinguishing
receivers
propri
SEA
strings
traits
navigate
till
Personal
##fly
##asso
cohe
realizing
rewards
Manip
synchronized
Participants
Mix
Segmentation
CG
##amper
excep
##unte
##map
##tite
##onation
##uracy
backgrounds
breaking
Bol
sed
timings
plain
dissemination
abund
##sib
##ovoltaic
##olf
visualize
explaining
##holonomic
Java
depic
##itively
affinity
retrieved
Traject
Markovian
enormous
electroly
underactuated
Alumin
Interactive
dust
consumed
bilateral
##repres
accred
hundreds
##oregressive
##WL
##BD
serving
##elfare
epis
crane
Quad
Toward
FTP
##illar
overt
chest
pedal
##itative
intract
minima
relaxed
##90
stops
bowl
somewhat
il
##negative
optimizer
cord
continuing
highlighting
aerodynamics
neglected
orifice
border
chatter
trigg
pict
transferring
##irected
mutually
Domain
emitted
separating
allocated
nose
##ille
spind
peers
benchmarking
permutation
squeal
incentive
stratification
destructive
multist
multibody
electroc
Tex
##alian
eco
tilt
##uk
##velet
##ichlet
raise
centrifugal
hollow
jam
insensitive
flexural
Spe
watermarking
colleges
whilst
sky
diagnose
cus
##veline
##ounded
##fully
Survey
Fig
Rot
Series
dwell
forth
expressing
website
##men
worse
sustained
poorly
unre
none
photo
carbure
BIM
##regation
merge
handwriting
##xi
specifying
electroence
Acad
ownership
begins
impingement
racing
##fitting
Optical
forecasts
chambers
Rule
##outing
freeway
arranged
declar
Dou
automaton
smartphone
Body
Ground
amplitudes
keywords
disorder
publication
Import
meshes
narrative
tanks
intermittent
crush
##ovskii
looks
bars
contras
acquiring
1999
oppon
Emissions
AUC
GS
explosive
Properties
peripheral
tweets
Public
assistant
##LSI
decoupled
snake
microcontroller
##ropolitan
API
conting
##uccess
contrary
Simple
Cyber
61
Gal
clauses
##astrop
delivering
ACC
sought
spont
generalizes
precon
nutri
cue
##cale
##IG
##fers
modulated
empty
formulae
freshman
broken
Mass
desire
harmful
Means
autoencoder
EKF
cluttered
Gr
chart
digiti
fits
nation
tens
##ival
eyes
Enhanced
Demp
Rate
##iance
##AP
negatively
Validation
resilience
##aur
##85
##ashing
Compression
Emerg
##ellectual
##ico
revis
##planes
welds
bipolar
Particularly
Area
discussing
locomotive
metaphor
81
let
##dient
volatile
VS
son
biases
quantifying
##eletons
Administration
VT
programmed
concurrently
ON
misf
1998
cod
advice
multiuser
passage
NOMA
dealt
confirms
Delay
gar
##sm
##da
storing
Spring
Flexible
F1
disag
linearity
ignore
Higher
Krasovskii
Av
fuse
##zier
##FE
reputation
randomness
Swed
singularity
Full
proc
mineral
funding
discriminate
expense
Enc
Schem
disjoint
compositional
precip
Integrating
fraud
wrong
Simultaneous
GMM
##GE
Inference
combat
deliber
remained
occlusions
800
coh
remotely
burst
Business
GDI
wires
basically
problematic
progression
volunte
preserves
harness
malware
competencies
atomization
strengthening
LMIs
recruit
omn
discrepancy
Dempster
Detailed
Head
##relations
distinguished
cosine
sort
##bone
deciding
union
intentional
phrase
##oke
analyzer
DOC
##ropriate
CPS
atomic
GIS
HRI
Navig
Oil
Ant
modularity
listed
convection
LQ
tried
pipelines
impaired
pursue
Carbon
gross
##thane
ago
sectional
Early
Edge
Ren
##raints
Hough
environmentally
MPI
02
Pass
welfare
##VR
Those
phon
adds
translational
implicitly
powers
##zes
##itage
##ider
nonholonomic
brittle
Aud
Ada
Conclusions
unbalanced
##UT
##lemm
Community
Medical
##iteness
patent
Travel
admissible
Basic
Corporation
OD
##WO
spur
payoff
Teaching
interoperability
Ra
bund
Reasoning
Focus
reb
freely
##arged
categorized
teamwork
##RD
##chang
Comprehen
Parameter
workshops
##iry
validating
1997
decompose
polygonal
Rank
##ribute
virtually
##inguistic
attachment
Efficiency
##ogle
Dirichlet
Lean
War
##ik
##UC
situated
compensated
bogie
Normal
fog
ve
functionalities
partnership
##etermined
##inite
##oly
measurable
##ye
##100
##hedral
Russian
unreliable
##ipped
Parameters
1980
register
##BR
quadr
nozzles
Feedback
NLP
cables
alpha
deck
negation
heads
79
VG
##riteria
wherein
viewpoints
##RAM
Mapping
ductile
##ped
parties
##haps
inqu
##ilbert
wast
underground
simplification
monotone
BN
Hel
##atching
##activ
##ylene
transducer
seiz
charts
simulates
turned
falling
nanof
Board
lexicon
Localization
sweep
neurosc
lumped
##athy
dilemm
##aritime
equality
checked
naive
Recommend
Agg
Fi
##rite
Tun
vent
Prog
manager
Extrem
digit
##etit
##otonic
adult
##illary
converting
##oma
electrif
comprehensively
ICT
devise
##ossil
honeyc
charged
actors
Interface
comfortable
Exploring
fusing
R2
##eor
incenti
confined
catastrop
Action
enroll
Jacobian
unp
BF
Turing
##abled
rigidity
projectiles
vicinity
telecommun
Magn
##uary
separable
reactivity
Combined
tier
##rences
palm
Br
##sler
##lyc
compl
scans
grouped
WSN
spin
##aterni
translated
Steel
Neuro
Starting
##onau
##key
lie
micror
SVD
pictures
51
competit
airborne
concentrate
motivate
Factors
Binary
##igation
rew
epid
credibility
adminis
infrastructures
GHz
##after
chlor
asser
extrap
uplink
D2D
driveline
tourism
Evid
began
loadings
telep
hip
wt
tracing
##versely
themes
relaying
##vetrain
VLSI
cantile
boxes
TE
assure
##ensitivity
tooling
SiC
Similarity
BO
IMEP
worker
adaptable
##reach
##onomics
Technologies
Traditionally
##umber
grading
ICE
don
##med
##uni
##rowave
Modified
Civil
overcoming
pulses
belongs
bolt
binding
lighter
##omfort
##ibly
monotonicity
T2
travers
bioc
grammatical
distillation
hit
ppm
##VC
Layer
sided
fib
Without
twice
arrive
beha
bike
triple
gradual
prevalent
besides
##Bs
##recy
Italian
advent
bonded
utterances
gall
##acer
electrically
nearby
lunar
manipulated
PN
documentation
obviously
##ucing
really
endurance
statistic
NMF
sinusoidal
Expert
investments
tangent
methyl
pand
whenever
extrusion
feeding
##ruped
synthesize
Abstr
winter
optima
grows
behavioural
Neighbor
Gover
focal
##ïve
##ancies
1995
reflective
Features
weeks
Sets
##aled
Toy
stabilized
prevents
KNN
optic
violations
persistent
##omorphism
TT
drone
authority
boundedness
mismatch
Mixed
durations
conjug
painting
WC
fossil
presentations
regulator
finished
##ECT
ballast
Aided
DY
##itable
satisfiability
electromechanical
Hardware
edi
##tibility
noun
IMU
multiprocessor
##ensable
degener
signalized
multig
additionally
submod
figures
KM
amongst
citizens
enforcement
wrap
##75
defense
machined
GL
pel
witness
spine
finishing
synap
socially
Ever
induct
melting
splines
##ellers
quer
Matching
imperative
##ani
NSGA
Loop
acknow
impose
indisp
misal
Color
photovoltaic
uncontrol
tangential
adverti
mph
steg
compete
KI
lists
perc
delta
##MAC
Computation
oscillator
saturated
shopping
Security
crystal
lights
##lomer
tuple
69
sinter
tit
spinal
speaking
Acceler
tremendous
Kore
##HF
disamb
blank
Agency
ethn
CNC
retained
AUV
spam
literacy
Kin
money
##irty
airline
Initially
abrasive
MEMS
Occ
Spark
knocking
Evaluating
crankcase
Railway
sponsored
countermeasures
flaw
perfectly
Cataly
omnidirectional
unw
##lusively
emphasizes
Black
leverages
riding
##aten
##artite
diameters
##otype
puls
windshield
craft
##oman
utilities
parallelization
Recurrent
Techniques
exer
Average
Korean
##TO
assurance
epile
spindle
Mor
autoregressive
Transi
scavenging
passed
lectures
overfitting
##ograms
consciousness
##VS
intellectual
imitation
characterizations
Arg
favour
Canada
Foundation
West
##oi
offloading
manipulating
academia
neighbourhood
##MRI
priors
nanoparticles
libraries
WA
##nian
minute
accelerating
##vitational
Composite
Texas
Ped
submitted
Hilbert
Wear
forging
homework
authorities
mileage
Custom
LBP
Oct
comparatively
communicating
electrochemical
##aylor
subjec
haul
cooler
businesses
roughly
VP
dim
handles
tolerances
rationale
favorably
debate
seeds
cantilever
org
cams
Plat
lip
generations
corrupted
axles
Fund
MSE
Incremental
Aff
##MF
cloth
microarray
tunnels
Explo
Trajectory
##QA
Any
automate
makespan
codebook
Relations
rods
LI
lining
##eve
intensities
analogous
bypass
feet
polyp
electronically
Similarly
##tious
##ubes
swim
organize
stores
susceptible
icing
##rug
##zone
advancements
parameterization
rails
##MSM
recovering
##ym
degrade
occluded
tomography
Quantit
Den
vox
Requ
distortions
particulates
termination
Hydro
procedural
promotion
Polic
behave
Google
indispensable
##unting
theme
reader
passivity
##represented
Sal
kil
pH
arts
keys
##erni
periodically
treating
Minimum
phrases
Ques
governed
Methodology
soon
Forest
DOE
seals
1996
Army
##ager
copy
Korea
knowing
confid
micros
adjustments
borne
justify
microrob
sure
##erk
##ditive
pointing
commod
##SAT
tumble
cybernetics
pandemic
aper
moved
names
histograms
intractable
argues
##WB
inapp
verb
actor
Allocation
Heavy
hypercube
craw
##lene
designated
##rict
illustrating
Unsupervised
guaranteeing
##hal
damages
fingerti
remarkably
Comprehensive
GH
eddy
autoignition
eigenv
questionnaires
galvan
EX
Kinem
outreach
generality
advoc
grant
##FA
##elve
##posal
##tainment
highways
regulate
Proced
Truck
tractors
plots
indication
##airs
disadvantage
chromos
Toyota
Mill
##ooth
autoc
##ysics
transmitting
caching
##vements
impression
chronic
truss
hypergraph
stretch
##tzmann
##oulli
inhibition
perp
Total
pec
readings
script
breat
similarly
occurrences
transformer
59
gold
ple
equalization
enriched
mentoring
resilient
hr
##ritic
##earing
##ado
Navigation
Lead
##rim
optimised
heritage
Cluster
warehouse
unpredictable
rhythm
ships
##ugging
##occer
passes
##wheel
iso
##unior
formulating
heater
secrecy
shares
expend
concave
grasps
##enoid
##ulators
paired
economically
standardization
CFRP
Malay
fluorescence
Mg
Sil
drain
trail
protected
accounted
prolong
nonconvex
Govern
Targ
appra
##thing
mediated
discriminating
quadruped
polygon
injections
DIS
hinder
##aS
##ogether
containers
implant
utterance
Quantitative
##emy
connectionist
HVAC
Zn
rover
weigh
scar
superc
entrepreneurship
Code
Ri
ow
##24
imputation
seriously
progressively
logs
raises
Communications
DSS
Friction
MK
bim
usable
Nearest
FFT
##itals
##vie
structuring
classifications
03
fMRI
taper
##70
dielectric
Shut
referring
Protocol
Principal
VANETs
UN
Stress
probable
keyp
ende
echo
projective
##assembly
practicality
##CO
##acks
stands
guides
agreed
Particulate
preceding
deficiencies
licens
conject
beings
impacting
backbone
polyure
lacking
Typically
proactive
systemic
##icip
productive
risky
receives
Datab
Challeng
Taylor
##onia
signed
conditioned
entries
investors
pertin
nonnegative
inflation
societal
prospect
##restrial
foster
Wavelet
##ritis
##esthe
Static
Closed
informal
exceeding
Uncertainty
Bernoulli
Fall
harsh
##LI
parent
##tine
profess
acoustical
Images
clarified
Gradient
Crow
Heter
Input
aids
dramatic
oral
coex
Experience
##rash
packing
##unicip
leaving
attraction
ups
Least
Mobility
##Red
##du
forget
anc
##personal
communicative
stacked
##era
toll
##radi
##rysler
##hore
parents
relays
Formal
strokes
happens
Challenge
Fusion
translate
Brake
unavail
##dehyde
Hidden
vor
Intu
hierarchies
configured
Critical
LV
hyperb
registered
##veloc
transfers
supers
Module
homogeneity
prosthetic
logarithmic
UP
junction
##rans
predicate
deeply
miss
installations
Maj
hiding
interrup
SAR
180
Measuring
aust
polymers
Princi
sled
##lets
##tier
##acial
sport
interpreting
regularity
revealing
Numerous
Tim
##utch
interle
opens
quaterni
preventive
inevitable
NG
##pipe
##ana
stance
comply
Assis
worlds
consult
Chain
prospects
proceedings
WM
##ora
pertaining
fractions
characterizes
enhancements
slower
classrooms
repeatedly
Characterization
View
spiral
##gin
##max
ali
imply
imit
parametri
defuzz
Metal
household
##Os
##agen
underrepresented
Detecting
banks
##light
Italy
Standards
BT
FG
KP
pathway
fixation
closest
##oskeletal
bread
##lands
metam
##adic
##soid
adapts
NO2
entrepreneurial
mandatory
aromatic
##ursive
diffraction
Solid
bringing
reciprocating
forcing
helical
achievements
furnace
Rati
cult
meteor
dest
Division
Assembly
formats
Boltzmann
honeycomb
##velocity
Batter
##elect
CAM
nanoc
bipartite
transducers
##rological
Extreme
jour
##UM
##rading
supplies
railways
drawings
millions
affordable
sex
placing
elong
concaten
profits
Prim
Graphic
molded
1994
explanatory
hearing
##ball
interl
sequencing
hyperpar
convexity
ranged
cardinality
Technique
encompass
Ep
Fo
Law
##ilot
encaps
illustration
Lik
Drive
##cript
crops
##redi
##HO
twist
keeps
admission
prosthesis
Copy
ERP
Magnetic
##itim
##icular
ascertain
urgent
websites
cardiac
##ucid
facilitated
compensator
justified
P2P
My
counts
minimally
musical
##RAN
preparing
conduction
advertising
apart
##imotor
Internal
teeth
rotations
crashworthiness
DCT
##ylinder
conversations
SMEs
viz
##variable
merely
textbook
inserted
CCD
Identifying
adsorption
Are
PB
Wheel
##UI
ensured
assisting
Shafer
heading
Pt
beta
localize
confusion
stories
tissues
eigenvalues
billion
rup
##14
##rones
Constrained
learnt
falls
bird
##plan
differing
postures
Individual
aggregating
Driven
Biom
ROC
correcting
differentiate
scanner
Ensemble
prerequisite
##UR
supposed
qualified
summaries
vaporization
Multim
supervisory
peculi
tin
til
containment
cancellation
oblique
##apped
issu
manned
railroad
Typical
FB
VE
##used
##ryst
##ounting
MIL
ignited
arrangements
reciprocal
tower
endeav
Hu
MHz
malf
suction
surveyed
animation
deadlock
Prop
pant
shaf
buff
slots
deformed
V2V
Ill
##through
Rele
committee
receptive
audience
Regular
Shuttle
Sum
##eb
##18
stamping
metad
perhaps
tagging
NB
flights
Reducing
Operating
nonl
relief
biomechanical
reflections
harmon
##computer
Lin
Solution
Train
temporary
##lingual
Ontology
Bé
Kar
NF
Pa
##uloskeletal
inclined
Stokes
associate
horse
muffler
HM
RRT
##imetry
##prints
polarity
UL
spots
twofold
1992
Iterative
##quer
exclusively
certainty
ductility
austen
ecc
clause
identities
evidential
biofu
MH
astr
von
concise
responsive
Union
Every
Much
##PP
trapped
allocate
mamm
riv
##iture
founded
Geometric
##Reduce
OH
##Pa
phones
rolled
owners
cart
essence
##ranular
persistence
optimizations
##alysis
exciting
induces
RMSE
Mac
##enary
formability
qui
capacitor
normative
granules
evaporator
corridor
Partial
transients
inquiry
Routing
promotes
motorcycles
excitations
Deg
truly
##luding
universe
Independ
photos
warping
governance
reversible
##abetes
email
circulation
judge
slowly
Moving
##ENT
cup
eg
maritime
allowable
calibrate
gaits
subgroups
Output
elaborated
reception
arterial
anatomical
##ford
temporally
disambig
LSS
##formatics
safer
ontological
York
cube
prox
metropolitan
##ellular
maturity
vagu
Determination
conceived
##lination
solenoid
hardly
shifted
posts
Major
forens
##omething
predictable
Auth
sophom
Freedom
miniature
UV
prioritized
anthropomorphic
neuroscience
BE
##igan
marks
burned
Thirdly
Protection
elaborate
MapReduce
stick
ripp
CMOS
Parametric
LiDAR
Organization
Aware
##ristor
synergy
microwave
salt
happen
subproblems
Ratio
O2
Section
Vo
junior
##rint
alert
declarative
rights
handoff
agglomer
cooperate
resolving
DES
dark
##elastic
limbs
jumping
enrolled
constituent
GE
fuelled
verifies
centrality
absorb
ECE
portions
conjugate
tone
vice
desk
unclear
Engines
scheduler
frag
electromy
04
Rest
##sten
elucid
distribute
microstructural
LE
##sim
Bre
send
lots
##raduates
quantized
110
spontaneous
Success
Commit
biog
##ractive
fundamentals
multicriteria
virus
shrinkage
mechatronic
Mich
lb
atoms
completing
pedagogy
pertinent
Bézier
rech
computerized
Incorpor
DoF
license
06
##hically
linearized
positioned
entr
irregularities
Gasoline
asymmetry
Cha
ft
wiring
##iors
##RR
##inate
##ells
##rick
lowering
cracked
award
sid
##eman
revers
corners
inducing
Activity
1993
mirr
crystall
Sequential
constituents
Sound
##ourced
locking
Stack
roadside
administered
acknowled
meters
##oys
experiential
Programm
incentives
sintering
MRF
substitute
observability
harmonics
900
##ulph
respir
hydrostatic
driveability
1991
administration
duplex
Mer
Rather
##isal
##ixel
minimax
Along
formalization
equilibria
WSNs
Maintenance
subdivision
##DB
axiomatic
Sampling
vend
graphite
loos
organisms
causality
drops
imprecision
cascaded
##MO
requested
merged
fifth
cushion
##ewater
formalize
reproduction
triangle
Evidence
Bench
Fort
felt
hood
conical
##idable
handover
##cessively
microphone
graduation
oscillatory
disconn
HSI
NNs
Device
uniquely
perforation
misclassification
##orso
decomp
predicates
organisation
friends
Ba
Spl
mg
##ifiers
Simulated
Description
1500
strugg
compromising
fertil
appealing
##amber
propositions
legitim
##otechnology
IL
mag
wild
##ecycle
intense
sensorimotor
situational
##ilingual
feeling
Sustainable
denoted
tailpipe
threads
AISI
Abstract
soccer
something
##las
##ilateral
carriers
Australia
SIS
mail
grap
derives
readers
Mechanism
featuring
Policy
FNN
maximized
harmony
hospitals
versatility
discomfort
manifest
People
gir
##agonal
visit
roots
##RAC
SIFT
unim
Challenges
Dr
ric
prohib
Extraction
blog
dispatch
congested
gasket
Mil
##vy
##NF
marking
symmetrical
Navier
prolif
Transient
eccentric
Ten
##upp
decline
conception
Implications
aggregates
Applied
clutter
##text
##PC
Copyright
pushing
pervasive
subsi
guideline
entertainment
tightly
##ativeness
finance
interactional
elevation
exclusive
replication
##MSE
##utter
##urement
reduct
smoothly
Decomposition
pilots
Processes
indirectly
biometrics
##lust
##aining
violation
diagnosing
Meta
Enhancing
##untary
##uniform
Veloc
##AT
##HR
##inger
##uncil
gravitational
flange
payment
##ergetic
contaminants
NH3
AVs
Dam
##ini
classifies
##factor
Modular
stir
forwarding
engineered
glyc
puzz
unob
shortage
radiated
Criteria
nanofluid
VOC
##ferential
singularities
formalized
inferring
footprint
Qualitative
segmenting
Ax
Iran
##atur
distraction
semig
Provid
headway
suspended
fatalities
Priv
contaminated
May
##bar
qualification
Entropy
##sibilities
DEM
UM
##erian
representational
grounding
reflectance
Diff
Phot
PHEV
editing
vagueness
accelerator
propagate
aero
ellipsoid
AdaBoost
supersonic
Cong
TDC
##21
insurance
meanwhile
belts
Supervised
Math
Johnson
recruitment
compaction
##ressing
skid
fixture
Sensitivity
regulating
travelers
travelling
irradi
dividing
troubles
AH
Flu
Ho
resis
stressed
overlay
filler
reproducing
purchasing
Kinect
gun
nod
contention
inclination
##physi
expres
bug
Assist
shafts
Bag
preview
improper
##ridge
refining
mitigating
fragmentation
PLC
ply
##ithub
novice
uncover
Collision
Team
congru
brightness
sonar
RDF
contracts
##ills
labs
inspec
##holder
C4
##edge
##abling
scratch
DV
Fract
altered
synerg
merit
boosted
toxic
NI
dict
lem
##atable
promp
liver
simplifies
Usually
nonlocal
virt
##dor
param
lesser
Optimizing
spreads
tutorial
catastrophic
competitors
Chemical
ask
operative
depression
sensed
broadly
Er
Less
bis
##jet
bead
multivariable
Chap
Depending
Exploiting
MG
intends
initiate
Additive
simplest
predetermined
accreditation
##bow
##KA
valuation
managerial
Sci
inspir
absorbed
Brazilian
350
700
##uh
##OVA
##ethe
##sile
official
promoted
deploying
acceptability
unders
tradeoffs
disruption
uninorms
triggering
##TM
##esc
##esters
notch
##istence
Researc
overlo
versa
laminates
picking
Speech
mas
imperf
escape
EDM
HU
##itz
##aste
justification
bipedal
Augment
Young
HIL
##orrelation
##amond
Contact
residents
Shap
##ynchronization
ridge
discontinuities
dilemma
##uti
interrelations
pressing
Spain
weaker
160
Solar
Sliding
querying
CRF
Ide
torso
Theor
abrupt
##ffice
doctor
checks
comprise
federal
tabu
fatal
mechanically
societies
TCP
mentors
##changed
cock
got
##ola
##sives
mainstream
##ibli
carries
##35
##reement
tram
realizes
boards
municip
##gest
##obe
##soft
Consist
motivations
orthop
proportions
undergoing
Doc
##bb
##As
##size
fastest
rotors
##ungsten
perturbed
Services
proximal
Crash
RM
##ny
##FM
exception
##thal
endow
errone
HO
speeding
delivers
Advers
earning
MANET
tactical
insert
GD
OWL
dend
m2
pp
##ios
##imetric
geodes
eleg
draws
maneuvering
truncated
LMS
fired
rectif
airports
twelve
##itudes
##eptane
acyclic
geometrically
Analyzing
attracting
unbounded
##amentally
Mixture
Michigan
IB
photographs
East
Fire
Zero
casing
##losed
##liness
blue
hybridization
magneto
skilled
neighborhoods
Location
##channel
corrug
cyclists
brush
evaporative
Oriented
stegan
infeasible
returned
BMW
##rators
metering
Interesting
broadband
Base
thesis
generalizations
##ishment
AW
Ach
ton
##ingual
##ocamp
agile
Conditions
Laplace
outsourcing
crude
Content
thinning
1970
ergonomic
metadata
Journal
##VSS
##heim
##rometer
unmod
Condition
competitions
Regarding
polarization
wastewater
Western
hon
##atched
grains
Controlled
Orth
multiplier
metaheuristics
Belief
Battery
Range
Transit
lacks
territ
differentiable
thermodynamics
consolid
forgetting
manus
##CAP
Art
##GAN
curricular
tendon
conductive
multipliers
habits
Cellular
Forec
accelerometers
specialists
depths
##ritish
dop
##gi
##61
seating
nonstation
Asy
Enter
nanot
##ACE
lexic
inhibitory
##CE
standpoint
dip
presently
biggest
FI
energies
scaff
##rics
mature
notable
cryptographic
drones
##uan
##HM
occasion
odor
flywheel
monolithic
IDS
tedi
##3D
ary
##echanics
translations
silhou
Strategies
Platform
La
rice
##LL
unless
distant
notes
confron
toolbox
Trust
##SMC
waters
pickup
Retrie
cited
github
him
##yb
alk
approached
multin
hypothetical
crowdsourcing
Ha
##utting
disapp
ABA
judg
ignoring
Database
pantograph
Propagation
ether
dial
Sciences
Commerc
opponent
MIS
##kit
notably
##ferences
Resid
proposition
Reality
positional
hypervelocity
rankings
dispatching
British
aesthetic
kit
##VT
foraging
profici
terrestrial
undirected
orbital
EPS
##eros
else
Stock
roadmap
solids
impairment
vegetable
##uous
##osa
furthermore
pistons
removes
restrict
thicknesses
deflections
strengthened
FIS
TB
Ter
pore
##ussion
##aint
##endicular
moreover
bubble
jamming
Target
Heterogeneous
ARI
Ev
San
##Cr
distorted
Produc
catenary
##racted
gamma
anomalous
bilinear
GRA
Jan
PCM
click
magnitudes
reconstructing
famous
mounts
castings
elicitation
seizure
rupture
LCA
##iper
##drop
##endi
deactiv
worn
offshore
iv
##ians
weap
propagating
retrieving
Utilizing
Double
##200
gla
##ippocamp
Density
Wave
##ectives
opened
PAH
MOEA
amplification
triangulation
Innovation
noticeable
derail
Hist
Mi
Spectral
##plet
exponent
tackled
reusable
Multic
groove
hyperbolic
quaternion
Mex
ham
ic
pile
losing
GPUs
deposited
exhibiting
refrigerant
IG
kHz
##dle
##eding
disabled
nonmon
precoding
attentional
spikes
Committee
Adversarial
tedious
river
##vin
protecting
crossw
cheap
absorbers
unusual
confidential
Dynam
##II
##sule
chips
Question
spl
unchanged
##rowing
visualized
Heur
ANOVA
breakthrough
pads
misalignment
KIVA
cultures
DG
Whe
##omic
unt
encouraged
Estimating
compiled
Whereas
quadrature
CW
FLS
Kan
bilingual
##LR
spo
Answ
Arch
ROI
nervous
Sep
formalisms
Flor
Economic
sophomore
Tire
aug
##ione
univers
odd
Her
pace
subtraction
concentrates
##alogram
##afe
perpendicular
Est
RSS
Sigm
banking
##otropy
quiz
entrain
Accuracy
immun
exchangers
chattering
polyurethane
##Sim
##oron
##arization
docking
##ropylene
scarce
CEC
##MAP
raising
Radial
discretized
bolts
timetable
##GDM
crime
profitability
Assessing
recycled
imprac
detrim
existed
DBN
aspirated
swimming
FOR
LES
PEM
RD
##KE
obl
disclosure
pressurized
FMVSS
Ap
FIR
Pd
heptane
Classifier
abundant
disambiguation
##ns
##FL
subtle
responding
##chitz
lifecycle
voltages
predominantly
willingness
procurement
Pan
##imetic
##ida
profiling
assigns
constructiv
exceptional
PDE
##amics
envision
Operation
enrichment
Direc
Dimensional
Ric
##tian
##ums
nont
continually
Competition
Pear
cada
##NO
Shann
thermoc
epistem
consolidation
##ijing
Let
sulph
##usp
meant
semin
Reference
breakup
deficiency
winner
antecedent
DYNA
##engine
advancing
Plastic
UAS
HPC
inappropriate
detrimental
hall
##iances
stacking
metabolic
fundamentally
musculoskeletal
dose
draft
##teen
##econd
Inverse
##unching
interchange
encodes
inferior
Advances
Wik
Change
bags
##oscope
queuing
Faculty
Fundamental
avi
crossings
regularly
Aluminum
Ele
deline
Android
dispersed
tribological
GNSS
Cer
Kn
##phalogram
stepping
Beijing
##ophysical
molecules
Sequence
Sn
##eing
##hr
##zen
##ipedia
idling
monitors
lesion
DNNs
##haul
crushing
factories
misfire
vit
##uming
verbs
propane
victim
superposition
organisations
commodity
dens
wings
##based
##astically
##acoustic
Proposed
restore
##SAC
opportunistic
Equip
Source
punc
##ama
disabilities
heights
iterated
smartphones
proteins
fores
##sizing
flexibly
corrective
simplifying
Automation
Like
freshmen
Actu
LO
RR
gates
your
##orption
impressive
selectively
Conditional
closeness
GAs
France
Supply
lesions
##ares
parabolic
colon
##LAN
encrypted
nerve
appreci
##informatics
##ister
probes
Acoustic
##isymmetric
ineff
##enching
##angle
cleaner
FPGAs
tutoring
Number
##uits
Cool
copulas
elliptic
##xiety
##itations
unifying
vivo
##othermal
download
oscillators
broadcasting
uncontrolled
Gram
##inations
##itarian
shipping
polyc
swarms
surroundings
C2
Medi
gel
##othed
diabetes
Weib
ingredi
bend
puts
##pot
recre
customization
DBS
NT
propagated
Council
restrictive
MIT
PIV
routines
condenser
hopping
richer
erroneous
hippocamp
syll
##pletion
##enger
layouts
undergraduates
legisl
KL
ozone
##obic
reviewing
dictionaries
TRI
wish
##PE
employee
correlates
collaborate
bigger
governments
Wide
auctions
nonuniform
spheres
retailer
OEMs
Sensing
dexterous
Pedestri
GB
##oyal
collector
##CAN
granulation
Agents
Republic
satellites
rocket
Strength
Hol
##tium
compiler
airplanes
abstractions
oscillating
##eutic
Boundary
hinge
Vir
kPa
mention
##LSS
##frame
varieties
##insically
hypothesized
penalties
disjunctive
sod
pharm
##urban
Microsoft
kin
rim
trunk
interplay
Continu
outperforming
aligning
Valve
rider
Complexity
ESC
clamping
Stage
NOX
enrollment
##actile
##ulatory
beac
##irming
vibrating
precondition
Government
##ulsive
separability
Scal
Hydrogen
Cop
forests
Step
wait
tackling
claimed
##rystall
bibli
##phi
wash
optimise
combust
drivetrain
millimeter
21st
elliptical
posteriori
MET
##lan
loud
Commission
convective
earthquakes
rainfall
Square
cohort
08
dash
##itated
analysts
##resolution
multilingual
saw
Colony
pragmatics
Ultra
Conceptual
ripple
##izability
##rows
Charge
MADM
workloads
settlement
##KM
hierarc
scattered
wrapper
Dra
##hand
##acle
##utable
ester
Reconstr
Prom
##chy
characterised
appearing
Scheme
entrainment
BB
IBM
Nor
hur
##economic
clamped
doors
##adeh
profound
preferable
Achie
Separ
ND
1989
Selective
repeatable
phosphor
Equipment
Master
##17
##adi
upcoming
Beyond
Spectrum
Require
inspiration
Tab
##hole
modest
motif
wheat
##illed
utilised
backtr
edit
emerges
companion
upgrad
Coun
elbow
shorten
attempting
coordinating
Afterwards
Relative
Verification
withstand
pret
goodness
accessing
Before
waveforms
nonstationary
eaves
homes
tet
##hone
##bus
subcar
fueling
labelled
Generative
SMT
disasters
irrigation
unwanted
Commercial
folding
##lean
##abatic
unequ
TSK
winning
##FO
##outhern
##SAR
Beam
corrobor
sacrificing
ASC
ILP
cul
##plant
##via
nonmonotonic
Shannon
Dimension
##apac
notic
poison
bump
demanded
adversary
##ethylene
sidew
Wal
##la
damped
Simulator
roundab
compilation
Aug
Lower
Mag
##hannel
##°F
##requ
##ecurity
principled
Africa
CCA
LNT
##titution
females
lamp
tungsten
genu
physicians
subtask
Users
##iner
clad
interpersonal
wheelset
inclusions
coastal
sine
##Wave
imposing
chord
##ellar
mouth
phenomenological
Latent
encompasses
journey
DWT
Mes
ROS
WE
fake
intrac
Depth
philosophical
prioritization
Stir
Embedding
surprisingly
##leg
warrant
reproduced
contradict
Alternative
##sh
##fting
##inating
Forward
challenged
Agric
Determining
##KS
articulation
navigating
experiencing
warming
climatic
suppressed
massively
Abs
Mis
OT
##pit
servic
memristor
Steering
Changes
Apart
Cylinder
Deri
##TSA
optimistic
##ductive
Electrom
fractures
tubular
cultiv
MCM
N2
##rator
##omers
economies
paradox
precipitation
##rency
##aterial
anxiety
##ravity
##ellite
Integral
07
cipher
detonation
intuitively
SOF
reachability
rheological
Researchers
impractical
195
wearing
duality
artifact
bacteria
##2O3
horsepower
Gen
LOS
PWM
ce
ageing
1982
fusel
THC
permeability
biogas
Retrieval
Wikipedia
Gib
Haus
lamps
dele
persu
hardened
digits
translating
stocks
Remote
Torque
##reced
##puters
Shan
ranks
prospective
##ipschitz
Independent
Enterpr
Care
Lib
rack
##km
##ori
##asm
flexion
Technological
Exploration
SPS
hp
##FP
##ko
##vehic
primal
treats
##INE
Aerodynamic
stretching
Linguistic
##rafts
delamination
legacy
Discriminant
Ir
Passive
UWB
##gu
shielding
vibro
historic
branching
BR
Zadeh
Thanks
trailing
objectively
replicate
attacker
motivates
middleware
imposes
breathing
owner
EMS
##SE
Coe
groo
Best
##anufact
##mposi
representatives
##inders
##rology
synapses
##recedented
Brow
IE
inability
token
##ilinear
adi
movie
politeness
##ovascular
##structures
Working
proxy
Du
##Ls
underp
approximates
circles
transitive
Adaptation
deductive
suffering
Recommendations
##factorily
Having
fun
##itic
##bling
univariate
Guid
lose
##ara
autop
tester
Diagnosis
mirrors
##NI
inex
##itt
##ellow
extrinsic
uniaxial
1200
prevailing
Move
Pi
Very
journ
cybers
continuation
##EMG
isolate
destruction
sag
##AI
redist
Market
terrains
MNIST
nanocompos
Voron
pig
##eol
inval
town
diamond
approval
turbocharging
amplifier
##hoot
http
Hot
defective
lightning
fasteners
graphically
Operations
Approximate
luminance
unprecedented
##ese
instabilities
recursively
writer
entails
geodesic
##hous
##45
##mprint
solder
equity
circumferential
Assisted
Ether
##haring
##ecks
##ectiveness
##using
timed
assesses
motored
##CAL
pursuing
prognosis
unavailable
quiet
##uded
##rome
nonc
Child
electrostatic
evolves
##biased
proliferation
Aviation
Lipschitz
rows
##gers
##hend
transce
overw
Arc
polyt
SUV
percenti
##herical
distributive
powertrains
Mel
abroad
converts
anger
margins
inconsistencies
unification
capsule
Intr
maintainability
frontier
pulley
determinants
maneuverability
enforce
streets
##issan
searched
voxel
JA
##onance
alph
##umes
##rapy
Employ
accompanying
Latin
##vical
##hard
##irth
quenching
suitably
tendencies
listening
condensation
conveyor
paramount
CIF
STS
adjusts
irres
divides
residuals
trusted
destinations
Hydraulic
Background
hal
##yle
##ingly
disposal
Ann
voluntary
refu
arcs
Games
depict
flipped
supplementary
metallurgical
Lub
##herom
conquer
prism
infection
##arger
assembling
intrinsically
pronounced
Interestingly
Cz
tent
##heological
##andem
subp
fastener
Universal
stimulate
resolutions
salesman
hemisp
09
NR
##ristive
vibrational
Horn
fingertip
meteorological
Augmented
Ber
Categor
Ke
tended
##300
Stream
Spray
reinforcing
cryogenic
sintered
incompati
vein
Jet
pell
##otives
park
corrections
mmWave
Mini
foams
inevitably
multistage
earnings
Rig
##icated
topography
axisymmetric
Interpre
pipel
##etheless
##oC
##agram
##ften
colored
clothing
Intuition
HAR
MEA
##issibility
##astern
##obil
decode
patrol
saved
steep
followers
deduction
bundle
Voronoi
SY
T1
##UE
##roy
island
##ceptions
satisfactorily
Track
##uckoo
recognizes
2nd
Amb
resp
unsu
hydraul
circuitry
expands
SMO
bottlenecks
camshaft
LB
Pop
Psych
Rh
Solutions
coils
inhom
Turkey
defuzzification
Bell
boiler
Imaging
attractor
HMMs
crafted
aperture
Theorem
ESA
sad
##ooling
##cardi
ceramics
140
adequacy
##ptic
##stations
##abetic
##ounted
Units
joined
degrades
annoy
Attribute
Connected
Benchmark
fuselage
Ful
Often
Sit
ram
##strap
minuti
Adj
competency
exceeded
Innovative
organisational
##heimer
SCC
##acher
underestim
Intel
pulsed
fingerprints
meetings
manuscript
##anip
prompt
unex
police
chromium
farmers
Sigma
Lt
Expon
subgroup
NHTSA
silicone
adiabatic
Prolog
hed
reinforce
##SIC
##ryption
therapeutic
Harm
Why
##QUS
##lysis
preemp
subn
microf
doctors
130
Operational
Grey
Aerospace
Demand
journals
Fab
Satisf
cas
##22
decep
origins
Being
affordances
CRA
Nam
PG
QR
Hamming
striking
seasonal
seamlessly
Florida
doll
pus
##ket
##abit
transc
senses
minimise
separator
entered
photography
begun
fleets
exoskeletons
practicability
Ster
##TL
##oler
105
setups
dummies
Hamiltonian
issued
Gear
##ena
125
Extension
laminate
ABAQUS
x00
##mic
syst
##ghai
capillary
wastes
textured
implied
ASR
anticipate
ergonomics
multitask
June
Wil
aqu
ECLSS
synthesizing
Russia
ineffective
Nissan
punch
pherom
##rost
mould
##ancer
researcher
instrumental
Calculation
Instrument
MIN
PET
Synchronization
curing
dys
##adian
neat
##hene
Simpl
cooperating
rooms
thousand
slices
textile
##zy
##lementing
synergies
memor
##ycl
dropout
MEC
pup
##fig
resampling
##orthern
STOL
scanned
irregularity
settling
dexterity
desktop
entrance
ben
n2
Inerti
selectivity
Conv
Modal
gaming
Plant
bridging
conjunctive
##stock
##uration
traum
unbiased
Anti
semesters
geo
precur
dominating
judged
Liquid
exchanges
HEVs
CRC
Sept
mouse
##jectives
##PSK
executive
harder
hierarchically
Together
eject
##quef
clay
##enses
residue
expose
clutches
powders
Mathematics
virtue
##imed
##aping
##atization
Coupled
Residual
360
peen
spend
transpor
##SOM
encourages
suppressing
Probability
permitted
immersion
noticed
EG
Kol
Owing
Pul
##utor
##ober
Elastic
Incorporating
overwhel
Czech
Intuitionistic
DAR
SER
notation
flowing
criti
##gebra
photometric
DMs
nursing
Dense
##28
##orous
##egrad
##onda
trackers
thermally
1988
coalitions
prevalence
Precision
Parkinson
elongation
Programmable
Shanghai
Hi
MMC
OM
airlines
localisation
##CAR
younger
Ram
fins
liber
visited
fluor
accessed
Assuming
EMD
Boeing
decomposing
terminology
##ambda
vanishing
Procedure
FER
Morph
PMSM
##accept
deem
logit
bandit
alumina
Environments
Recogn
FMEA
Dutch
PSS
PAR
VIS
##CL
##roke
##rogram
generalised
slopes
exclusion
alongside
Works
Synthesis
thermocou
##FI
Proceed
capacitance
##enerative
categorize
Acqu
starter
multichannel
repairs
reproducibility
undesired
discontinuity
Figure
RIS
came
exogenous
sensation
guess
ASD
001
polygons
microblog
Forecasting
January
Loss
kNN
##onen
mood
butanol
prevented
melt
microgravity
PLA
lig
void
reluct
##fulness
internship
crowded
grass
Investigating
##dorff
inp
approved
Correc
Volt
embodiment
Represent
Constraints
DH
Tier
distress
##phase
residuated
readiness
compensating
adjacency
microbial
Embedded
Academy
Progress
ADM
EDA
selling
##rene
##SH
##worthy
##VP
##umines
entit
dimensionless
encoders
Chrysler
cervical
##apsh
fulfil
Filtering
Kinematic
GO
SST
arous
##iving
##TER
unm
unidirectional
propensity
alternator
artificially
Perception
infinity
allocating
compromised
reformulated
omni
predominant
polypropylene
derailment
variances
##ocket
faith
1987
Naive
sketches
forensic
Functions
Imm
spaced
collectively
responsibilities
validates
glove
connects
experimented
Decentralized
redesigned
proprietary
DSC
m3
##zheimer
contro
slide
Array
vulnerabilities
envelopment
rigorously
ADAMS
trailers
cockpit
symb
successes
radii
substances
Hebb
##tism
##break
submar
Swedish
percentile
September
Bon
FH
Gam
Roll
vap
Gauss
March
fragile
nic
##iently
shading
workstations
retard
loose
wavelets
burner
ICP
feelings
alarms
Datas
buyers
Convergence
subgraphs
illusion
MCS
pillar
prest
remedy
anytime
functionals
pursued
advertis
slice
Mess
##utations
##rand
skeletal
##otypes
itemset
activations
binocular
headlamp
appraisal
Pedestrian
Blu
Gate
Pow
Zh
stall
##ricted
ResNet
emphasizing
Structures
palmprint
microgrid
Maps
PNN
tape
##elberg
##lev
optional
solvable
flames
diagnoses
meshing
Approximation
manoeuvres
benign
lid
##lar
##orrelated
##urers
acute
plating
subway
Analog
PDF
volunteers
RSM
resting
empower
Recon
coping
Herm
sEMG
##owing
intric
unaccept
Scen
Automobile
Machining
oxygenated
books
interfacial
couplings
tandem
##cher
##26
##urring
decis
regress
predictability
##look
Infrast
Facility
Hausdorff
dy
lad
sorted
##urt
precedence
plausibility
susceptibility
elicited
##mposium
EB
FU
##roph
worm
promises
COP
missile
NoC
styling
attractors
weekly
invalid
DN
FRP
##lay
##va
coloring
##ondon
centres
linguistics
##etooth
##oscale
Positioning
Rever
quantifiers
impairments
incurred
sodium
genuine
Band
Down
phant
assists
Underwater
reachable
pitting
Possible
MSC
aler
overestim
seldom
3000
farms
RPM
July
QP
##ainting
flapping
microcomputer
cathod
##amese
cryptography
cohesive
exerted
bot
##Fi
##kinson
##etting
matters
##lude
Alzheimer
comprehend
Quanti
##ylon
differentiated
##mittance
Virgin
Proceedings
Apr
vane
##ville
##ratives
exams
injured
harvest
encounters
Delphi
BSFC
##ifteen
Mechanics
legitimate
Eco
holog
##orage
disassembly
optically
workstation
aeronau
autocorrelation
respiratory
DQ
##alistic
recl
genre
homogen
holonomic
biomimetic
Corrosion
PSNR
restrained
Weibull
Paper
##opters
inclusive
realtime
helmet
nucleation
nondetermin
immersive
chloride
Benef
Histor
Koh
Office
PLS
ast
##31
##ternally
wideband
Optimized
unsafe
dissipative
riders
repetition
Australian
cerebral
conjecture
irrespective
Fiber
Mom
##tized
elicit
occupational
apparently
unavoid
Avoid
tie
##VI
pathological
##operation
Spi
African
astrona
Ltd
Mr
##formed
diffuse
##yscale
Generating
thrott
plotted
Privacy
Drawing
LIF
specifies
##istingu
suffered
FAA
fulfilled
anonymous
electroencephal
overlooked
Eth
UML
##bot
##olutions
caption
##tinc
##iotic
debugging
hill
junctions
Exchange
durable
ethylene
depicted
dot
fear
fans
##Rank
unloading
##raphy
SDN
Handling
Tools
mistakes
JPEG
October
Orthogonal
Honda
LU
Sentiment
##inement
optics
evoked
finer
remanufact
homogenous
##MPC
Safe
leveraged
Satellite
##physiological
FES
##PM
##heating
parser
distributional
agreements
adversely
reservation
Presented
nontri
Frac
Mind
Wall
spill
trick
corona
topographic
consume
Subs
Discovery
announced
microstructures
Classical
Demonstr
epidemic
Malaysia
metamod
Bur
##enda
Preference
Basis
miscon
malfunction
SQ
ZMP
binder
##rane
##ulting
##rained
impeller
energetic
backl
Cohen
Differences
originated
locomotives
impulses
Occup
tapered
April
Box
wants
integrative
premium
fabricate
scripts
rewriting
deactivation
deletion
Chen
fol
sacc
tether
characterisation
##ernary
CAI
PFI
Broad
HMI
Node
pione
vocal
Requirements
Ball
DRL
London
Susp
benz
stone
##arges
runway
Unified
Capacity
strike
electroencephalogram
avionics
Bang
Rout
T6
rays
##eo
putting
tuples
pall
fork
supplying
##titudes
copula
impinging
sigmoid
Damage
##DR
stagn
confirming
cathe
##irls
drugs
eigenvectors
tilting
Stackelberg
UI
##hafts
backup
boom
personalization
bioinformatics
ellipse
Patterns
telecommunication
contradictory
LL
senti
##ateness
balances
neurological
NAS
Present
snapsh
mortality
Gross
indetermin
discs
##portional
contrasted
incomplet
entailment
Profession
Consensus
GHG
birth
##ensory
distributing
centred
straw
exchanged
inspections
Rol
pier
##ulo
memristive
Secure
Percept
##akagami
administrative
##ernibility
girder
unexpl
EDS
TRA
rum
##uble
##ives
##oral
intact
curse
guard
catalog
Optimum
regularities
amplify
proceeds
electrification
CIFAR
Fully
citation
jerk
##po
##anob
oracle
technically
##ausal
##uchy
Analytic
1986
monoton
subgrade
tourist
Virginia
LID
Run
##WR
Storage
superim
secondly
Descrip
replaces
motivating
displaying
arriving
##coat
Person
Facial
Pit
SUs
dich
##atches
metac
computable
##ceptive
##atism
##cedes
equipments
extremity
overlapped
Poland
originating
ambiguities
bacterial
unequal
Ranking
##ELM
verte
generalizing
thoughts
1985
reconfig
##otient
INS
DTW
Sample
MOS
PAC
##aments
scarc
##ipolar
deleg
Logistic
refrigeration
Reconstruction
SNN
##GV
##DY
##FET
thirty
stems
labelling
Resolution
confirmation
assistants
compressors
Drivers
beat
##atisfactory
Reduced
shadows
Eulerian
Recommender
hyperparameters
KB
commuting
butt
soils
Issues
retrofit
nontrivial
Opportun
aven
##path
externally
reversal
##ionic
##ologic
##ressure
relatedness
internally
neglect
rotated
strongest
Indones
Interest
December
letters
interfacing
Lane
RH
##alc
wealth
informational
producers
##aneously
Manual
discriminator
steadily
fluctuating
Facebook
discrepancies
tillage
Passenger
1st
rides
##enn
##acic
##earm
##virus
biop
Effectiveness
Objects
allocations
Guided
supplemented
surgeon
Gibbs
##wall
simplex
neurop
breaks
tablet
chromat
AVL
fibres
Infrastructure
Fractional
Da
##ocy
##wood
unsc
identifier
recurrence
diversified
Previously
Turk
browsing
Liter
tick
##ignificant
spare
plag
commission
conveniently
interacts
structurally
##ositive
infinitely
males
inserts
LQR
Gras
Rules
##ND
##ww
##ario
movable
propell
CPG
ergodic
chromosome
Pearson
##engineering
Summ
##gar
##KOR
##olec
Incon
traverse
vertically
automating
refs
polymeric
consumes
Improvements
##aimler
Investigations
Geor
pelvis
Customer
Velocity
Role
churn
##SPs
Actual
Quantum
breadth
deemed
entitled
ARM
Que
Tom
Wang
##urface
##osch
##otom
aband
locked
##lik
coincide
ADAS
rattle
Trees
bare
##disciplinary
##raphic
traps
mono
reliance
motorized
accesses
Quasi
Approaches
PAS
upgrade
contingency
backtracking
RAM
##rally
compressible
##lug
Stabil
precious
manipulations
fastening
strand
multitude
##burg
witnessed
Perceptron
Bit
ole
##py
##OH
##hev
##iser
agility
smoothed
occupied
metaphors
##emannian
##anobis
Et
GDM
hots
##lining
##vitation
disks
decides
lowered
chooses
absent
narratives
BPNN
corridors
unobser
disappear
Bluetooth
Med
VH
##AG
producer
generalisation
bivariate
sums
grams
overheads
adhesives
profitable
Jacobi
bidding
TWC
##halanobis
Cold
Mn
memetic
positives
factorial
postural
marketplace
Formation
squee
bootstrap
Between
multiresolution
reserved
wetting
Cauchy
Later
cards
##heet
poles
##yclists
elastomeric
pleas
Finger
Pal
Tensor
##WC
##VD
##held
##ophy
relied
unrelated
carp
framed
airspace
softening
formaldehyde
##ooled
monthly
trouble
necessitates
phonem
extrapolation
subjectivity
pheromone
BAM
OB
##aved
##aters
indef
wafer
hyperplane
cancel
diversification
annular
organs
expenditure
ARIMA
Daimler
Hong
www
##wa
##arbon
apps
spar
##timately
detections
##ludge
grayscale
visualizing
##apsack
Equival
Preser
anisotropy
Benz
ENG
rope
chat
suburban
ages
reducts
freezing
Alloy
mindset
Peer
overshoot
perforated
Heuristic
Core
LTC
dental
hose
nodal
obstr
interrelated
Stra
Al2O3
micron
sensitivities
adaptations
Electronics
Discussion
provisioning
VIKOR
shuttle
medial
Crowd
Author
Mercedes
glycol
Ban
Duty
PRF
kid
##lable
##ham
##orb
transitivity
muse
mountain
buyer
sigma
Complete
Nakagami
PBL
##oven
##erated
##ationally
##ycling
electrocardi
Limited
telephone
az
##48
##ardi
##adium
##ochemical
dates
crim
conductance
smoother
misle
electrolyte
Multimodal
synergistic
450
Eight
Note
RON
RNNs
forearm
##allic
slack
criticality
Recursive
##psy
bagging
##tistic
tyres
slabs
Mexico
sulphur
Asia
brick
da
##arying
district
Sufficient
reacting
clinicians
reconc
##uffing
naïve
minutiae
ESP
Mut
cash
##oceptive
unint
converging
Scanning
bolted
Peak
evidences
##EVs
calor
toolkit
camber
summation
Calibration
airframe
Observer
##vehicular
Exponential
2n
##rontal
liquef
lesson
Orb
answered
Explicit
pyro
Maximization
Enhancement
Hierarchy
sedan
combustor
Hom
Pose
VO
##ali
anaph
charges
complementarity
PSD
enforcing
flooding
provably
Riemannian
zeol
amen
Volume
Organizing
altering
SIMD
mortar
##kn
##isible
##reated
diode
una
installing
Radi
CSA
Evol
Peri
ego
##wer
##fin
##HD
##emi
Inj
overc
demonstrator
rises
blockage
statics
downward
competent
gateway
kWh
hypersonic
gyroscope
corrosive
pronoun
prostheses
metallurgy
POMDPs
orthopair
oblig
systolic
GWO
sending
forged
parity
appliances
charger
visitors
flap
keying
monetary
Add
COM
panor
Leven
Centre
deadline
payloads
Reinforced
replicated
carburetor
vortices
decisive
Vib
fires
##odulation
##epstr
Recovery
Clin
blocked
acoustics
retains
partnerships
exchanging
enumeration
Bridge
RK
##uges
connectors
naturalistic
shortcoming
configurable
Leib
Boosting
90°
malign
Fixed
HOG
M2
Pilot
##gets
##erkin
Invent
##ellows
upward
calcium
certainly
##ugues
conceptually
rejected
incompressible
QA
mating
##eon
##OWA
##making
##bys
asking
Resources
quantifies
referential
epoch
extrapol
densely
servicing
unavoidable
CDP
Way
rung
toy
##ocon
examinations
cooperatively
Transformation
biodegrad
sideslip
spurious
professors
Pseud
Sen
Sand
cow
##oe
##FN
##ostics
scoo
crater
catch
##retely
premises
skewed
struggle
peening
##uguese
GSM
Van
conorms
insignificant
superv
retarded
observational
intrusive
Mahalanobis
dropping
Visualization
augmenting
UT
emulsion
visits
intelligently
tunable
cutter
Compact
offerings
LCD
duplicate
UE
##ba
trustworthiness
retailers
##robot
MRC
multiview
##aterp
geared
houses
masking
Latvia
anonymity
Camera
Quadratic
BEM
GUI
##nik
##ensively
MAV
complemented
Naïve
vegetation
antecedents
Scalable
Toler
WP
Will
Washing
##Cl
##imil
##amd
formations
infant
Advant
sustaining
SINR
masks
proficiency
Suspension
ADP
River
##rist
##29
##Mo
##atric
##asers
##ucose
##otation
whom
insulated
dominate
rounds
aromatics
Roman
resemb
successively
drastic
CVS
##LEX
Volvo
reactors
Gait
administrators
elegant
Ethernet
Hebbian
ECM
OA
mock
pound
##atum
##essim
employers
affili
radiators
traveled
activate
Fourth
archive
Coding
PCCI
ble
cad
##ATE
##ica
reorder
timber
manages
##ryl
infants
labour
extractor
restruct
##rochemical
##ugged
Components
Bul
##heres
magnets
##MAS
polyhedral
nitric
WiFi
Portuguese
prefix
##atinum
Principle
unacceptable
Certain
King
coch
hunting
##olines
arte
Stable
Proportional
linkages
funds
Throughout
Correspon
##liest
inheritance
concurrency
contradiction
NEDC
Successful
refueling
Clean
E85
dump
##ala
##amiliar
multihop
conventionally
doesn
##LAM
episodes
Sweden
flaws
OBD
tamper
inch
Expect
semit
frust
capacitive
restoring
tubing
Nonetheless
HSR
appreciation
cultivation
cohesion
telecommunications
backlash
RI
lying
##under
##eal
##cy
##Nets
##kens
facets
literatures
##IDS
immers
ACT
##dominal
VGG
lemma
GSA
IEC
ODE
SRM
UD
XRD
cure
##nes
##zero
impactor
synonym
gauges
fouling
Powertrain
supervisor
neuromorphic
epileptic
prolonged
KA
##uzzy
##eur
##df
##raying
residence
synd
deterg
collects
bios
AFR
cardiovascular
Galerkin
Topic
gated
##St
##×10
##omatic
indentation
##ractions
unconventional
deaths
Focusing
spoof
Washington
BD
BSS
fare
##bran
##inally
trapping
assemble
##rowth
connectives
slipp
percentages
analogue
Smooth
Emphas
elasto
appeal
eavesdrop
August
Homogeneous
ties
##eters
Implementing
128
Interference
Delta
sleeve
About
##azon
resistive
cybersecurity
inception
formulates
buried
multicom
Sensors
##otechnical
casual
##uminescence
ACM
KF
Musc
Tax
ven
##GN
statically
##verses
Resonance
participatory
imperfections
##amdani
Kong
sludge
##icz
quas
quotient
airc
attackers
##aphragm
excitatory
Gest
##uating
##tization
admittance
topical
Until
restricting
suggestion
phosphorus
Lu
Past
QC
mosa
##can
thumb
##pler
plume
sole
drivability
collaboratively
downsizing
chemicals
analogical
Canadian
piezo
reverber
skyline
behaves
Document
SSA
ternary
writ
woven
##utical
plural
outbreak
inspect
##nealed
regularizer
certified
resonator
doubly
##leton
camp
coursework
Sharing
accommodation
Expression
Middle
dent
girls
tell
##TH
uncorrelated
transported
Metro
##RCH
silenc
historically
projecting
Relay
Extracting
survive
Introducing
inhomogeneous
Alex
FDM
Pub
##estion
skirt
alignments
terror
lookup
Equations
Structured
offsets
transporting
AZ
Bro
Mad
Varying
##rd
##ja
##ectic
disl
intend
buoy
foundational
slur
eleven
##gered
fixtures
executable
Clim
##ilibrium
intermodal
extensible
habitat
Blockchain
complain
expressiveness
cadaver
##aterpillar
Lie
##32
##elong
##urities
Invari
##vesting
election
Configur
flutter
##queous
specialization
##ranulation
expresses
AMT
Educational
Upper
repositories
elucidate
##usi
##FNN
isomorphism
shuff
manure
visualizations
widths
contaminant
anthropometric
ancient
##PER
unrest
understandable
hubs
Reliable
Dise
eig
depletion
missed
multicore
tips
ferrite
Newtonian
Details
microrobot
Shapley
ASM
FW
jacket
##eds
##actional
reorgan
##ago
assimil
underbody
sitting
cheaper
barrel
MCTS
Braking
traceability
tiny
Stirling
##byshev
Pati
RIM
ions
##ursion
spinning
presupp
selections
framing
export
1975
dispersive
moderately
Twin
digitized
electromyography
decompositions
phantom
kN
pessim
tied
##graduate
compose
indications
adaption
translates
ATM
stakeholder
multinomial
##hardness
Dataset
Kohonen
Mid
Size
isomorphic
resched
chun
suppor
gasolines
Indic
telesc
determinant
PCB
Criterion
RBFNN
bucket
portfolios
unbalance
##falls
Factorization
overtaking
Professional
EO
##iar
##ulent
##abol
unlik
responded
interactively
##inements
dropped
dissipated
clique
centroids
Windows
commuter
multispectral
rhetor
##limited
Nit
SRC
##ek
##base
##ji
##imuth
tractive
saves
Algebra
stepwise
rooted
conducts
##unge
opposition
symmetries
threaded
commutative
spirit
Refl
Emergency
##adoop
Reconfigur
Kull
RLS
##due
##me
scrap
underway
nonco
emulate
##avor
substantiate
firefly
Glass
petrol
familiarity
subtasks
Enterprise
slippage
Biod
Chi
Chip
ESS
Front
Nig
oc
##ria
diaphragm
admit
unmeas
Contrary
Scene
deteriorate
EURO
CMAC
Mus
##DO
triplet
##ogramm
Humanoid
figs
Simultaneously
Creating
cavities
illeg
acknowledged
puzzle
unlikely
BMI
Eg
MMSE
Side
Upon
WT
sake
##anasso
perf
navigational
owned
##works
seemingly
permitting
campaigns
Synthetic
disagreement
##anassov
SDP
Ts
ly
vig
##alib
##imal
##apod
matroid
insect
virtualization
router
interconnections
fuses
anticipation
Symbol
##hooting
conservatism
Label
Gramm
Sun
mined
nu
##itating
struck
unity
abduction
agenda
separates
ATC
rendered
nevertheless
Pist
vill
won
strut
solvent
additions
feeder
longest
Systematic
capacitors
editor
grasped
plugs
thoracic
reserve
elastomers
perceptrons
Behaviour
certificate
prompted
Lessons
Ion
fasc
##vations
##ettes
perimeter
sold
globalization
ideally
openings
polyethylene
fuzzifying
Economy
Recognizing
Welding
##finite
##36
##elle
Weak
lifest
populated
CON
referenced
muscular
DISI
Mamdani
Utility
bayes
##Si
##bl
##alloy
arr
indicative
enclosure
##elerob
appropriateness
grounds
pairing
looked
tailor
AUVs
OFDMA
workflows
cruising
tetra
Inertial
nondeterministic
Hadoop
##iant
Thresh
##reek
##ployment
fractured
ASEE
BSs
succeeded
featured
unmodeled
weapon
pipelined
FTI
Navy
##OW
##PL
##oto
skip
expressway
SPAR
White
accumulator
Does
committed
queues
binarization
##umbar
VRP
tard
##nostic
##aults
##ulomb
##imulation
enact
characterise
glucose
Thereby
Thereafter
constrains
balls
springback
Amazon
ignores
Marqu
grippers
Chebyshev
markedly
Concepts
volunteer
##houses
TI
cranking
conformal
revisited
venture
parametrization
silhouette
inpainting
intricate
FAR
Norm
##ilin
formative
motivational
Emo
distinguishes
POI
antagon
fulfilling
tensors
ACS
toe
mov
##aceutical
Analyses
Artic
walks
Electron
idealized
abnormalities
practicing
abrasion
prognostic
catheter
fifteen
Stead
handheld
integrator
rotate
portability
pulling
256
SPL
lubricity
fabrics
attainable
sketching
WordNet
Tele
biofuel
azimuth
Lor
mines
inert
traversal
preload
patents
programmes
milk
Increased
Texture
Calculus
anatomy
coupler
destroy
warranty
Kullback
B20
Hall
Lex
glow
##ss
valence
swept
Atanassov
Graphs
subclass
CSPs
artery
##duino
Mutual
Pack
##iled
decentral
passages
shortened
diagnosed
Controlling
farming
constituted
drinking
voters
blurred
Penn
watershed
hammer
TU
tense
vow
wagon
##RNA
##GD
##isations
##iciting
complexes
membran
retrans
microelect
tumors
##endix
reluctance
renders
##exam
technicians
thematic
CAVs
deployments
##easibility
retina
Emphasis
AQ
Dub
vote
##osol
diabetic
carc
Metric
replen
Boost
averages
crown
isolator
recruited
MDPs
electrified
movies
FCA
HIC
##OPs
##omotor
##ardt
localizing
Financial
##ostatic
##empot
nanotechnology
orthotropic
repairing
Extending
Twenty
fuzzification
enforced
impressions
liberal
Cover
Course
SQL
TMS
lambda
##turing
chose
traced
newer
emitting
101
axially
stabilizer
sparseness
ionization
hosts
microprocessors
payoffs
Neighborhood
prismatic
inhomogeneity
Cutting
conferences
discour
Relational
slee
dialogues
shedding
gallery
recharge
Archimed
Moment
ISA
Nucle
bent
pinning
##mo
##inters
##roit
##omechanical
##ifold
##sistor
seated
##hess
fixing
MIP
negotiate
tangible
Constant
##IEW
glazing
grooves
Few
##ognition
logging
superf
remed
anywhere
skull
restraints
lands
Physics
##ummins
Geometry
Python
vibratory
SISO
elsewhere
Children
PSP
SMS
##91
##riers
interg
Play
progresses
Subspace
1984
periodicity
continual
##oscopy
Achieving
upgraded
Eye
QFD
##estr
outlook
nothing
powerplant
loader
Conversely
slender
Multilayer
Diagram
Variational
Measures
inconven
endowed
Om
lingual
##rity
##oors
prover
password
couples
takeoff
breakage
attractiveness
painted
periphery
Aggregation
Primary
confronted
##istinguish
Steady
4V
POS
Ta
dog
oven
zo
microphones
provisions
contradic
Actuator
ingredients
Lif
wedge
##avier
##ocentric
##ops
analyst
##endez
expenses
106
prototypical
interdependence
Stiff
Discriminative
excavation
Turkish
membranes
Zr
aesthe
##makers
parsim
differed
infected
stimulated
knapsack
publishing
permissible
bicycles
tightening
Frank
Wiener
violated
Carol
upload
territory
FSM
MBS
Table
south
attended
subscrib
startup
climb
denote
SSD
shooting
silica
DSM
NCS
VQ
tap
##with
##ried
succ
cranes
unco
##ovak
enclosed
##erged
promo
coevolution
Induced
stiffened
Soot
Integer
denotes
Report
supplemental
bankrupt
##lasses
buying
1960
propellers
Programs
liners
sprung
Nether
Squares
transceiver
KBS
Year
eu
loyal
##99
##artz
postulates
CAS
Uniform
seeing
Related
reforming
Chev
rhythmic
##holds
submit
financing
polishing
physician
armed
decomposes
clarity
LabV
commuters
Asian
Cos
KG
PER
parasi
clues
trait
arti
corrup
polyhed
laid
Practice
redistribution
stoch
enth
decon
ablation
abdominal
failing
recommending
Generator
1990s
interleaved
nanotubes
Movement
AES
RW
pun
tighter
##alone
##eles
intensively
distal
refinements
boat
bushing
circumvent
##cripts
scholarship
bootstra
Manipulation
graphene
Providing
##anipulation
Grossberg
unexplored
zeolite
##endezvous
ILC
LSP
UHC
##rose
basin
nonzero
empathy
responsiveness
maximally
bush
accelerates
Airport
##rutin
Sea
PHEVs
Connection
OCR
vapour
Levenberg
Bearing
Negative
pinion
##Ch
##enter
platinum
External
everything
ampute
Query
exemplar
unimodal
judgement
Dur
Prem
##west
##ague
disability
##ensing
##ords
propelled
benchmarked
Translation
##otherapy
transmitters
Humans
evidenced
Chec
traversing
poisoning
subnetwork
Casc
Neg
north
##rus
modifies
##agues
realism
idempot
Exact
fruits
respects
excursion
stirr
gamification
contributor
SIC
styl
Smith
deduce
registers
Determin
contrasts
vendors
unsuitable
Zhang
CSS
Rub
RES
aqueous
pour
##Cup
##MT
##urization
exemplified
battle
coexistence
vitro
semitra
Fib
HCI
KC
Lever
TCS
offic
retros
calibrating
Columb
EMI
complements
lazy
##neumatic
MTL
phosphate
abandon
idi
signalling
connector
slos
MAGDM
indexed
recognizer
solidification
derivations
attaining
dilation
renewal
316
scarcity
FTIR
##tting
##etically
##tained
slipping
Graphical
Eigen
Media
vascular
##tability
##omach
disput
schemas
feedstock
textural
Arduino
ECUs
dryer
Robustness
sealed
unfamiliar
verteb
Bosch
CLA
Marg
voids
##uled
##raining
scrutin
visualisation
Paris
recommends
CART
replay
Highly
PCs
prune
interfering
Frame
strips
excavator
confidentiality
envisioned
Netherlands
ALS
KS
Los
fighter
##oT
##hon
##mber
tokens
##ynthe
avat
Meth
commercialization
GPA
biomark
recurring
Rao
Establis
Bor
##win
chances
diffuser
Trends
transformers
Shared
quantifier
thermoelectric
##ritt
recursion
DMUs
cascading
disruptions
universally
Ny
song
##BI
##onary
##tick
serv
glare
privi
earliest
##priori
##processing
CNT
240
seniors
Statistics
Tasks
##hydro
##uscular
Excel
Tunnel
degenerate
HDP
NAR
OL
tall
##pt
##alt
##arts
chair
##tifying
markings
constraining
executes
Detroit
rubric
##ICE
5000
V2X
queueing
demographics
bubbles
licensed
##tinction
arrhythm
Cru
##ksw
##riz
##places
archit
morphing
Ess
Again
dissolved
DOFs
remarks
##riging
shadowing
reflexive
reversed
Cummins
Hosp
IQ
LHP
Mand
complications
##rolet
surpass
##roni
evenly
concentric
##valued
shearing
EMU
reproducible
unsatisfactory
Sustainability
Congress
Carolina
5th
ECS
Fine
Gold
Positive
tong
##eff
##emia
parse
##assemb
sensorless
catalyzed
##omplete
AUTO
Equation
TiO2
oversampling
Switching
annoyance
Piston
Chem
Just
MST
Yale
##leys
contig
dism
ath
eventual
SSL
##ertz
Grand
stopped
reformulation
crosswind
Workshop
KIT
Nove
##WP
##orov
##igned
##rometry
differentially
requisite
utilising
composing
soundness
contributors
thorax
Curve
nuclei
regulators
epilepsy
Leibler
WL
##atement
thing
unaff
Anten
##artens
velocimetry
lossless
suspicious
304
Hopkinson
passively
upgrading
Partially
eccentricity
Walking
Marquardt
0°
6Al
UKF
##ias
inn
tourn
Inver
depended
SoC
Purdue
condensed
LEDs
Miller
propellant
amenable
GV
RNA
SK
pill
tile
##itional
##DH
##enna
##icates
##amine
recomb
soluble
democ
Traction
auditing
SIR
conducive
commitments
Else
interdependent
Important
submodular
awarded
Stereo
dichotom
parasitic
stochastically
4D
Fair
PZ
SCM
cuckoo
##SIM
endoscope
##edible
microhardness
urg
fronts
##IME
Polynomial
geographically
Aeronau
Strategic
November
MTS
Xilin
##bound
stably
basics
emulation
confident
##ounce
bikes
posted
##MAX
undergone
taxis
Singular
RoboCup
coincidence
##rystalline
overwhelming
Route
Mission
RG
##opathy
unlimited
decidable
##tify
specialist
Compens
summarizing
informatics
expansions
biomechanics
tacit
discharging
deadlines
reusing
nutrient
peculiar
Wat
pores
##vative
##39
tolu
##urch
##imm
paraff
sensible
magneti
cogni
Indoor
packed
STAR
harvester
interferences
advisory
corrugated
stagnation
Xilinx
HL
Page
san
spans
##oping
tradition
elective
Combination
divergent
DoS
Seat
households
machinability
borrow
Circuit
austenitic
culmin
pellets
misconceptions
LG
lux
##Ss
spraying
chief
paying
##eways
organism
##ographical
autism
##trained
sleeper
warnings
Inspection
Topology
nouns
interruption
Injury
toluene
Southern
iC
##hatt
##CH
altitudes
interrog
substructure
standalone
transmits
##market
silver
TOD
Belg
Remo
multiprocessors
Degree
Inconel
##kswagen
Clear
Far
Gmb
Wolf
##stere
cooking
nons
filament
commons
Rece
careg
MILP
negotiations
Vertical
Goal
Ultimately
headlamps
supercharging
Amp
Visc
dos
##opoly
clips
heavier
secured
##ucker
digitalization
existential
Diversity
Inters
inferential
programmers
Selecting
cryptosystem
VTOL
biofuels
CK
Home
Waste
cc
##ua
##dimensional
##ewicz
##ipient
##ferroni
collaborations
##ractor
connectedness
tolerate
SPM
Disturb
Viet
pivotal
Linux
Medium
pharmaceutical
MCMC
supportive
GmbH
BDI
VF
paced
coach
##plus
unic
executions
MAX
##OLO
RANSAC
Cooling
750
PSA
##verbal
##pecified
securing
104
Partition
portal
DOA
Included
wrink
television
responds
alike
rescheduling
220
Greek
Plug
Still
ejection
##aque
##uder
Forming
Modulation
transferable
adjoint
accessory
restricts
stereoscopic
opposing
Partners
Singap
Minimal
segregation
Academic
loosely
Advantages
##steretic
Hung
##vimetric
##eat
##atal
##iced
##ributions
transcription
##integ
handcraft
GANs
CSR
convinc
reused
dimethyl
dendritic
misleading
enthusi
Fer
lasting
##nish
##vested
##mill
invention
##isites
##ressibility
##thermal
prey
abbre
##istance
##erious
##ixing
utilisation
litre
rearrang
autoencoders
pivot
Catalytic
pulsating
weighing
Acquisition
DW
PK
Pric
WLAN
gri
##het
##orheological
##ologist
realised
Projection
elemental
Engineer
##TSs
nitride
conveyed
Nano
ADMM
Evolving
3rd
FDI
inflow
invited
extruded
mixer
Induction
Coulomb
Accident
holder
tackles
Blind
identically
sulfate
cubes
Helm
Principles
BMEP
Ka
fut
##gia
##maps
##inf
##odings
dried
##italization
selfish
Devices
Repl
Trig
Ministry
annually
IVIF
hoped
Eventually
batches
eigenvector
FMS
LDP
telerob
##ropping
ants
##aria
constellation
fretting
flag
##factual
loan
storm
Variation
Franc
Transition
exceptions
seminar
Preserving
Expectation
AFS
IFS
##NE
##onious
asc
adher
##anging
equals
##ixels
fingered
debl
##ahn
hexagonal
injecting
supercharger
constructivist
Coefficient
Bellman
malignant
Singapore
Age
Hes
watch
##sch
##mog
##34
##rew
##step
##udi
maxima
strategically
excluded
aerosol
liquids
1981
1983
Radar
touching
inaccur
Lightweight
Conflic
Argument
Relationship
steganography
Library
aeronautical
Elsevier
MDS
Qo
baff
zirc
forum
indistinguish
realm
##tinal
liability
STA
granule
turbochargers
Concrete
Deliver
tabs
ducts
steered
inaccuracy
Diffusion
Bonferroni
throttling
FGM
Rich
See
Sales
##uity
##omotion
tracer
unfor
discount
ecology
accessories
Neur
hypothesize
booster
prostate
teleoperated
doubt
##aterials
Dyn
jack
bevel
##agraph
##ocated
operability
surf
Almost
##inct
hydroph
attenuate
fluxes
##owski
Volkswagen
##achelor
Constructing
recruiting
asymmetrical
platooning
consolidated
Bin
ICI
PCS
dance
nations
##terra
spall
subrou
Anom
inspected
SOI
Subject
accumulate
Defin
vendor
doctoral
arousal
Weld
kV
sick
stuck
##aming
ana
obs
attending
##henko
Obstac
inefficiency
alleviating
disparate
cerebellar
Illust
pyrolysis
Chevrolet
CDS
Hoc
Rational
##ois
##entia
mangan
##idefinite
polys
correlating
synchronize
conveying
SGD
Strong
unrealistic
Recommendation
Military
lidar
Stiffness
C1
CQ
##SVM
##etch
divis
##resence
knows
conductor
submission
triangles
Supporting
incompleteness
Pseudo
##alibrated
Archimedean
Massive
gating
lumbar
##4a
##ita
##utta
coars
phased
##ordan
initialized
Managing
Herein
harvested
Redund
tremor
mechatronics
criminal
pessimistic
LIN
NDT
WPT
pep
##ulding
multiphase
discernibility
dependability
feedbacks
transistor
fillet
accomplishing
undec
launching
embritt
routinely
colleagues
superpixel
##ATEL
##artensite
BEV
ℓ1
resins
enters
visu
logically
squish
Coordination
Fracture
##rowsiness
Gain
Od
RV
hamper
nylon
stit
##bu
##utely
##ifiable
reck
degrading
lifelong
consor
190
princip
Optimisation
##racing
polyester
thermoelastic
survivability
floors
mentor
prioritize
Relevance
ceiling
tardiness
FN
Lithium
cage
##LU
##escence
meg
settle
realizations
Extra
restaur
weakening
Infrared
Seven
affordance
Hopf
orbits
crawling
endeavor
buffers
splits
Vietn
Camp
GDP
Hertz
KDD
Lit
##pe
##best
relig
nonsm
Convex
dominates
CFR
bumpers
Coupling
Hermite
alerts
sentiments
Bank
Lateral
##zers
##eside
reper
modulate
##atial
planet
hybrids
arrivals
Biological
distinctions
Catalyst
chromosomes
##aturated
DEMATEL
A3
Hyp
MCC
TEM
rendezvous
##amation
##uter
Polish
competences
troubleshooting
Inventory
Disease
WH
gang
thy
isothermal
##ussel
adoles
redef
hysteretic
associating
sharply
appearances
Assignment
Difference
undertake
surprise
hook
towers
##hydraulic
Importantly
textbooks
Consistency
Employing
KITTI
HB
VSM
inelastic
##romatic
presum
distric
realistically
urine
##asiewicz
MRR
deteriorates
Factory
multifunctional
Thermodynamic
Renault
inductance
Split
SSS
sell
wors
##oons
##PF
##utors
##ilevel
estate
encodings
mathematic
reflector
Mont
multigranulation
keypoints
hippocampal
LabVIEW
IMP
Pump
pent
##95
deser
damaging
MAE
stimulating
##holtz
##ambigu
##erosene
Correction
Pic
fic
##Ws
patented
programmer
confinement
##lick
crevice
boolean
manipulability
Shift
Ord
intermedi
attentive
leaks
elevator
RANS
revisit
encompassing
trauma
Kolmog
Avoidance
immersed
##estructive
6D
Nm
SID
##−1
contacting
pavements
genome
transactional
locus
attribution
##rying
MPEG
SPC
trigonom
imitate
austenite
bankruptcy
Mises
votes
##tl
##2000
##wear
obsc
parallelized
Enti
quadc
bracket
Febr
chapters
Emotion
walker
socioeconomic
undergoes
Composites
Audi
MKL
Agricultural
tongue
Cour
hos
mere
tons
specular
Strain
literal
beforehand
residues
Accounting
ANC
ImageNet
Explor
intensif
biochemical
brushless
DBSCAN
Powder
benzene
February
Grad
Hal
SBS
barg
resorting
parc
##ounding
automakers
insure
Parts
COMP
Clos
equivalently
armor
photogramm
resonances
permutations
Overview
Liu
Defense
mimics
irradiation
loyalty
handcrafted
Better
RTS
chess
wired
plung
miner
##onomies
releases
accountability
traveler
##scrip
reconstructions
turnover
substance
memberships
lubricated
Capstone
Prototype
substituted
Slovak
academics
Manipulator
1980s
peculiarities
motifs
cladding
Message
slurry
AMS
EMA
Growth
LSA
RUL
ber
gast
sale
##TW
##Bot
metrology
discl
blasting
pointwise
Experiences
transmissibility
transitional
preferential
Accept
quantile
horizons
CBIR
SURF
lapa
manoeuvre
episodic
title
nonsmooth
Chic
EI
Emb
Lang
bath
##ya
##rotors
acet
discern
orderings
defeasible
Prov
##eneration
implants
Plate
governmental
judging
attentions
minorities
nucleus
boron
helicopters
talking
Eastern
MJ
martensite
sie
##iosity
##PO
##78
envis
##anta
globe
##lie
##CAS
equalizer
submerged
REU
countermeasure
Avail
roundabouts
Mesh
incompatible
syndrome
retransmission
ADC
psi
ventric
##tree
##finding
##ittal
##isecond
##omat
embr
investigators
insects
##bridge
geological
ending
subsonic
trainable
chemically
SCI
predecess
preprocessed
acids
happened
ESN
##omorphisms
favourable
immunity
remanufacturing
Rolling
Literature
RU
SSC
##stan
##uning
affirm
rollers
molten
Discovering
announc
Ricc
Lubric
CMM
##TV
##irability
returning
surveying
foil
horizontally
SSF
##denum
femur
##computers
tractability
physiology
tabular
purchased
Telec
hexapod
prohibitive
legislative
Voltage
controversi
Demonstration
superimposed
Faster
Jordan
Pb
Timing
pins
##bul
##ele
##enches
thereof
disturbed
orthogonality
tagged
interconnect
imaginary
binomial
Turbine
codew
Summer
BG
GI
Iris
##tech
##cements
##En
resort
illustrations
spectrometer
penetrating
DAG
irrever
coincides
nurses
Scientific
##apacitor
SYST
complaints
succinct
Kolmogorov
CRM
FRF
Hill
RCCI
ZF
##ucts
useless
unve
visiting
flip
flamm
flexure
##EAM
conceptualization
ITE
##label
spotting
hourly
folded
wavelengths
toxicity
Renew
professor
##urtosis
Leveraging
Caterpillar
Kutta
LNG
##otics
##assi
contest
implying
evasion
arena
Deformation
epipolar
Surpr
sparsely
Symposium
interfere
TDMA
ecosystems
washcoat
lifestyle
unaffected
commonsense
HH
##Ti
##44
##55
##instein
##retion
##imaging
##ella
transports
notched
agnostic
physic
##ositioning
shortening
##omputing
DCNN
millisecond
ANP
deviate
laptop
mimicking
drainage
municipal
corroborate
LBS
PRM
Via
##eet
##SL
##oni
anterior
rein
chron
upt
dimensioning
##EED
EMC
SVDD
Flame
accepting
Dependent
Regional
duplication
proprioceptive
Springer
subcarrier
##usselt
cepstr
##cast
##har
##ulose
integers
Projects
busy
exposures
checker
SSV
CH4
Filters
inhabit
LTL
enlarged
Asympto
victims
Clinical
deconvolution
Helmholtz
Bran
Nets
NER
Pros
Sect
##kW
inversely
exert
##oshenko
disreg
healing
grand
depot
biaxial
skeletons
Multipl
GPR
170
tactics
Logistics
diluted
Volterra
surgeons
subpop
Gamma
DIC
MPS
Nusselt
Pair
WW
pdf
##facts
throw
##udder
shro
##angers
obtainable
caps
probing
initialize
tenure
extraord
Equilibrium
seemed
Mechanisms
blower
Samples
LSSVM
inexact
Intrusion
##olecular
Stabilization
rer
##TR
dispers
typology
blanks
probabil
explainable
routers
Undergraduate
##MPa
Signals
pruned
condensate
LVQ
Haar
alphabet
cathode
semitrailer
Aver
PCI
YOLO
lobe
sends
##2V
##opt
adherence
##aked
unle
unambigu
discovers
Consumption
potenti
subsurface
actuating
scholar
burs
relaxing
aversion
prosodic
##aphr
1978
Syst
##issance
Personalized
interloc
birds
Drop
EER
MSS
PDA
VD
VB
bomb
##telling
##OV
##Co
extinction
coat
overse
##ega
Final
semidefinite
potato
recognised
curvatures
DSRC
cumbers
revise
pyramidal
Turbocharg
Changing
squeeze
gripping
CIS
Pay
##nm
incipient
prech
coronary
Start
singleton
microorgan
##IDE
homot
deployable
excellence
pitfalls
attains
minds
chromatic
hosted
ventil
MASs
bootstrapping
embrittlement
districts
CRS
Oscill
cens
western
##lability
##27
##isu
stamped
levitation
speckle
curb
randomization
investor
AGV
contingent
Simplified
Hessian
DCA
LAN
Lasso
Yager
egg
##oard
##ensen
discarded
illness
triaxial
##torial
CNF
##ukasiewicz
assertions
architects
manganese
ETC
TCM
drowsiness
gaus
tiles
wolf
##reen
##uto
##jections
initiating
CAV
absol
essay
piping
SOS
ignor
inverters
##interpre
cardinal
subsid
Hospital
cumbersome
AO
µm
##endre
optimising
##egu
Annealing
alternatively
priming
spectrogram
lube
permission
interpolating
Excell
Angle
instantiation
cohorts
Propulsion
Erg
beacon
electroencephalography
consortium
Great
LLC
Pac
wra
##educ
imported
##cession
serviceability
segmentations
##ercury
brass
trustworthy
##weighted
FSW
GCN
Alternatively
Consistent
Cars
Phy
TWS
V6
gage
tear
##Lab
##FF
##ece
cones
##agg
fundus
Automata
homography
salience
Processor
communicated
unsatisf
Oxygen
hinges
telemetry
Ambient
LIDAR
inaccuracies
SLS
Tensile
bilevel
##arin
deficit
lowers
endoscopic
Read
resolves
boarding
shocks
discharges
biclust
Fields
GTL
ELECT
electrocardiogram
Invariant
Biodiesel
CEL
bene
fro
##passes
##RN
##HE
##inery
##etching
resisting
##roll
insulating
motoring
Reaction
##lieren
rectangle
bifurcations
fertilizer
interrelationships
Elements
DARPA
avenues
Reconfigurable
illegal
CDC
Dar
Rician
##VIS
##remal
printer
clamp
descending
##regulated
chaining
IoV
reformer
PVC
opponents
Chapter
scaffolding
restructuring
C3
FTC
GEN
PDC
P300
Rice
Runge
Tan
youth
##zym
##ATION
##tial
##actical
##ura
opacity
moulding
Exosk
downtime
twisting
deteriorated
MFCC
speedups
Words
behaved
Assistance
deception
aircrafts
yard
##LD
##anic
##isen
##idability
scram
relocation
untr
decor
overflow
Convers
runner
##regated
restored
chemil
repeating
mitigated
milest
abstracted
mismatched
Competitive
keypoint
occasionally
panoramic
Nigeria
aesthetics
CMA
FLA
IPS
Walk
aiding
bionic
hovering
sourcing
##sers
##activity
compressibility
commute
soyb
surplus
backhaul
belted
CAP
Implic
Trade
nanoscale
possessing
budgets
revolute
steerable
Polymer
tomato
interpolated
Instance
##hydrodynamic
soybean
4th
Count
Day
S2
jitter
##mium
##AD
##ads
recycle
nonverbal
Stan
collocation
blunt
##asticity
sway
Fuels
Activities
shoe
unsolved
attendance
triggers
Satisfaction
writers
eigens
##isupervised
B2
Dial
lob
##alg
##olis
##sians
compelling
minimising
turbof
embeds
collaborating
Operator
Bernstein
timetabling
abundance
artefacts
BLE
Lith
gust
l1
omitted
##orrow
ink
opt
subsumption
effectors
Manifold
SO2
##ospatial
Prepar
1800
drove
metallographic
Railroad
transductive
FLU
alterations
inflatable
enjoys
fluorescent
Likewise
disconnected
Products
quizzes
museum
EW
MLS
NIST
Yang
##lob
##itability
showcase
nonin
Adding
motorway
brazing
acquires
neighbours
Scaling
MPPT
differentiability
deteriorating
neglecting
Marine
Emerging
Tabu
Namely
niche
indefinite
spoofing
Hear
Haptic
RME
VMs
hints
sellers
trop
##uper
##v6
##BB
STL
concluding
##EGO
conformity
Balancing
oxidized
ribs
gaskets
Utilization
epistemological
monotonically
PASCAL
reordering
Cruise
Antenna
Kel
Well
##TT
##FNs
##onge
##roof
##urer
##embers
##jecting
emergencies
linguistically
##oresis
Curric
FCMs
Minimization
##beit
microrobots
concatenated
microfluid
chromatography
pillars
CRT
Lock
NET
Rear
medic
##ICA
##jk
alg
sevent
stepped
promin
reinforcements
misunder
molyb
RBM
Example
fatality
enlarge
Shell
digitization
hyperparameter
Dynamical
parsimonious
Stim
wiper
##ortical
##umen
##cha
##otyping
hydroforming
recipient
corroded
truncation
SMOTE
Adjust
captioning
Lou
##riding
desirability
abductive
relieve
hair
CAR
counterfactual
copies
PAM
Relation
jumps
elaboration
##rocessor
Planar
Saudi
Timoshenko
sidewall
Berlin
Women
borders
##uel
##VER
##idal
##mph
##achment
roadways
educate
Subjects
electromagn
pitching
penalized
threatening
CMU
morning
currency
slicing
escal
##aurus
underpinning
Indonesia
buoyancy
rhetorical
Mir
##fill
suits
##ceptual
hydrox
##iveting
mastery
Shear
illuminated
rectifier
Answer
luxury
Riccati
Cred
DST
Thin
seaw
##parable
delicate
retraining
purification
warp
justice
reusability
mismatches
radicals
Root
snapshot
uptake
URL
kerosene
stairs
basket
artistic
##ynaptic
elite
slides
relie
coupon
exposing
Einstein
tib
##zhou
##eliness
stair
##essel
##ferring
advising
instants
groundwater
counterexam
SPH
Regulation
silent
APP
210
Legendre
dollars
precursor
biodegradable
Nuclear
ECA
Fra
seller
##GO
##alks
##ocations
substructures
nonm
##sump
pathology
radically
Multivariate
autonomic
alloying
analogies
renewed
1979
45°
##beat
Upd
##speed
lexicographic
Ot
PW
##arting
##udinal
##berry
##angles
grating
Stroke
readable
plateau
humanoids
APU
intensified
##chestr
kilometers
supercritical
Graphics
Electromagnetic
unscented
plagiar
Equivalent
##avorable
CST
forgery
resembles
##charge
tempered
potable
causation
103
Multiagent
normality
mediation
remainder
centerline
135
SVC
negotiating
cm3
EAs
Companies
interdependencies
##apeseed
Keep
V1
Win
conorm
reass
studio
scra
timest
##entist
agrees
Adop
conditioner
respecting
Need
Subsequ
eigenf
reproduces
envelopes
utmost
Topological
Channels
Aluminium
privile
abbrevi
##toc
##code
##63
##heets
##odies
##atever
modifiers
manpower
assuring
repaired
eliciting
emit
superhe
purity
releasing
excluding
hyperplanes
compensates
inserting
attainment
manageable
##monary
Initiative
accredited
galvanized
saddle
Pulse
submarine
phoneme
ISI
Ride
l2
##list
##posing
emul
invisible
counters
correspondingly
progressed
constituting
Ethanol
Little
SSVEP
absolutely
Drag
Granular
Hashing
Ku
ZNN
hide
sender
shaking
club
unify
exped
amino
##PSP
substantiated
morphologies
Relax
interviewed
Manufacturers
revisions
backpressure
diminishing
twisted
symbiotic
Senior
Buck
PMS
Tail
sorts
veter
yar
##orient
##analysis
touc
##ampled
paragraph
preset
##hibit
assured
distracted
quartz
Alpha
offices
##onsin
Intake
Cooperation
admits
Miner
scanners
preparedness
##piration
exemplary
contrasting
loudness
prechamber
DCS
Nar
says
##NP
##siological
##terfly
paraphr
##ellations
flocking
##regn
Concurrent
refinery
Synt
airbags
CUDA
Answering
Configuration
bargaining
probabilistically
IDI
Northern
RSA
RCC
SHP
##ano
##ureau
pleth
dementia
dependences
circulating
restart
##neys
##isconsin
normed
broaden
differentiating
civilian
shops
GRU
DDoS
NLOS
Rankine
Histogram
VHDL
athlet
molybdenum
HST
Pas
Which
vanes
went
##together
##23
##antine
##eley
exergy
##irling
resemble
chunk
##hio
##anges
infrequ
Stre
damp
Charging
unitary
synchrony
STEP
homomorphic
CPF
institute
listeners
##sistors
contrastive
pelvic
Wearable
intergranular
Lew
NY
SLM
##UST
##hn
##umann
desorption
coaxial
lifted
##away
##isingly
##ractors
thermos
pumped
cleanliness
merges
4000
anchors
HAZ
province
Silicon
Fluent
hostile
320
Gray
WB
ero
knot
wound
##dri
##aid
##MET
##fuzzy
asks
##othes
interlayer
##ensed
drifts
heaters
Specification
Obtained
Perspective
configure
microcontrollers
agglomeration
nanofluids
homogenization
replenishment
Jo
Tactile
ban
dome
##pired
##ima
##oprop
traine
combus
distribu
humor
flank
biore
header
News
Bee
hotel
granted
disruptive
prefrontal
assertion
hydraulically
Raman
bayesian
sleepers
HW
LEV
QAM
bones
rugged
##ients
##Work
finder
wells
Stew
Alignment
Neut
closures
Variations
governor
alteration
Breast
nanocomposite
retrospective
chemiluminescence
Ce
FMC
Feasibility
LEA
hinders
ju
##aut
##onn
##etallic
##olith
diseng
##ponent
extrac
propagates
compensatory
orthosis
corporations
Characteristic
reciprocity
stemming
rivet
ICS
IFSs
Ken
Wisconsin
kurtosis
##hift
android
##olet
annealed
##earning
plated
learnable
Advis
Score
clearances
abstracts
Quick
deforming
macroc
PPC
##liner
TLBO
Diagnostic
disagg
Lithuan
SCS
Trip
yellow
resh
##izon
sugar
pretreatment
subgo
curiosity
uncalibrated
##CAD
Scan
SAM
115
messaging
Selected
accomplishment
snowm
Counter
reverberation
contiguous
##asis
isometric
##ander
##vich
##tigation
backing
changeable
Inductive
155
rovers
Secondary
warr
authenticity
subdivid
voxels
nanocomposites
preemptive
Renewable
turbofan
Bay
DFT
Het
Job
Rover
TPS
hover
##fish
##μm
theta
##ataly
conic
##iments
##opath
scored
Reser
CAT
##steer
convolutions
Greedy
beds
HSDI
ARTMAP
rebound
Accelerated
critique
Benefits
unobserved
Kingdom
eavesdropper
unleaded
CIM
Ell
Iron
LCC
lays
##LSTM
##bage
interiors
recovers
softmax
Asynchronous
capacitated
readability
##rotactile
watching
##organic
Contextual
fruitful
HIV
Reverse
Hisp
IRL
VW
##imp
withd
bees
reset
basal
incap
improver
##isco
definitely
##otton
Dela
forecasted
undertaking
Minimizing
phonetic
subcategor
subclasses
luminosity
diminish
VGT
Tuning
##acerb
fingertips
Biomedical
recharging
semigroups
Annual
Delivery
IO
RCM
V8
wax
thes
clip
unifies
unilateral
##ype
##rylic
Metall
Interactions
##LPP
rolls
fillers
Swiss
Crack
Railways
Gaze
spreadsheet
Ideal
Fabrication
Corresponding
Symbolic
Ak
Han
aw
pod
rust
##lag
exacerb
##riquet
plugging
genres
##ovis
endpoint
organising
Generic
payments
ATP
Topics
##hythms
revenues
Kinematics
sagittal
BY
FSS
Mu
NIR
fighting
##CT
##82
##isure
shred
##obi
solvability
Exec
##tensi
##ropies
associates
CoM
2500
##RSs
flatness
magnetorheological
cosm
screws
maglev
foresee
detergent
Apriori
FTS
HY
VVT
##town
##sk
##orob
##isdom
ascent
increments
authoring
packs
deliveries
immense
Phys
Industries
milking
stacks
citizen
telematics
Rotation
malfunctions
pushed
pupil
##DYMO
Cast
FPS
SSM
bins
##mates
##fire
##tib
##uses
##ader
##atile
multilabel
attracts
Proc
centrally
Imped
##scatter
implanted
STD
comprehensible
##loaded
intersecting
retrofitting
Brown
gaussian
ASI
Bat
##quist
metabol
##ogn
alliance
credible
caliper
schematic
lifes
##lia
Activ
attitudinal
expectancy
Living
believes
federated
Meeting
blurring
Crew
nodules
recreational
convincing
550
MSA
Ohio
listing
##iffer
##orec
##velopment
##aka
##luent
conceptions
needing
Proof
interpreter
replanning
##ooler
armour
photographic
##INK
##MPs
communicates
tensions
wooden
superpixels
Linked
consultation
Regularized
iCub
3d
PDP
URM
trol
##actively
staged
##forms
prescrip
##ardo
pointer
mechanistic
Comple
mixes
interactivity
Unknown
mediating
downsized
modernization
asymptotical
richness
FAST
incurs
neuromuscular
ADS
ESM
House
Pneumatic
tro
##FCM
##oupled
maze
##henomen
universes
microchannel
##embrane
CONT
poster
Appropriate
##boards
crowding
arrived
decomposable
debates
Seismic
violate
replica
advocate
irreversible
jaw
##glass
##hum
##state
##tsu
##utionary
freeways
adaptivity
analyzers
converged
psycho
SMD
Greece
blackboard
Laboratories
storytelling
Entrepreneur
seizures
telepresence
BOK
##arbonate
Branch
Stewart
ISM
Matter
Pip
SDA
bay
hind
riveting
##WG
##bench
##ials
aboard
Concent
##airy
sprayed
audi
Evaluations
LPP
interacted
bulb
fatty
MMT
Balance
TRIZ
deblurring
Cli
DMA
Mary
MCA
dosing
rhythms
ts
x20
zeros
##ulin
chi
individualized
Learn
##oxid
suspected
everyone
screens
carbody
rocks
Examination
furniture
718
thermoplastics
supercharged
subcarriers
Deterministic
Directed
PLM
nice
rats
vans
##EX
##bank
##heast
##icits
##amide
transversal
discounted
identifiable
conventions
MADYMO
kernelized
Sugg
Coal
STDP
stiffnesses
manifested
dissoci
ATD
pictorial
compromises
alcohols
brands
nanoparticle
subjectively
judgements
hippocampus
650
ASA
Diver
ORL
SNNs
hitting
thal
anode
##oct
##oub
unary
Aspects
safegu
freeze
Clark
synchronizing
disturbing
##ERS
listener
ATF
evaporating
fulfillment
irreduc
Precise
cyclist
Fiat
loosening
Terrain
AOD
Directional
EQ
Luc
PFC
SSP
citations
ves
##gences
albeit
##aped
decryption
defend
projector
carriage
postulated
polym
cutoff
discriminatory
NAO
wrench
##holm
bodied
MTBE
rocker
GRASP
coronavirus
kidney
Implicit
##sumptions
BNs
Bidirectional
BRB
QU
TAC
UHP
tapp
##erobic
##ican
asynchron
moduli
impregn
elections
quest
##istan
button
protr
calling
Multidimensional
existent
slipper
##attribute
seasons
advisors
dictated
Periodic
Arr
Cultural
Cancer
IK
bell
tonal
##Ni
##FR
##achers
##erson
##dier
##enched
##aks
distributor
numeral
portra
11p
compacted
counteract
myoelectric
V2I
##imentary
Oxidation
Circular
intentionally
epidemi
Acceleration
coexist
constructivism
County
thermocouple
ETS
FDA
##pring
##NL
##atz
##arrier
##ainment
adjectives
unan
##thread
constancy
polyn
maximise
Result
radios
concentrating
SPA
FSs
fuzzified
amplified
Autoenc
Electroence
talent
temporarily
crawler
Threshold
controversial
##Works
Growing
ULS
##rack
##mid
##arming
##urpose
##agers
orchestr
airship
valley
Statics
haze
travels
fluidic
inspire
Interfaces
extremes
SPI
NASS
dissipativity
fermentation
incorrectly
Bounded
rebu
##tensitic
Impedance
CCM
Flo
Rotor
##tag
##oic
##anual
desires
leisure
##ailand
decoded
overly
researching
nonlinearly
clusterings
transistors
factored
##ranial
STM
compartments
MANETs
Subsystem
Georgia
pronouns
Anomaly
Fle
Food
IH
TEC
ba
##VQ
##33
##omics
##aby
alum
modulating
deleted
diesels
consulting
feeds
Contour
SOA
clinically
Concerning
intensification
SDR
abnormality
sophistication
##appa
Martin
neighbouring
bogies
synapse
##ernike
Huang
Authors
aquatic
dysf
ENGINE
cochannel
QoE
##scription
ECC
Haw
Treatment
font
mud
##mas
##inance
##elior
disent
enzym
Thai
wasted
unregulated
##eworthy
eliti
defence
cyt
Prote
glasses
keyboard
Deployment
##regate
gearing
30°
quicker
invested
MOPSO
ellipses
Basically
multilayered
unfolding
unfavorable
##netics
Limit
habitats
Normalized
blogs
roundabout
Absolute
reclaim
Willi
Bud
LIS
LKF
Wu
lac
##gn
inorganic
distil
dispro
##angible
infers
origami
108
##iodic
multiplicity
AFM
Choice
Lattice
Coordinated
Importance
ULEV
idempotent
AUTOSAR
bursting
BAS
CMC
Esc
TAM
WOA
bull
##wind
inven
##osced
unfortunately
##itious
hydrop
wavegu
covariates
strive
conformance
crystals
deficient
HFL
Collaboration
semigroup
silencer
extraordinary
Ben
Bureau
Zone
ionic
pits
##uably
##kins
##hell
##icking
##ogging
effected
##plate
Multiobjective
detectable
portray
audiences
orthographic
District
conversions
reconsider
nitrate
truthful
ARMA
warehouses
instantiated
honest
dashboard
sickness
Beta
Ring
ure
##SLAM
##QM
shake
plenty
multivalued
##ypes
remember
magnification
##ogenetic
brains
enabler
Explan
NMT
exemplify
workpieces
trimmed
permeation
windings
Traveling
Questionna
Panel
dislocation
Ah
Titanium
##aR
##rames
nonsing
typed
Resistance
##ISE
##geries
entropies
lengthy
1400
neuroimaging
MIMD
Longitudinal
lags
sponsors
Converter
diminished
Magnet
Separation
chunks
Ariz
ICC
NCAP
aft
briquet
dors
dairy
hap
vac
##kg
##irings
Thailand
invoked
England
Obvious
underm
##flower
APs
Measured
##biological
Displ
Display
accommodating
Semantics
offspring
suddenly
KPCA
Historically
scooter
trigonometric
plethora
Causal
Kir
Sle
Zernike
bist
ml
##51
##asp
##uri
forg
##ograp
categorizing
facilitation
Hypers
##ertiary
devising
RBFN
Associative
shrinking
shutdown
YouT
inductor
corrugation
Whether
autopilot
hydraulics
Spiking
Province
Os
Sob
Zig
##ontic
##ectious
excessively
##aya
underhood
drifting
someone
amend
Rehabilitation
electrohydraulic
Persian
thermomechanical
Compressed
##osities
##roscopes
Command
antib
piloted
originate
Considerations
exhibition
inherits
surrogates
exemplars
prerequisites
parametrized
Foot
silhouettes
paraffin
Obstacle
ignorance
Blo
Length
MDA
MCI
N2O
iP
##rin
##block
##BN
##arder
##eleb
beats
##ativ
underw
1950
restrain
Enabling
accidental
Instit
denial
Minor
credits
Consideration
curvilinear
1976
OpenMP
amplifiers
Eddy
circumstance
##echnic
tomorrow
pulsation
Voice
FERET
astronauts
SPARQL
Hypothe
plagiarism
RST
##±0
##oric
intim
acted
##oge
valuations
flown
reasoner
rigs
kinematically
CPUs
compressing
Predictions
argumentative
tutor
hypercubes
advisor
browser
fifty
Crown
Conflict
microorganisms
Bip
DU
rapeseed
si
##49
reti
##agin
exclude
resistances
Plane
Operators
decouple
bonds
replicating
Maxwell
sheds
Chaotic
Derivative
hemispherical
Partnership
Heart
Fly
Kang
Round
Synchronous
XOR
fade
##no
##cm
##PH
##KT
supre
incub
overhaul
swap
afterwards
Gaussians
violating
reservoirs
Thermo
Areas
1970s
Direction
unrestricted
##moving
quadcopter
Lewis
Jensen
Lay
Rock
SFC
UF
mother
##bour
##zations
##ustin
##anda
inco
maize
amelior
Finnish
hybridized
alternately
runoff
CACC
quadrotors
Computed
instructed
thruster
##hook
blowing
configuring
interleaving
congruence
thermocouples
Surprisingly
homotopy
Arizona
Bic
GEP
HSS
Mink
MUL
PAN
Packet
TPA
##util
##46
##inetic
valvetrain
trainer
##structural
1600
175
divergences
isolating
ferrous
revolutionary
Locally
hindered
harshness
Rigid
##Chrysler
Compensation
YouTube
AMC
Lunar
averse
dirt
ramps
##uer
##elets
cond
##emann
##ilance
##abi
spending
impurities
appliance
noting
distributes
whatever
##awa
Studying
264
fragmented
campuses
gyro
fostering
lexicons
unfores
Fif
JSC
jur
lasers
##feld
##83
##ilers
##rav
splic
obey
rectification
extremal
deficits
##iterbi
slant
evolutions
manufacturability
knuck
Agreement
Ames
Moore
Equal
Poinc
Ult
garment
precipit
deliberate
Guidance
BBO
Cad
Hesit
bang
##Ray
##In
##KL
##onant
##oli
anem
##unay
coher
##rams
MAN
coolants
turnout
neurophysiological
Blue
1977
alleviates
DLR
AAAI
##ethered
H2O
appreciable
shields
epochs
ASS
Mack
##pin
##PD
##ortion
##ilic
##agons
Thinking
scuffing
accent
quies
sampler
##rentropy
Atten
##naissance
SPE
Scholars
crankshafts
monolingual
HRV
GRNN
unused
Horizon
nationwide
superficial
arrhythmia
plunger
laparoscopic
Subsequent
Haz
Tucker
nas
##ls
##hp
##han
##500
##omput
##aboost
##ogue
##atibility
##illa
##pectives
completes
relev
intelligibility
Atmosp
Dijk
sixth
1100
redundancies
publish
PAPR
animated
animations
##DDs
NVO
Members
cornerstone
landscapes
Behavioral
phonological
Opportunities
DaimlerChrysler
Orbiter
shroud
ARC
ALC
CSC
Dav
GK
LCS
PQ
Sensitive
Wing
WIT
caches
hat
##sors
##chen
##olving
##term
##adow
##opsis
##echoic
accretion
phishing
Proposal
monop
esters
107
attributable
##orphous
exponents
Objectives
##cribing
interfaced
Valued
SIMUL
Locality
bimodal
uncovered
Agriculture
metamodel
reckoning
Perm
blu
cater
sourced
##matic
##belt
proactively
##ucking
contracting
admitted
##antry
discursive
crus
upright
butane
Simulating
triples
Impacts
differentials
##INT
irony
accommodates
ridership
DLs
born
Switched
necessitate
irreducible
CMS
Cyclic
PIC
PUs
frog
pra
taste
##lance
##run
##UB
##LDA
##rov
##umbers
adder
##violet
abuse
openness
Controllers
Perceptual
thinner
implicative
Combin
##wares
afforded
270
happening
##irteen
copyright
bugs
weapons
antagonistic
Mandarin
inhabitants
Card
Fa
HJ
NUR
Otsu
WF
dub
dream
mp
ran
##Mn
diffu
evaluative
finishes
planting
Deform
coordinator
sixteen
MPP
annotate
Delays
seeding
bodily
reformulate
crews
Handw
##ught
drilled
advocated
Guidelines
Removal
microfluidic
MQL
nin
##pots
##dam
##ishi
##perity
hygi
##onomical
commonality
##itherto
Coating
recognise
photograph
##ACK
taxonomies
divisions
Radon
Siamese
Elman
MBD
declared
Observations
##kyo
Hydrocar
AHSS
regressor
ticket
RKHS
Delaunay
DTC
Hur
LSI
LLE
MFD
Pin
Ty
derm
ore
wisdom
##UP
##orized
##alized
##odality
compass
spoke
Inequ
intercept
outp
realizable
leveling
Anthrop
lived
Aspect
##ocks
sweet
crossed
spectrometry
latencies
MAVs
##nea
aeroelastic
weakest
enablers
CPM
Lee
MIC
auditors
accepts
Calculations
orifices
hedonic
Coverage
##ovisual
Hesitant
bounce
cotton
##istical
conforming
recuper
expedi
##ergic
##mmetry
clearer
Afterward
occupation
relaxations
Generalization
Logical
Greater
Capac
Otherwise
Switzer
crystalline
doped
kinesthetic
prestressed
Obviously
Cut
Hub
PTS
Viterbi
joys
##tw
##around
##bands
##aline
inline
inland
##verty
shots
##rich
discard
approximator
vibrotactile
lossy
##ischer
Coast
Moon
footstep
reserves
230
bullet
storey
sharpness
FlexRay
##iltration
Polyt
Approximately
treadmill
UCF
uncontrollable
agglomerative
Lorenz
Switzerland
BRT
mall
northern
##URE
##front
##ceived
##adder
mover
##ricks
poverty
semisupervised
log2
glance
applicants
Interior
perceiving
##processor
THEN
martensitic
recipients
miniatur
disjunction
prevail
dipole
principally
Asymptotic
4WD
Fem
LH
Lot
Rid
Turning
cau
wel
##47
forums
clothes
arisen
flam
echel
##printing
Poll
surrounded
PIE
Flat
olfactory
bids
##erkeley
encapsulated
corruption
TODIM
alumni
##bach
##65
##olly
reent
washing
##ferred
humanities
##ometrical
##ostat
Dead
##inspired
webp
overlaps
Subjective
DPFs
rectangles
vastly
retrofitted
Authority
##assium
Curriculum
Brid
Hin
Nickel
RED
folds
##nis
weed
plen
infill
implementable
whit
##fficiencies
court
literals
shortly
Networking
SAS
authorship
Sometimes
mm2
Corpus
adversaries
compounded
LPV
embry
AUT
IVC
Perspectives
ALO
symptom
mammograms
hotspot
unintended
recombination
futures
Entity
Chicago
beneath
Otto
APS
FV
MER
VL
VSC
ns
wanted
##aturized
diodes
canister
##arden
##nessee
butterfly
foundry
slider
pulmonary
compactly
6061
Corp
Island
hops
slotted
Grass
##thalpy
untreated
obligations
Disturbance
Argumentation
zirconia
TWSVM
KD
Nature
Points
panc
##42
investing
##aran
##arter
ons
##ticity
##izoph
neoc
##sole
quench
qualify
transferability
Analytics
Intensity
originality
fixations
workspaces
normals
stationarity
Plas
Efforts
DCOP
neutron
friendliness
revitalization
BCIs
##losures
skewness
ethnic
concatenation
bibliometric
ridesharing
Banach
##izophren
DSA
FAC
Sab
Shen
TSS
boring
stag
rework
##rian
modifier
spool
uninter
robin
solub
outlining
##istemic
finitely
Tokyo
thereafter
utilise
precoder
vectoring
primer
##LAP
tourists
unfair
explosions
adsorb
Orientation
LDV
astronaut
biomarkers
lifespan
GU
Mask
OLS
RET
##ULA
##GH
##rey
provable
##odel
##unate
noteworthy
cured
delete
validations
insulator
Rev
##reditation
postprocessing
headways
laborious
Variance
DPC
regenerated
authenticated
THIS
ARQ
dilated
Teachers
adsorber
tweet
McC
fibrous
Tennessee
odds
Durability
SMP
Vic
Vick
##utives
##NMF
##CR
##worm
pertain
##romechanical
fuelling
geotechnical
teaming
stip
Univers
Place
ROM
FAME
accommodated
inventories
Ultrasonic
Profile
nighttime
unavailability
expressivity
scaffold
epistemology
appreciate
Aeronautics
cognitively
caregivers
Aero
EET
FSA
GEM
SDM
SRL
peg
##cents
contag
##aluable
outboard
demodulation
curving
humid
invaluable
pressed
seminal
dof
laying
radioactive
subsequence
behalf
CFO
Collective
contractor
##TIONS
Attack
Healthcare
Turbo
digitally
Relevant
imperfection
Brownian
Emotional
inconvenience
tournament
Fog
IRS
PSM
pear
##ius
##vine
##emens
Weber
multiattribute
directives
Comments
minimisation
Finland
##itization
facet
##ediatric
1016
gameplay
urbanization
resident
audible
psychophysical
flowshop
fulfills
Expansion
Observation
hydrodynamics
Balanced
sediment
Audio
dilemmas
Asymmetric
nanotube
Grasping
PageRank
unforeseen
SIMULINK
NURBS
AAM
BME
MSM
Mechat
VNS
southern
tertiary
##western
rejecting
##vert
appoint
Inform
##plets
obe
##entine
multithread
##ferencing
attaching
infectious
##tees
encl
resistor
stiffeners
everywhere
rotorcraft
##rypt
embank
bicyclists
Outcomes
politics
gearboxes
##spe
Stanford
Perman
Ya
iod
raster
##rell
##reasing
acrylic
multipoint
evaluators
gravimetric
flower
##avity
Shot
##SIA
multiplied
burnt
allocates
1974
RSU
blindness
TPM
practiced
Restricted
tentative
AST
Cram
Gh
Lem
PCC
VLC
oste
##TF
##O3
forty
stride
##encil
subal
tasked
lime
backscatter
markov
econometric
loses
reviewers
accelerators
magnetically
CARB
ample
Improve
predator
coalitional
SNS
1973
polarized
incurring
PEMFC
ladder
Publis
vertebra
avatar
milliseconds
scholarly
SHPB
Bloom
Awareness
ASIC
FID
FAM
Nd
honey
tapping
var
##del
##sei
fee
genomic
amorphous
dependable
proton
preca
turbomach
Recirculation
##EAT
weaken
dissatisf
conjunctions
flatten
marginally
CHA
tabulated
outdated
substituting
sunflower
depicting
Likelihood
Dijkstra
DCM
FSI
KU
MON
ps
piles
wi
##paper
##Log
metast
shunt
subchannel
abatement
typing
lifts
naming
synchronously
Expand
tutorials
pleasant
Climate
ocular
uncoated
Salesman
CELSS
Minkowski
NMPC
Tank
UGV
eras
##grity
##600
##41
##iden
##yne
directive
approximators
##prung
rigidly
authorized
##osphere
##ogenesis
extravehicular
retinopathy
Values
intercity
Colorado
Relationships
patrolling
liquefied
Acceptance
quiescent
CEE
Gö
HRP
MQ
Zeal
##position
##ION
##esh
oncoming
dataflow
timeliness
quant
semic
lognormal
endogenous
##ystems
meantime
periodical
##ogeneities
misuse
Accreditation
Imper
Powered
Considerable
spanned
prioritizing
subsidi
resistivity
Tolerant
Patients
Axi
DEC
Graduate
IMC
Medicine
OO
Tube
Virt
bron
jig
nuts
tearing
##bps
##86
##itch
reed
spalling
intension
Thirty
understandings
backed
clearing
referent
arrives
receptor
prognostics
Landing
episode
titled
sexual
FLSs
ASCE
PFS
sorb
##chers
##hall
##Fe
anechoic
##rile
transputer
posing
Consor
addressee
manufactures
benefited
Reactive
leaning
fabricating
Biometric
##ordered
Isra
unsuccess
Siemens
perceptually
Earlier
padding
Express
sinks
PROMET
uninorm
ingredient
unmeasured
Against
Keeping
abbreviated
Hispanic
Zealand
CCS
FCS
Had
Hart
Ment
UG
Used
tess
##lift
##vents
towing
##acces
##otainment
restitution
Inject
envy
utilises
anything
fourteen
skins
simplifications
STR
##ographies
favored
formerly
ultraf
medication
nondestructive
GFRP
dialec
bushings
officers
PZT
##midt
Cox
ESO
FRI
Gender
Hen
Piec
Pragm
Sorting
TTC
VMS
YAG
sonic
tones
##groups
##cut
compile
##hick
##umenting
##oped
multiply
workplaces
cursive
swirling
regressions
aeration
resonators
isolators
alleviated
collapsed
##ammers
Instruments
Confidence
depicts
puzzles
seminars
beacons
Quantization
anaerobic
reperto
distributivity
5°
CCI
Fried
S3
Trib
Wright
ln
##lak
##riage
weaving
coaches
scul
deter
multirobot
##icities
subord
##tilock
viewer
refines
cellulose
counsel
platoons
excite
streamline
60°
ATV
clarification
Frequent
PTFE
trimming
inflection
forensics
Apache
Dimensionality
Triggered
##oubted
AIM
Gar
Gulf
MID
Rew
hep
ℓ2
##oing
##Bee
sewer
localised
flour
pathologies
edu
CAC
##MAN
downtown
occupy
brute
voter
MLE
permanently
therapies
MAPE
commentary
##dehydes
complaint
downloaded
##NIRS
Representations
Addressing
sloshing
Call
IMM
Lamin
Mas
NSC
Sense
SHA
##rpm
##CNT
##Map
##etus
deaf
receding
underlie
Comfort
invented
focussed
Indirect
SIN
liters
tendons
reconnaissance
crewm
Portugal
gyroscopic
Notably
commented
advertisement
Methanol
unambiguous
frozen
IMS
PGM
##group
##core
##inge
##arted
##abl
##quad
interrupted
calend
retarder
contactless
beamform
##RAS
multicarrier
Naval
Elast
Portable
shadowed
doubling
aliasing
ellipsoidal
municipalities
##knock
##hattan
Consortium
Kriging
Lp
Mend
SFS
##ienced
##TD
##hill
enthalpy
incom
seism
underlay
Forces
Ash
specifics
carsharing
mills
##weighting
clarifying
Randomized
surviv
micromach
Locomotion
Likert
MHD
Directive
Knock
Morphological
Tomography
Muscle
ascending
religious
Exoskeleton
CRP
DNS
REM
cake
fps
gone
rms
##Flow
##titious
##ffee
##otone
timeline
locates
blink
Parad
synthetically
Attitude
##LAS
immobil
ACE
unsprung
Examining
AA60
Representing
mentions
Angeles
sweeping
resemblance
##bestos
envisaged
diffusivity
EOG
Ship
aber
cen
kits
umb
##racy
##ikin
##bots
##onian
aldehydes
##plants
repar
##entifically
##tiner
factual
collinear
tempering
potassium
20th
booming
##ranking
stiffening
Universities
1007
streamlined
GARCH
PhD
originates
densification
prosody
imagination
##rigid
molecule
hypersp
Belt
MOSFET
ULSD
nonsingular
Berkeley
LRT
Mun
UB
worthy
x0
##how
##kers
##fusc
##arth
##asy
diet
Thor
##ariff
indisc
##ongru
elap
Shock
##balt
weakened
balloon
culturally
RSUs
Hamacher
##aughter
picked
refrigerator
criticism
SHM
Ordered
Torsion
Instruction
Possib
certificates
nutrients
carcin
Louis
privileged
ATS
BU
Danish
FK
Fading
IJ
Jud
Mental
RN
fNIRS
monom
##52
cobalt
betweenness
##suing
refractive
Neumann
Cook
coverings
arguably
combinational
imminent
Overl
##TIC
tightness
enforces
Pyramid
FOA
Skin
menu
Conversion
lenses
spontaneously
x0025
##baum
vowel
amputees
Francisco
Definition
Pacific
Questionnaire
knuckle
unsuccessful
850
Jones
Rating
VDI
vin
vacc
wagons
##gage
##cox
##stanti
##ilon
confront
gasification
Metropolitan
earthmoving
ultraviolet
GMDH
Hammer
naval
Segment
sacrifice
deliberately
submodels
vorticity
polycarbonate
polytope
RISC
Representative
metacognitive
DRI
Membrane
Ocean
SEP
Uniqu
Vers
herm
lends
##odynam
##endum
calculi
MAB
questionable
hereafter
bursts
drink
renov
tableau
Searching
Ti6
suffix
embodies
archae
Spatio
bundles
titles
MISO
hotspots
anaphora
bleed
Music
NARX
subroutine
Telecommun
prominence
trolley
Maryland
BW
EHC
FCC
NU
Tu
arose
lasso
##pic
inacces
##icating
##urrence
##ulse
##ols
stric
motives
defender
##asser
Contin
##itsub
earned
toroidal
heuristically
Obtaining
poorer
tailed
Flash
carbides
unlabelled
WSD
inflated
enjoyed
Compliant
competitor
PDEs
restaurant
incapable
HG
Opp
Paw
TX
TN
cf
dye
##acent
##urgical
##ulant
Invest
recorder
##ricated
##ducting
extant
refract
propulsive
Controls
##inguistics
##roscale
stabilizes
horn
voices
ethyl
conditionally
##IRE
accomplishments
inherited
petrochemical
contractors
preceded
HTML
airfoils
mufflers
Leadership
harmonization
magic
adolescents
Street
Permanent
##itsubishi
Cro
Cities
DEV
HFC
IW
IDF
SET
hitherto
sanc
##PRs
##77
##weg
##VO
##opus
placements
outward
overheating
productions
humanitarian
deleting
negations
Spherical
CASIA
Manhattan
##screen
Across
Trap
substation
scientifically
Detector
weldability
judges
MOOC
femtoc
FCN
repetitions
multisensor
nulln
Parking
stayed
forthcoming
irradiance
Bagging
History
Wilcox
vigilance
decentralised
contradictions
photogrammetry
disclose
emulsified
Sent
molds
pon
##CP
##eland
deha
contempl
basins
unpro
multiaxial
##unciation
gloss
torus
grease
radiative
SAP
laterally
schizophren
visco
##orthogonal
Relief
auditor
Presence
strikes
miniaturized
Arabia
viral
advocates
Multimedia
Situation
ligament
thyroid
cepstral
CID
Imb
LW
PRE
sail
iner
##ucoma
desulf
##rosp
Proxim
etching
aggrav
coolers
Developments
Perturb
alloyed
50th
taxation
Whilst
insightful
dilute
DAS
##floor
aspiration
Margin
embrace
physicochemical
seawater
A∗
FSP
TAS
lt
nugg
rival
sor
##sen
##2C
##opard
sump
accr
arches
notor
conductors
##onscious
##SSO
Authentic
externalities
##ERT
Soil
ambitious
nanos
attenuated
CBM
rewarding
instantaneously
POIs
clarifies
Experimentally
Federation
##GPP
Instant
garbage
hypergraphs
PAHs
RSSI
Norway
indeterminate
Receiver
Ast
Cov
MRS
Old
PEV
Uk
fove
gages
je
##rill
##eno
inactive
islands
##osyn
##ppet
shaker
pave
multil
pregn
regulates
nondom
emulator
observes
turboprop
Spot
phenolic
##eedback
Institution
Caltech
securely
Radiation
Geographic
disparities
anticipatory
Priority
destabil
cadavers
##NOx
pounds
Plasma
stricter
260
LST
UR
##cal
##fins
##4V
##omas
exiting
energ
coaching
datum
subreg
subband
##ludes
educated
travellers
SAC
transitioning
tailoring
subsequences
singularly
circumscription
Grade
##heuristic
Valley
enriching
elaborates
justifications
hexa
Consumer
egocentric
##adiene
Gesture
assimilation
zoom
dosage
stitching
cosmetic
##octane
hygiene
##oubtedly
Cd
CSM
HID
PEA
Shi
##bly
consumptions
modus
imaged
##iller
technologically
defocus
colliding
connective
histopath
joins
CarSim
Insights
215
compounding
cm2
commanded
binar
revising
Loading
Profess
Regularization
Ricardo
Actuators
reclamation
Actually
Fingerprint
Intersection
Imbal
Cab
CFC
Dry
Pra
##HEE
##onormal
theft
##identif
atlas
recirc
disclosed
surpasses
phyl
sensations
##ediation
harden
motorists
digraph
wheelsets
##ecker
Looking
declining
Progressive
encapsulation
Fundamentals
316L
Wilcoxon
G2
List
Pont
Sque
Tour
Łukasiewicz
##vec
##rition
##riad
bypro
pari
Weather
correntropy
infotainment
blob
utilitarian
anyone
convention
Adaboost
ideation
packaged
graduating
extremities
tolerable
daytime
judder
conditionals
grants
IPC
CSMA
rounding
Discharge
biofil
Sheet
Audit
inspecting
##pointing
noninvasive
Complement
relevancy
False
Fischer
IDE
Kap
Pure
itiner
##emost
##atized
##angled
selector
directing
handic
##ockets
102
Reposit
##axis
policymakers
##person
accumulating
##cribe
ferritic
practitioner
Harris
##flight
Saturn
Rotary
Magnesium
Argon
bimanual
endeavors
multinational
persuasive
Population
Nitrogen
destroyed
echelon
##wegian
BSC
Batch
Diction
LSM
Mitsubishi
Turn
hus
mobil
oval
tion
uph
##neg
##06
reside
contractions
engages
sew
trad
unres
decidability
verifiable
soak
logistical
topologically
##ova
Resil
retraction
aftermarket
educating
mediator
substations
exposes
fiberglass
denied
7075
corporation
Increase
impossibility
unreason
Doug
LQG
pioneering
village
obsol
predecessor
solubility
Damping
Nine
Pipe
Raph
mam
##hu
##aq
resides
##ighth
clone
##unct
##ountain
##ysm
Descent
COCO
Optimizer
definable
PMs
burr
annotators
DMF
Teams
Architectural
preconditions
##IGN
interruptions
iconic
universality
bottle
pioneer
Algebraic
cautious
EST
Ky
MRT
Ve
af
edition
##tail
##87
thigh
forb
stamp
##agu
indiffer
demo
mechanic
Conj
##ropha
internationally
##axle
executives
ECOC
Colomb
inferencing
##domain
Maintaining
multisensory
Compliance
traversed
Leader
licensing
Crowds
unauth
cadmium
##optric
AODV
Mendel
340
Gro
IDA
MED
Sports
TSC
Wood
##PCA
##dles
##hoff
##GL
cann
wheeler
novices
repositioning
##ressor
threefold
numerals
Enabled
electropl
constructional
homolog
paste
##trans
##ilipp
impercep
Original
Editor
Property
winners
nurse
worthwhile
multigrade
VEH
artists
Cascade
LDPC
joystick
PROMETHEE
Pawlak
Necessary
WI
germ
lets
tariff
west
##fe
stating
exother
##raine
shimm
adhere
##nius
showc
redefined
quenched
posses
patterned
##EMD
rotates
hydrog
headform
determinism
favors
INT
sunlight
mistake
ethnographic
surely
reversing
ejector
biopsy
1960s
abandoned
Establishing
tropical
obsolete
Brief
CY
CBS
Defined
Fam
Gric
SEE
dere
##66
##3C
##orf
##athic
##atropha
prohibit
##tering
##iders
canopy
newest
evaluator
empow
endpoints
Chamber
hyperelastic
seatbelt
fills
clinic
dropouts
NPD
Discourse
MOD
SSIM
##rification
##GBT
boosts
Presently
MaxSAT
attachments
Procedures
##esthesia
Velocimetry
Norwegian
deceptive
Rubber
sieve
Ellip
juris
Raphson
Ao
Dice
FDD
Hex
dow
lam
v2
##lon
##yi
##yrene
##omy
modulations
incongru
sees
notification
##portion
retarding
waypoints
##mmetrical
misses
1300
governs
##101
discharged
exercised
Characterizing
scavenged
Penet
ZnO
nodule
CRASH
mosaic
HDPE
urgency
Kelvin
DLC
MLC
QS
cows
pi
##Re
##37
##ortic
##aceted
##olinguistic
reply
##tivist
wholes
Dealing
radiologists
aggres
synchronizer
burdens
NACA
pseudor
1972
V2G
disseminate
Earthqu
galvanic
emails
HUD
dyadic
Pitts
Illustrative
6000
Lines
eL
yes
##enth
Intensive
fung
succession
multipar
experimenting
handed
reth
timescale
calibrations
##symmetric
authorization
carburized
##folio
280
NMR
Verlag
PLIF
anchoring
BIW
VSL
linings
prohibitively
punctual
unmatched
advertisements
indeterminacy
thesaurus
audiovisual
tappet
CCC
DMS
JT
Ko
fur
##domen
##atos
##sities
##usted
##actors
rectified
outflow
yearly
organised
interneur
unknowns
homomorphism
intrigu
activating
rollovers
diversif
##RMs
Canonical
suppresses
Caputo
therapist
bolster
LRR
EDR
TRIP
precursors
Summary
dismant
AFC
CTS
EIS
HRC
ISP
Nag
Ol
Rome
Slo
Templ
gt
hailing
titan
##test
##world
##tid
##arching
##itron
##acryl
coffee
##plication
##iest
nonrigid
##licensed
director
radiant
FPA
grab
coalescence
HSLA
duties
melan
Theoretically
AGVs
Setting
HTN
##inois
outsourced
illuminate
Cybernetics
Fortran
Scenario
indistinguishable
Embod
snowmobile
repertoire
mammal
CFS
JS
MDL
Numbers
PMA
WNN
mn
##IQ
##ela
##usses
modulo
manikin
ourselves
corresponded
Close
pulleys
ECLS
professions
firef
225
IVHS
committees
Identi
##graphs
Quantifying
decompression
AWGN
Harmonic
Running
3GPP
eX
##T2
##kind
##HN
stays
rebal
##ifting
##ellum
assures
overarching
eman
expan
Status
Conser
##standard
208
normalizing
attacking
Interp
homing
##ivable
Prevention
leaner
DoE
ADRC
chrome
conforms
ammonium
succeeds
Corporate
nutritional
colonies
Grammar
europ
subnetworks
FLUENT
infrequent
Possibilistic
Kit
Lind
OCC
PRAM
REA
Vapor
WD
fight
##arians
regressive
helium
Arrays
armature
##DPCA
discoveries
##MMs
antiknock
Polar
##accard
restraining
Organizations
multipurpose
Window
Limitations
BERT
micromanipulation
beads
loudspe
##adioptric
Missing
SPSS
dollar
internships
512
FIF
Flick
Kle
TIG
WIP
cu
fetal
mit
##heat
##attern
##itures
##emark
altogether
##romagnetic
opto
##ypical
insulators
affer
##iano
Analyzer
travelled
covert
photoc
brack
##SION
grace
Whole
CRs
Prototyping
entrepreneurs
Cells
Connectivity
HEVC
CEO
VAE
Coordinating
ancest
Illinois
photosynthe
congruent
breakthroughs
##stanbul
##ongevity
inaccessible
Repository
Lam
Lite
MY
Mie
ni
wrought
##lite
##ivic
##casting
##wave
##oro
complying
parks
intangible
objection
evader
arrange
##eps
representable
leaded
Experts
##ankel
propylene
Opinion
teammates
##asters
##idders
Regenerative
ICs
##TIVE
impede
Schmidt
##ITY
AVC
Datalog
Warning
interlocking
dialect
Negoti
athletes
##dierite
Ti6Al
Brit
DAC
Fan
HER
IGA
IAS
Lé
Nb
VAR
bachelor
##oG
##ORA
##door
##BT
##otrans
obfusc
intertw
fees
optimizers
transcripts
##ularies
##ripper
Adhe
sheath
MARS
thermography
aligns
Maz
AMES
Collection
distinguishable
DFA
cliques
Supplier
billions
Surveillance
Alternating
hulls
multifaceted
reductant
interrelationship
appreciated
faithful
faithfully
DQN
Historical
reorganization
enthusiasm
undecidable
ganglia
4G
Az
A1
ALE
LAR
Merg
gantry
hiring
sni
sufficiency
diffusive
##ubic
##itized
uncomm
viewers
correlative
catching
COTS
satisficing
latch
guideway
GPa
ATIS
Sky
encountering
deliberative
paintings
isooctane
expenditures
polyhedra
Columbus
calendar
Bott
bricks
##oft
##cell
##aaS
##za
##urgery
##igration
spac
interrupt
recrystall
meat
discarding
Proving
Alg
schedulers
Networked
dynamometers
Developed
intuitions
##psilon
PMP
Carrier
penetrate
philosoph
Defining
Encryption
unmodified
Situ
Bulg
battlefield
dichotomy
Virtex
Bending
Cup
ILS
Mell
Sf
Trop
Und
ech
lately
piers
wishes
##mg
##roat
##actically
reall
bears
##ids
spelling
emitter
requesting
giant
vectorization
cogn
waist
formalizing
Bezier
Imag
annotating
USB
Whit
rubrics
Americans
tennis
condensing
Organic
coincident
sticking
##burgh
hitch
journeys
respiration
Fortunately
Iranian
terrorist
##integration
Hertzian
##asserstein
jeopard
Douglas
Jaccard
##QP
##estinal
##omon
Stop
liveness
specialty
Interdisciplinary
thickening
CPLEX
fingerprinting
Repair
Concretely
Knowing
Look
necessitated
stego
officials
spoiler
tethered
fictitious
Execution
Combinatorial
Hindi
embankment
unauthorized
5D
Daily
Wasserstein
##je
##92
ster
asbestos
metap
peri
chop
canal
##istries
crises
2021
bots
suites
fluency
interpretive
##raced
IIR
118
SOP
Heating
Carb
Regulations
Substanti
MSD
FAHP
President
Prius
anonymization
Turbulent
electrolysis
noncooperative
matroids
tensegrity
Langley
slippery
underwent
Dy
Dü
Ener
Kuh
Sulf
Take
Writing
hemp
kJ
μs
Theories
rests
##ureate
apple
##chool
transonic
whale
##ibilities
linearities
radially
Chassis
parameterizations
Tractor
downs
quantizer
broadening
111
institutes
multiplayer
##rock
conserving
firewall
ROIs
PPP
OFF
Delayed
imitating
LEO
Congestion
Beamforming
Interpretation
Occupant
affiliation
##omatop
centim
nondominated
Slip
east
omission
##orn
extingu
modulator
noising
overloading
chargers
detailing
Recip
Multilevel
##PSVM
##bonding
##tru
childhood
EMF
134a
Leak
Surfaces
Movie
diverging
Repe
PPI
Capital
Martian
pinpoint
inhibited
DESIGN
Fractal
Ideally
rumor
strands
protrusion
miniaturization
Hands
Site
rationally
##hthal
##zu
##jan
##ambo
Inception
incand
detached
multiset
realities
geospatial
phenotype
recognizable
cheating
orthonormal
##ACT
knots
##ruit
float
myriad
##beam
unburnt
oxidative
breakdowns
underestimated
Essentially
Hungarian
telerobotic
Polytechnic
elapsed
dehazing
nugget
Dictionary
unresolved
AAS
Codes
E10
FJ
G1
MFC
NFC
ORC
dock
##98
##estions
thirteen
##uma
basing
##ignments
pays
##arios
trades
nois
##ponents
technician
bladder
Trace
Applic
closes
electrophysiological
translator
homomorphisms
PM2
ABE
embark
##accala
Freight
Elimination
therapists
MBT
inhibitors
luminous
codec
queried
elongated
Plastics
pharmac
stirred
dorsal
parietal
##aqus
Ros
S1
Sin
Von
fal
##entional
##ila
##ainted
##ouver
abdomen
coroll
organizes
documenting
wearer
121
graduated
##EEN
schlieren
manifests
epic
meso
interestingness
##AND
Airbus
Server
CCR
Canny
newspaper
##books
Economics
multiplexed
Austria
inflamm
Galois
missiles
Axial
MOEAs
##ranean
calorific
Cosine
punishment
presumed
withdraw
suprem
Flickr
philosophies
BH
Cum
Cob
FLP
HCM
IMA
Nort
PIM
Row
longevity
##cales
##tiers
##rod
##omially
antim
clonal
##atit
realisation
curtain
flaps
Modules
Multiscale
customize
Transl
heterosced
##constrained
##program
crucially
ICU
complicate
complicates
neurodynamic
heard
Deposition
unsaturated
PSK
Abras
happiness
Errors
Usage
Terminal
Conventionally
intercultural
virgin
Hydrodynamic
Riemann
untethered
ciphertext
holographic
pleasure
remedial
coevolutionary
Ti6Al4V
##accalaureate
EAC
HDD
OSS
Thick
##iated
##pentine
##sum
thaw
##rive
##pple
dew
accord
motive
##ricular
##ensors
decoders
subcon
colours
superalloy
endors
primate
quadtree
nanom
informing
##hester
provenance
SSR
bioengineering
possessed
Capability
inhibitor
deliberation
dopamine
inexper
transcend
VISSIM
commissioning
unaware
interlocutors
WITH
dialectical
Pontry
AEC
BSP
Beside
Hash
Suc
UEs
##zens
##acon
##owa
##ocutionary
indigen
declined
creatures
Arbit
SAW
##EAR
Correct
ATL
Isl
Microstructure
Theoretic
Ecological
snap
FORT
Actuation
practicable
enjoyment
irrational
scrub
Questions
microsimulation
Malaysian
exceptionally
pushes
Instrumentation
piercing
Grasp
Ethics
multicomponent
Sleep
Aim
DIF
E2
EBS
Hod
Istanbul
Ji
KR
TG
XGB
king
nac
##vlar
##free
##ecane
##emics
##oco
ensuing
gravel
##tilinear
identifiers
##rides
delim
Resc
Contemporary
COR
customizable
hydrothermal
Clutch
landfill
departmental
weathering
Transformer
mandated
exhaustively
vocabularies
Saliency
Evapor
Nyquist
Belgium
Available
flammability
Suggestions
Identity
##omatopoe
CLS
Cuckoo
Echo
Jack
MTC
PSI
eut
##PI
##LF
##Lens
##43
##ocardi
effluent
commens
nonh
defaults
scalp
centuries
Adams
Simon
earn
Retin
Contribution
comprehensibility
Electrochemical
Composition
Cardi
multicell
taxonomic
Who
DMU
narrower
Abaqus
affords
Guarante
tours
Symmetric
stretched
replicas
pronunciation
Roughness
multitasking
pepper
overseas
refractory
3V
Chile
DRA
Fore
Fresh
HNN
HSC
SJ
dyn
kick
n3
sowing
##EF
##bes
inad
##real
foremost
##earance
##tha
repulsive
##inted
##tigm
identifiability
generalizability
biotechnology
superstructure
supercomputer
slag
reconstructs
STBC
turnaround
Regard
antioxid
MODE
IPv6
Realistic
proportionally
shoes
narrowband
Outlier
Guang
supervisors
Taiwanese
occasional
CDPF
supervise
Lévy
AK
HDL
PGA
Peu
Sources
Specially
SNA
##dB
##orr
##ombs
alters
acron
spor
Intention
parked
scler
##elli
unlicensed
pretrained
collectors
proto
2030
MAR
detectability
Metrics
##undai
bandits
##orescence
photon
Declar
Century
Correlations
reflectors
inefficiencies
INTER
heartbeat
octave
dissimilarities
unevenness
riveted
Axis
underpin
liquefaction
ELECTRE
Hyperspectral
Piecewise
survivors
Torsional
schizophrenia
AER
Dil
LRF
OI
PRT
SEC
TIM
##inates
##ighed
##utt
expects
extender
emulating
##pecting
minus
cattle
corrects
virtualized
Show
##rites
cancers
arranging
Multiplex
unconditional
Motorc
Experimentation
crosst
accompany
anchored
hemodynamic
##ropolis
noticeably
metaphorical
commodities
weighs
ascertained
saccade
settlements
##aspberry
##amboo
AWD
Cable
CDA
Gini
Pick
dangers
lend
##tm
##ESS
anod
symposium
spider
elusive
minded
facto
additivity
therein
domination
faceted
groupings
eastern
digestion
prototyped
##iscal
definitive
discriminability
likewise
extrema
Nonnegative
ACL
distinctly
CVD
instantly
MLR
POD
ADL
moderating
unfold
OCT
HILS
enumerated
Satisfiability
pupils
snapshots
obstruction
##oconut
subdivided
##ogeometric
flamelet
Pontryagin
3G
CRI
MSP
costing
##ci
##frames
##88
##atrix
##ecd
##odi
chim
chir
improv
dece
##eldorf
guest
affairs
##ups
Appendix
extensional
occupies
likelihoods
circumference
Geo
Disper
TPO
vocational
somatos
OPF
timetables
pretension
Category
dispute
Price
KUKA
Argonne
unreasonable
Earthquake
Austin
Beg
Casting
CWT
Fred
XC
nil
pocket
##heated
##rotid
##ffler
coin
moon
elastically
coli
##versy
##aneu
flipping
Modification
angi
orienting
separations
Neither
##RIT
mutations
knife
dissolution
hearer
Classifiers
sulfide
##words
housings
bulky
FLD
Erratum
Actor
apex
sigmoidal
drums
Mexican
augments
Benchmarking
UITP
David
scooters
combustible
ZigBee
contagion
Cit
FEC
OSA
Rand
RVM
chic
erec
naph
##esity
##rode
throat
anni
ads
struts
traders
leuk
##ardial
quot
powerplants
##ductors
wheelers
Unc
Interm
arguing
breeding
Plus
CPT
SPP
accomplishes
Corona
##TIA
ADHD
violence
Expected
disrupt
##OMO
Marshall
Manipulators
Break
noncoherent
subpopulations
BLEU
vestib
intriguing
4WS
Award
C5
DDC
FTA
HIS
LOD
MES
Rod
zig
##ike
##PN
##Pro
##days
##hin
##zantine
##AA
##ulence
stub
##ollo
Inser
paving
##andering
ophthal
comparably
##intu
insulin
20°C
skep
dams
Transactions
Perceived
##RIC
SPD
manuals
extensibility
rounded
pools
Seoul
cascades
sleepiness
subtractive
misclassified
FLCs
gallon
ethnicity
perpet
delineate
persuasion
unmeasurable
Egypt
Check
lobes
elitist
plenum
Vickers
shimmy
uncommon
AMP
Bost
Rn
RCS
VVA
tur
##400
##96
##asions
##etts
tric
inches
interim
##atient
outranking
nonad
constellations
##partic
##valent
flax
centering
Modes
shortages
Revolution
ReLU
Intra
displaced
routed
Incomplete
undoubtedly
mitigates
Formulation
TSVM
PPM
Valid
Petroleum
Remark
Levels
crowdsourced
Oxford
Barrier
quadrilateral
egress
Private
Assistant
dictate
Named
Extensions
Scenarios
##262
olefin
frustration
AlexNet
##orientation
Cognition
DTA
KH
P3
Pak
Serious
Taken
Xi
Zinc
celeb
hes
hoses
jute
trough
##airc
##flu
##achus
neon
prescription
##arium
recession
indoors
sublinear
subdomain
speciation
##associ
generalizable
dots
swift
necking
##ommit
shortens
triplets
##MAT
chained
attacked
reads
Compet
sociology
PMMA
conceptualized
Regions
prelimin
Classifying
SMART
tremendously
Install
Encoding
implantation
Assistive
FBG
Programme
bisection
##yclist
traumatic
controversy
polyhedron
baffle
Hypothesis
AMESim
Reciproc
DET
GNN
Mitt
Ré
ought
pans
##eem
##ymbol
##bil
##urizing
cook
diffused
captions
Forests
extractors
aggression
semiotic
informs
penetrator
Monocular
rubbing
directionality
SUVs
pneumonia
archives
justifies
flashing
overloaded
manifestations
Drilling
Magic
DenseNet
excursions
expedite
Fleet
Poincar
mpg
dissatisfaction
Regardless
ADE
DDP
HOL
Lack
Mold
Piez
##tured
##sation
##RON
##isers
foref
##rail
##geot
smear
##tifications
Choles
actionable
homology
champ
Compressive
##ART
Registration
##ascal
denom
embody
Guide
NMHC
LASSO
morp
interdependency
cerebellum
Cambridge
Massachus
##olymer
edible
GLCM
breath
fertilizers
Kansei
upgrades
casualties
Madrid
Vietnam
minerals
Protein
urethane
vinyl
AHS
CTC
FMM
Jam
M3
Nodes
socket
ye
##ICS
##ucial
beating
##diagonal
##atitis
preheating
##eping
##exter
heel
Ans
infections
Existence
##suit
knowledgeable
confusing
biasing
learnability
slap
radiography
Interconn
extremum
Hyundai
##gebras
DCF
implicatures
admissibility
IPM
Servo
Estimates
##born
Responses
TREC
TMD
prompts
Promising
pallet
emulsions
LSPI
Credit
CONTRO
polynomially
Handwritten
Peugeot
Dro
DPS
God
Gap
T3
lending
sip
##EW
##Ex
##arametric
##strip
onomatopoe
pollu
schemata
presses
socialization
Chrom
Scatter
replacements
thicker
plantar
##proof
##DPs
Adapting
merch
tanker
tumbling
IMFs
MVC
prefetching
HARQ
promptly
subscribers
Exploratory
codeword
SYSTEM
Adopting
macrocell
iodine
nullnorms
Kuhn
Massachusetts
MEP
Ok
PPS
bidders
gh
jams
##ORT
##erate
##rets
##omit
##igibility
##lymp
reacts
shank
perv
##antenna
agro
whine
integrable
supercon
tea
swelling
actuate
separators
downhill
degradations
Philos
copying
Predicted
MIR
relaxes
football
BPM
sandy
contextualized
PSR
debt
broker
SIMP
Denmark
Events
transceivers
delegation
censored
dubbed
Gödel
Amm
Jump
VQA
rush
##sory
##OB
##IB
##38
##stroke
mole
##ensely
improvers
emulated
##istatic
##physics
defeat
amine
additively
delet
synch
insensitivity
##isoner
radars
commonalities
vectorial
postulate
Diffic
gradation
coreference
quadric
Allen
tolerated
neuros
trell
oxygenates
discretion
DIES
happy
proceeding
OPT
interpolate
Telem
Rapidly
incentiv
proficient
bibliographic
holography
telescope
vowels
bluff
Hammerstein
Ukraine
Britain
Maritime
Maneu
eating
pediatric
##UN
##2vec
##ZNN
isop
antilock
##hodium
##posure
suffice
seap
nonf
demod
posting
humanity
purge
radiating
##uminous
hyperm
popularly
mesoscopic
DPM
##oelect
psychi
departures
##rocy
bandwidths
bioinspired
WiMAX
stripping
TPB
masked
Choosing
##vania
Auxiliary
intercooler
breadboard
##planned
Chaos
Dynamometer
syllab
##randtl
songs
divisible
hampered
crosstalk
somatosensory
Cholesky
Cas
EEC
Kron
LTP
QL
REC
UCS
XP
kph
##yg
##mar
##FEM
##fare
##ictive
##ationary
compiling
##allax
rectilinear
articulate
faç
Modifications
catadioptric
spectroscopic
playback
Studio
questioned
pumpability
brace
Agile
syntactically
hesitancy
Film
gateways
BCK
contingencies
alertness
Heuristics
##apacitors
M2M
ODEs
Premixed
innate
Partitioning
staggered
VEHIC
dereg
560
Bond
CLP
IFC
Pixel
Tal
mAP
##lat
##finder
##Hs
##inces
##ulous
append
impetus
opaque
realise
##lexion
##avage
2024
wheelbase
CA50
Appar
simplistic
##MAR
scientist
viscosities
silence
PCNN
neurofuzzy
##affine
BPN
Influences
pedagogies
elastoplastic
arteries
oxidizing
BLDC
##hibition
letting
WAVE
buffeting
rectify
##vinyl
Continuously
Tablet
empowered
extrapolated
Columbia
metabolism
jurisd
Groups
Molecular
mL
##72
##68
##jud
theat
exits
rehabil
usages
##akh
##rouping
unloaded
variate
understeer
overp
fibr
attrition
integro
##tination
##ovable
bounc
explorations
##SSs
polyamide
quantifiable
sociological
epit
Asset
Nonpar
BoW
[...]
