[PAD]
[unused1]
[unused2]
[unused3]
[unused4]
[unused5]
[unused6]
[unused7]
[unused8]
[unused9]
[unused10]
[unused11]
[unused12]
[unused13]
[unused14]
[unused15]
[unused16]
[unused17]
[unused18]
[unused19]
[unused20]
[unused21]
[unused22]
[unused23]
[unused24]
[unused25]
[unused26]
[unused27]
[unused28]
[unused29]
[unused30]
[unused31]
[unused32]
[unused33]
[unused34]
[unused35]
[unused36]
[unused37]
[unused38]
[unused39]
[unused40]
[unused41]
[unused42]
[unused43]
[unused44]
[unused45]
[unused46]
[unused47]
[unused48]
[unused49]
[unused50]
[unused51]
[unused52]
[unused53]
[unused54]
[unused55]
[unused56]
[unused57]
[unused58]
[unused59]
[unused60]
[unused61]
[unused62]
[unused63]
[unused64]
[unused65]
[unused66]
[unused67]
[unused68]
[unused69]
[unused70]
[unused71]
[unused72]
[unused73]
[unused74]
[unused75]
[unused76]
[unused77]
[unused78]
[unused79]
[unused80]
[unused81]
[unused82]
[unused83]
[unused84]
[unused85]
[unused86]
[unused87]
[unused88]
[unused89]
[unused90]
[unused91]
[unused92]
[unused93]
[unused94]
[unused95]
[unused96]
[unused97]
[unused98]
[unused99]
[UNK]
[CLS]
[SEP]
[MASK]
the
of
##s
##.
and
##,
a
to
in
##-
is
for
##al
##y
##ing
The
p
##e
with
##t
on
##ation
##i
are
s
##c
that
(
##g
l
as
##o
##l
an
##d
##)
##ed
c
by
A
t
##u
g
##a
r
##n
f
b
be
e
##ve
S
con
this
##in
##s.
##b
In
##S
##p
##es
##ly
##ic
##or
##er
##C
M
##A
C
we
##it
##M
model
co
##f
##ar
##m
##k
##ment
##s,
which
from
can
v
system
##ol
st
##D
P
##ent
##P
##ate
de
##ur
##an
D
##E
w
This
##ce
##re
##I
##able
ex
##ri
##at
data
pro
##ity
re
using
proposed
##R
method
h
results
F
R
m
##T
E
##N
##ay
##w
based
##tion
paper
control
B
##ding
##ated
##en
##0
##as
was
inter
has
un
##O
##ch
##ip
used
or
##ul
##h
##ric
at
show
##ro
We
##L
##F
N
ac
have
rel
T
design
performance
algorithm
en
##is
it
O
##ure
##ain
##x
L
##1
##age
##ance
##ad
##r
##id
##um
##2
##:
been
##th
##se
##ra
##ative
##v
approach
ar
two
##ter
##ations
##il
sh
##ous
high
time
were
H
##sion
##us
new
##ability
d
i
analysis
##ary
##ating
##ap
1
##ical
under
##st
problem
##ator
different
##ge
set
study
par
also
man
##ant
cont
n
per
tra
ch
between
##V
G
learning
##ial
use
such
not
##ual
##ies
##et
##/
out
##ab
##B
their
2
##ail
##-based
function
information
over
##ving
these
sub
th
I
di
al
##G
application
work
fuzzy
o
engine
U
##le
its
##de
oper
##od
##ack
##ization
trans
##ular
more
qu
##ight
network
real
##ati
systems
##un
vari
evalu
##ts
##am
test
incre
##ted
##ized
##on
##ved
##5
into
##ver
##ition
##el
pl
##ut
fin
W
##ib
sp
he
##act
##ard
vehicle
##co
##ational
ad
##ning
other
one
##ion
##up
##king
##'s
##iti
##ll
obj
##).
sim
our
desc
##to
pre
##ments
##ac
dynamic
##cal
both
##ot
##ti
number
##ide
spec
##ature
##ize
sur
##H
chan
V
cap
##ult
##ir
than
well
##ence
##3
dri
typ
##ded
##ine
##9
equ
each
##ast
through
##ear
developed
##z
##),
##ite
##ting
##ound
all
##ility
##ron
fuel
order
It
3
methods
process
##istic
car
##%
An
fi
paper,
inclu
##ect
##ust
comp
##ew
gro
##j
solution
will
##ther
##op
power
su
##;
j
cl
improve
##ort
##ural
sche
research
##pen
##oint
##ag
int
comput
##put
expl
presented
##qu
task
##ulation
investig
when
some
##ree
##our
sol
valu
##os
##ities
le
present
models
program
development
achi
ab
##ves
comb
produc
fe
up
level
##ble
ma
##4
##out
##y.
complex
measure
To
image
##00
first
##all
strat
##fer
##ry
##im
form
elect
##ig
se
##ution
##ful
experiment
##ame
reg
identi
simulation
Ex
three
k
y
intro
##U
##per
partic
##der
##ct
optimization
det
multi-
but
discus
ver
features
##ness
##tive
rec
##ation.
##6
most
robot
##ia
##ication
user
##ater
environment
##oy
fl
##ces
##sive
##ally
##ses
consider
##8
state
neural
##og
integ
significant
mat
##ase
##sing
##pl
implement
general
cost
##ke
##ec
only
human
air
##y,
##ext
ne
compared
propose
low
##sed
Con
go
decision
##ell
hy
##ds
where
##ub
##ling
represent
dire
##action
##ware
##ased
structure
##ining
##sity
op
sy
cy
knowledge
experimental
studi
ran
##rid
##ob
However,
classification
obtained
val
##ix
framework
speed
##e.
##ates
##ject
large
adap
non
engineering
av
##ration
##and
plan
during
##ose
characteristic
important
component
##face
compar
commun
##7
##nel
material
##mer
##ran
energy
##cor
##W
##und
exten
local
pos
adv
##sure
provide
parameters
novel
algorithms
applied
how
##ile
lim
tool
##si
effici
flow
##unt
met
##mal
##eld
##vol
##ner
##ep
behavior
there
att
##ue
possi
factor
##su
various
##ation,
sensor
detection
wh
do
require
##sional
For
space
predic
##'
analyz
##tic
clas
##the
feature
St
may
K
##cess
respon
##ong
mo
so
reduc
exper
while
##eg
##me
##ist
emission
mean
case
##ference
##ber
multiple
term
efficiency
trac
hand
addition
##vity
##if
many
pres
##ally,
constra
##ently
optimal
##ros
then
problems
##ten
ser
networks
temper
main
obser
given
Fin
error
distribution
ag
they
##cy
##ld
##ined
several
##tern
signal
corre
students
allow
##fy
motion
current
##ages
##for
##ential
##duc
controller
##ulated
##-l
vehicles
need
##gen
##ecti
support
##hy
##ang
##ced
rate
##ction
util
##rit
gener
##ines
##ers
conver
indic
quality
##way
multi
##ress
##ision
##ath
mechanism
soft
due
##form
pattern
techniques
develop
##ace
##fore
linear
##ole
presents
##ough
effect
##ore
better
load
##es.
##ward
del
dec
single
mod
prediction
fil
sen
optim
theor
non-
##rat
frequ
existing
##raph
images
##ges
##mp
ste
numer
inst
buil
ele
##mar
##izing
wor
recognition
exp
bas
foc
##omet
infl
##ak
##ari
properties
conduc
calc
##ample
##xim
technolog
As
designed
##ould
stand
pot
impact
##ause
##ffic
##ency
##abil
robust
##den
Th
##ill
about
##te
##jection
accuracy
servic
##dent
conditions
##agement
##amples
technique
##esel
approache
These
asses
demonstrate
noise
analy
result
##get
concept
very
(S
##isu
dataset
##-of
search
indust
prob
##cert
top
Al
no
minim
##rip
##fication
acti
##fied
effective
map
act
combustion
##lin
##linear
##ks
ke
##ited
machine
##sh
##port
##ables
##iver
##low
der
##mpl
##uring
##ise
##ging
effectivenes
##ane
appro
soc
##ne
##cale
4
##ish
considered
##ule
suc
##ific
-
selection
##time
##aly
##"
domain
effects
##ules
ev
##rin
##ures
##rop
##ison
contin
##eve
##he
##tical
loc
##ason
higher
##sical
##val
"
agent
##vention
##sump
##asing
ful
mar
##ribut
##soc
##cle
hel
##son
secon
##sis
##ned
##itect
##ument
##oad
sequ
5
##oints
whe
super
u
##mall
mob
##iment
cour
res
##air
provides
##emp
##ven
paramet
region
##struction
reduce
lear
performed
There
cur
##over
##K
character
devic
ther
transp
dist
fur
computer
##par
##om
##uch
sti
processing
##ishe
##fet
improved
##ha
seg
sour
ret
previ
##allel
clustering
##ances
##ified
##vel
##vid
##ations.
estimation
##ible
##cur
##sist
obt
##uence
##led
made
##adi
##hase
##ming
cor
##ring
##’
0
condition
sup
dis
##oc
##ationsh
##duced
prop
##igh
among
##din
##llec
indi
##gn
##uc
##ticle
required
##mission
systems.
##uld
##atisti
##fig
##des
vector
##line
simple
##siti
##sem
##hen
##sig
##fined
##jector
##ren
##dimen
J
robots
nor
##ith
resour
##ints
##les
##ian
##riti
processes
step
##ife
fut
##acti
##che
lower
modi
##ired
testin
maint
ben
##itor
les
##ants
##(
best
ap
##ribed
##iqu
nec
##vi
##oly
sel
classifi
##ects
##fin
tradition
know
##conom
##iter
##formation
##ences
##ficial
me
bec
mechan
##ification
##asti
##ket
##spec
diffic
dimen
complet
expres
##con
motor
##ulti
structures
##anti
aver
correspon
##ering
engines
##ological
##egies
##atis
##stem
##ially
##uth
##ire
differen
##tor
##sor
##ilar
action
random
##cen
##ases
make
select
flex
##eved
end
mon
##reng
##one
##av
6
##typ
##atter
##bed
##ogic
methodolog
event
perform
determine
##sequ
compos
called
##set
origin
uses
provided
##ave
Then
semanti
distribut
veloc
compres
##pose
theoreti
che
##anced
##em
##ene
able
bene
##aint
##effici
den
cases
revi
##more
gi
9
apply
disc
##amp
##fit
roboti
spar
##oper
##oth
struct
mode
common
##cre
tested
reduced
mas
##ribes
adop
##mo
##reg
##ser
proper
even
##loc
automoti
Q
##cer
##valu
##irst
practical
##know
##ustrat
##pre
she
##standing
##ffici
tor
##are
mak
##int
##iated
respecti
bel
##ffect
generated
##sp
##rol
sto
measured
us
##of
##ruc
##ign
##ically
##no
##aring
##ug
8
##ading
##vari
proposes
demand
##wor
##cept
accurate
measures
##iability
inde
##izes
attention
##gnition
##ow
##]
##ged
##rac
mathe
##jects
##not
##abel
active
##odel
##ression
##usto
des
concepts
computin
mem
##ativel
##ost
mag
bus
recommen
sum
##man
showed
##aving
##ilarity
##estion
##idel
discre
##cl
##–
##Q
z
##omp
##ations,
process.
##gor
##atic
##met
relev
##vised
##gine
demonstrated
amo
##hance
##ff
##fl
##limin
##ily
##ribe
##red
[
technologies
##utonomous
memor
##ked
##tra
##ism
##idation
##iding
approp
recon
##esul
##rad
##ger
7
##ights
##matical
##olog
##cop
##amer
##icit
##-level
interest
##viti
methods.
displ
effectivel
student
##eneti
##rical
cle
base
medi
##duce
conditions.
resulting
##sen
##di
doc
##allenges
ind
##gro
##ained
effor
##ram
##etwork
##chan
reve
stra
##ments.
##celer
##ply
behavi
estimate
simulations
differenti
appl
imp
##cent
digit
char
determined
##rimin
impl
##usti
##osed
ob
##gest
##ighted
##ome
##resh
sem
cover
##clus
##esign
##umin
respect
##ribution
##ident
##acement
leng
requires
##ually
##antit
##chasti
'
iter
generate
##nect
become
automatic
times
ker
problems.
index
##entral
##ception
##rees
im
##ailed
systems,
##structed
nodes
##ather
aspects
import
near
##ainst
##ither
##wo
##iable
##senger
##ach
stor
##vis
##nection
##come
##we
##ople
usu
mining
extraction
##mes
##order
##iming
##faces
##perform
##ume
##avig
##viding
##neti
##X
##ump
##kel
##icy
##aging
##arant
##ament
fit
particle
makes
##zzy
##istor
techn
##ifically
ori
##est
##senti
##sic
##wer
database
##ampl
##allenging
sign
##specti
##astin
wear
##by
##ireles
##so
##asol
rates
##stit
##irical
distin
recor
##puts
##ximation
compare
##pos
impro
travel
##atel
classes
##iz
##radi
compl
##nos
take
##ulations
formal
##stand
##cally
commer
fund
##amin
taken
alloc
models.
##ech
sound
##ided
##ides
##fir
##atures
##gin
simpl
wel
##sel
##acy
##sy
secur
##jecti
presen
##dation
loading
##ral
##”
compre
##elds
##amage
##rig
##car
rest
states
##rag
##itin
##motion
##chical
##gether
##raction
susp
qual
reco
formation
##space
“
##gram
##>
##iform
##etiti
##econ
##dow
##fine
##resses
distur
remo
X
##obj
##?
cal
##aster
needed
produce
determin
##inematic
aro
##fe
practice
##clu
asy
##<
min
##ma
##sistent
##oti
##ortion
##super
dow
##upled
##mising
##struct
##fi
estimated
remain
##used
##aused
##raphic
##ugh
forec
##allenge
##ever
##Y
hyper
##rom
##zz
automatically
every
##dy
##cel
##idated
modes
##evelop
##ames
##rimary
here
##uto
algorithms.
##dri
am
##centration
done
produced
cluster
##fic
##hic
machines
section
##amel
##sus
##side
moti
##upl
moment
automated
extracted
##uron
##°
however,
##odi
transition
sust
##eval
##dition
##ener
##ader
##amined
##uro
##asur
##ites
methods,
##urop
##vex
##ector
##cles
##ipl
care
spect
##ured
fus
##pres
##lect
##arding
##han
medical
##atives
##rough
eviden
het
##agent
##mon
Z
##eaching
environments
##valent
##tim
networks.
##idity
##uses
##ferences
##amet
node
##hanced
##idate
##section
##ximate
##mak
##otor
bur
post
##pro
transi
##unter
##ention
##iple
##ounded
##ract
##iston
##sol
##can
##nor
##ments,
##tition
process,
##aser
##ash
##ade
##eves
##rash
##has
##rati
propos
##aced
researcher
##ers.
##herent
##ich
Y
##speed
##esearch
frame
moder
decompos
##len
core
another
tak
##uti
##ised
now
improves
##go
requ
=
##ogical
##med
##ored
##matic
accuratel
##let
preser
##ex
##fect
##omog
##ues
##rasp
extract
profes
plant
##uced
gover
##ynamic
##umer
parameters.
##diti
##nom
red
reduces
##ler
represented
##outin
##gested
##ere
##comes
##sistency
##min
larger
##ared
##ighting
spaces
##clas
##cene
##J
##ressed
##+
ones
models,
takes
resolution
##orate
##oto
##iation
##adem
##ker
aco
##anel
##reedom
generally
##medi
##load
ampl
##core
##iples
##edest
mes
##ube
eng
##ulariz
conditions,
problems,
##ratin
intake
contrast
stim
##uble
notion
cop
##ry.
##most
fing
adver
##amine
##adig
pose
##til
becomes
All
determining
leg
##duces
dise
##rastructure
mor
##auses
trade
##rosion
##ethod
##reement
##itrar
processor
##tection
##eving
##ularity
##nder
##unting
##do
##gorithm
bu
##avelet
##aled
modeled
nex
##ple
##hicle
##ising
automob
##onenti
##using
##asy
##ste
##ffer
techniques.
##atent
##Z
##elect
##uno
##aged
##ainti
##urer
##ots
accuracy.
com
##osen
commonly
##ush
##net
##enti
experimentally
performances
spl
##eed
##ffects
sent
##ied
##ake
##formed
##abeled
profile
##ompar
##tit
impacts
deco
##raphy
##gent
##sumed
##uter
##gestion
classif
##-le
##imen
##ered
expen
estimates
##flow
mer
fiber
domin
##ectin
##etition
##complet
##gy
##ports
performing
##unts
rele
##factor
##istence
##mariz
databases
##ogistic
##amed
reach
##sistin
##rint
inste
##sur
##state
##suming
##ewed
##maller
iner
##flection
##nosti
##ache
##igid
##har
##inter
##rade
##ternet
##ults
remot
##sivel
##iring
##odynamic
##orated
##ton
instit
algorithms,
##formance
hypothe
minimal
##ris
##cted
attit
environments.
##ctive
##compl
theorem
##tell
devi
particles
non-linear
interestin
basel
##acket
##sisted
isol
##aces
##ness,
##exts
spectral
##lowed
##rib
##oles
##oundation
##izations
##work
##ers,
comple
##sit
##sures
##spection
##robot
prevent
composed
##henomen
designer
##date
##reen
##ximatel
##ime
plane
demonstrates
##etin
instruction
inequ
##ores
##mpro
##imed
##isy
##ationally
##ks.
##comp
##mean
networks,
##ronous
##ryp
##aves
##acts
clusters
##actor
itsel
##cap
call
##vest
##sile
##ouse
##sul
representin
##system
adequ
aspect
##raphical
##olar
##ry,
##icies
##ogon
##henomenon
##ades
sector
&
##here
##sumer
represents
##unted
parameters,
systematic
candidate
##hases
##ness.
##step
##cour
##coming
##achine
comm
##odic
##processing
##echnolog
##structin
##fies
##aten
estimating
##ivery
##uman
reson
estimator
##tically
##radation
eno
technological
##ongit
Ind
##mod
net
structured
practices
##teg
##osing
##ones
##enetration
##yp
##ower
extent
recovery
##ras
##now
##entially
##ares
mesh
##eacher
##fiden
age
##redic
machining
And
imaging
termin
##iesel
##irable
highe
##lent
regener
fine
##whe
spre
##fuzzy
##acles
##iler
##disc
##rob
explan
##ager
##ele
##ochar
##icity
##lle
##ev
##earance
##vic
##necti
##rent
##be
##kes
contour
selectin
##vided
stop
##alled
##esp
profiles
##mel
##enes
formed
humano
##fuel
properties.
##utin
##iance
##res
##As
##ompared
forming
##use
recur
##mot
hence
##rim
##keleton
##control
sing
diffus
dynamically
##empl
##amper
##optimal
did
##hab
lever
##produc
rever
dynamical
##att
##ds.
stere
##ires
operate
##uge
##parate
%
distor
##sim
##frequ
resulted
##ifferent
resol
discover
technique.
##poses
+
supportin
##osp
led
##rises
##fly
##roble
##noc
##acle
##hal
##aker
implementin
##ritin
##ias
##&
##ider
##unding
##paramet
atten
solar
##forming
recurrent
##ks,
##uences
reache
##ocal
##ressive
##vehicle
frames
produces
##aily
##ode
ve
##prop
##anding
##vil
##ection
##flect
##onger
allowed
waste
trap
##rar
##acter
##iner
##une
##ificance
matter
##ineti
dic
supports
##ato
##valen
##ds,
fir
generates
##mise
mane
##mage
##stract
##abled
##inese
##attice
##cales
demonstration
let
##corre
##sider
severe
transit
##sto
##while
##eding
##ken
##iles
##ruct
##current
sentiment
##echan
##cessive
mac
##urally
##strat
##obust
##equ
##orates
becoming
accuracy,
##bur
##rise
profit
##warenes
##In
##ises
##cores
##lder
##plane
x
##ucle
##lines
mal
##gi
##uthen
cancer
Indi
fle
##otin
hear
##called
##ror
traction
##egic
##ork
developments
##resolution
##revi
##ici
differ
##—
##fered
##izer
##tered
fire
methodologies
##nam
discovery
##orts
classified
##isting
##tex
##atest
##stra
##rane
imper
mol
##cessi
##uel
##rimarily
Its
##sification
discour
indo
##usted
##fects
##isto
lex
##sume
##gement
students.
##osure
##amines
##actin
##lerance
##osel
automation
fly
##vec
##ximal
##*
##uenced
##=
##viron
##mosp
inclus
sop
##eco
##onent
##ffectin
##cost
##titi
##enced
##ales
tractor
sul
##ubes
##bulen
secure
minor
##romag
##∞
below
##thanol
##icon
##onom
selecti
##reed
command
##constra
##é
##sup
–
##del
ment
##cenes
##imal
##ressing
##chy
##formations
‘
##thy
##ravity
completion
ses
##fill
##ued
##aming
extracting
##mong
exposure
##function
##timal
##idire
ato
##raded
stored
ves
##hap
##ffecti
Tow
dischar
##finement
processed
##isel
plants
recover
##agon
##adv
operated
##goti
Ther
##hard
##lower
##ican
multimod
dedic
locomotion
##asure
instructor
##inear
##ledge
outs
ren
##structured
bul
##datin
##fen
##vent
identit
format
##dated
restra
##trac
##she
seven
##arded
dil
×
##tivel
##utomatic
##umatic
effic
simulations.
nearest
statement
##hat
##identi
indire
##echn
ordered
##ffor
##domain
##rity
dril
##mis
##top
##vestig
##herical
locally
##temp
##care
disper
reser
registration
##ventor
integer
##omen
##uler
##uned
##ogies
remar
why
##edi
compro
##user
##roplet
fill
##case
##dire
determines
largel
##iary
##gener
##untered
##uce
##pared
μ
##iant
##centrat
##ynamomet
##gical
##ainer
##arily
##systems
chas
##asses
simply
##dit
##rashe
date
##cont
##computer
##areto
ded
##lerant
##epar
hes
##radition
##level
attractive
er
buc
##uen
##osop
##ospace
##anese
##gon
##text
former
##uent
##hicles
spot
##The
##rising
##ologies
researche
come
allevi
hash
##mally
##ditor
##her
##straction
recy
renew
##stone
##mary
##posed
##athe
##gered
##char
##andom
##nectin
##bulent
##paratel
##redit
strati
α
##anger
##then
##mat
##with
##ilariti
##ampled
##manent
mentioned
##sub
forest
##venes
##q
sever
##modynamic
##fur
##ucl
##theles
bases
##uper
##ustin
##utomoti
##ano
asp
her
##power
tour
##denti
impre
##ardiz
##adap
##irically
##acent
destin
agen
##}
##uple
provider
##rades
outer
##kers
aging
##model
##rared
##men
compares
##orth
poster
##tin
lect
##uts
##centi
master
desp
largest
##fil
##ster
rev
fer
sec
##rab
##nesses
##tect
nomin
##utral
##fu
environments,
##oled
##drical
candidates
##heren
poses
##velop
molec
##structi
fig
##rap
spacec
##iative
##asto
##ketin
##ugeno
##ifies
therap
revis
##rich
##mog
##eler
##iden
exposed
##ricant
##emanti
buses
##eller
##eder
recall
##parent
##task
##celerated
students,
<
##utor
°
demonstratin
arise
##dor
##ksh
dev
##igor
##ostin
covered
automat
##tes
methanol
fib
elev
##rime
##meti
##umor
##agi
powered
estimation.
discontin
fore
intra
reaching
##rically
##mist
ever
##aded
##®
##rostructure
sometimes
Sto
hypotheses
disp
##well
##cepted
##lene
interested
##antiti
##ifetime
comes
##aver
##sour
##lined
##ortest
##ask
##sically
##rand
lowest
##ement
##plan
attracted
##tise
bed
##avity
##aired
##structs
##ulations.
##bles
##igit
semester
##fines
fu
##performance
##ulariti
##stimation
##utonom
##adily
climate
##high
##anded
##Al
##ximations
##orter
##formative
##elds.
##ipro
##esture
multimedi
##ticles
acting
##oreti
##mode
systematically
##test
##ale
##noise
##cessing
mel
##aire
##St
##omedical
##rigin
Another
##prene
##theoreti
##otion
##ffine
##mable
##wh
##processor
##sec
##eper
##map
##isture
##formable
##timatel
##risp
imposed
##ustering
stake
##tices
noti
##relev
##former
##umes
##dic
##timate
##tent
descent
##reet
##elding
##each
##iar
##hand
##apl
##lex
presentin
##mor
##utomated
##parated
Strat
##ito
##machine
##temper
probe
posture
##ustrati
##sistently
##hances
##nd
wet
##rost
arith
##mentin
##ferenti
##nes
anomaly
##ounding
prede
##icly
##isted
##bel
Top
store
##estin
##requ
workers
##frame
##rest
##trason
$
monoton
##don
##×
##sumes
##ifi
##ologically
##ousing
##such
##integ
##arden
timel
##trans
##heric
##amining
##vial
makers
##aco
developer
##visor
acts
##attern
##lenec
simpler
##vide
##minent
##adow
##controller
##eared
##taken
##outh
##mous
##mple
##redi
machiner
±
##ximated
##avit
##eled
legis
##vin
##erm
arising
##sthe
##portin
however
tract
anomal
##nol
disorder
practitioner
##fici
##rintin
noises
##bustion
##Con
##domin
##acked
##mas
prevention
q
##eti
planet
##oser
##ico
moderate
##lar
loaded
restor
Inde
traver
##idespre
operates
##rame
##enous
##icop
##iber
regime
discovered
##vestin
activel
##rading
##estures
##iab
##structure
##spect
impossi
never
##omplex
##ducer
##surance
##non
avi
file
mono
len
/
marine
##imet
##rone
##havi
##untime
##celerate
##dates
##avily
##flected
female
##iased
##caled
##istration
imager
stated
##approach
networked
##ifor
card
mentor
alar
##election
##commodate
energy.
##anes
##erman
##fection
medic
##cepti
##akers
##$
firing
##isot
##spl
##cesses
coming
##ivered
##roly
##methodolog
##roper
##impl
##ractical
##went
##real
##spaces
##ril
##alu
##data
##nec
##istically
##fus
##through
contract
##sover
sortin
##role
##bus
##effective
unexp
##isher
##servic
##odes
##uled
minima
searche
##flex
actor
##sil
##entist
trading
##[
##ifur
energy,
##ramatically
##iration
##‐
##attices
bumper
optimally
spectra
proposing
##athered
cancel
##predic
##ffin
##itored
simulations,
multiplex
>
##erson
##ress,
##spectral
##where
undes
decomposed
##arel
##omas
##ricants
##fel
deno
fish
arises
##aper
##ificity
##cover
##semin
stem
##ificant
devised
clusters.
##onging
##engine
##umet
##arance
fused
##evel
##traction
##gonom
##ecommen
##veloc
##tration
parent
##aro
##{
##ompres
##evi
termed
##aching
##ributin
##istem
##bled
##cti
##econom
selects
ero
##roprocessor
)
##domet
##iag
##esour
##ismat
##For
##igned
##buil
##com
##cess.
impres
##based
extracts
##acob
##wel
clarif
##network
##athering
##allow
##unded
##mation
mine
##epresent
demanding
##formal
##oulder
##which
##rasti
##mature
##effector
##error
##preser
##amaged
##ado
fed
##ompos
##oler
##igible
cone
##kew
##™
Index
##ange
denot
transparent
reven
ton
##sisti
##adequ
##emor
##andem
clim
##flects
##pare
##ecur
##ifferenti
##respon
male
##mechan
##base
Tod
##ighter
##romet
##credit
##tention
##gestin
##owever
##ulations,
##We
.
##uenti
##rist
worked
domesti
math
##trasound
locomoti
rated
##matically
##ress.
ener
##romechan
##calar
##sensor
cardi
##nearest
##elded
##commer
##-load
##pler
##Ex
retin
##yper
kep
##·
##produce
##omor
##eth
##iconduc
accur
##kelet
##ustration
##ened
monol
monoc
##omechan
##-lim
vent
predomin
##elds,
##design
##aintin
mason
##from
canon
ner
##oster
filled
##but
dispar
ash
##forementioned
##avi
##component
inevit
sun
disti
##condition
##cessor
##comb
sus
##inclu
sort
##getin
##measure
##rised
##flecting
files
##oses
veget
methodological
fif
•
contradic
ineffici
##mopl
##resent
##oder
##chase
formally
chance
##eded
##agogical
Tor
##ridor
##egion
##ke.
miner
##performed
##illar
##steres
##rase
venti
##outine
implements
##ifest
methane
dex
##adical
foregro
###
##urated
##arithm
##ether
ε
##umber
##iral
decl
uneven
preventin
##gies
planes
##dom
maker
cores
##esthe
##uples
##inor
##iate
β
##mail
##tak
##ctor
##worth
##support
discl
##determin
fueled
##ustral
##motor
##sti
##rosop
{
practically
men
##motin
##oter
fel
##ridiz
##iations
##ressure
##curate
##idatin
##mob
##arity
##idi
##illed
##even
##classification
##accurate
##mises
##neto
##trap
##aveleng
aler
##olariz
##isp
recovered
solel
mask
##only
##-loc
##itel
##aved
##ximating
##reach
hex
##abulary
##emper
prone
Wel
evident
##uster
demog
multis
##airing
##local
##achines
##rator
##fire
≤
##rofit
##ointin
practic
##heral
##ö
##program
##astener
##sum
##vestor
##|
mort
##gnored
##tec
##dered
##iled
##sified
era
gir
aged
##cting
##element
##atin
anon
##take
##reduc
##osted
worth
fidel
##compres
aromatic
##ravel
##sured
revised
##idiz
##engineering
contraction
cloc
##titioned
##jectin
approaching
##tile
##formatic
##tel
##powered
##contin
inexpen
##monoton
##image
##agore
##nose
##etermin
##dis
##izations.
##orti
##dsh
##\
##outs
##elecommun
##hasing
##other
##ride
timet
##filled
##rigid
##mallest
##first
##asket
##generated
clustered
##sivenes
##pot
##complex
mano
##herit
##ardous
##mem
##fing
##acted
##ailer
enor
nod
outstanding
currents
imply
ven
mech
##raphically
##edent
##tecti
##sored
##flective
##icing
##dist
isot
##mative
##uso
##dec
##evic
transparen
regimes
##utoreg
λ
cardin
##iat
##represented
##dous
Sti
##-linear
redesign
##ogi
##analysis
##ewer
##aner
impacted
son
##ino
##ben
##foc
##μ
##An
##angent
##ortin
##measures
dimin
standing
##planes
##heres
##riple
implant
meshe
severel
##ologist
##human
##ffler
##sine
##lected
##bure
bub
attractor
prerequ
bes
##aler
comments
contrar
comment
##process
##warding
##dsour
##isti
traveler
##cher
advic
##To
formation.
resem
,
##rases
nested
##oding
upl
##−
##ditin
masses
##riche
##thane
##abu
##usu
prono
##ethy
##iases
##ravit
ast
ℓ
##omain
##ipar
abund
##uer
##appro
##reel
##raso
intract
##imple
comply
##aken
##otstrap
##loading
dent
conception
##techn
##ogous
##sifi
mam
##omatic
##icy.
##-leng
Forest
##ringing
automaton
##ested
dispos
##anol
##akes
##vet
outsour
##have
##how
##lim
##sin
diff
##igher
##urance
##gnore
##iper
posed
problematic
hem
##icin
##geti
fuse
none
##oural
##sche
##eng
remained
funding
##performing
##fecti
##ompre
dig
##ï
ago
##edical
##∗
##α
gol
##rastructures
##othe
##itenes
filler
##rints
##energy
##irich
##anto
##ε
##ressivel
decompose
Asy
##idem
##angenti
##region
##visu
endos
declar
##cure
digiti
##odically
##aires
##aden
attraction
##ustratin
##illimet
##effic
##lever
dile
devise
prevalent
##illary
##makers
##tinent
fun
##terances
##etitor
##rostruct
##ellect
fusing
##anoparticles
##soft
##inst
##epl
Iter
bund
##ationale
##ilinear
##igidity
##cess,
##vetra
##non-
##sent
##echnologies
##ono
##sistence
producer
##osest
##optim
##viden
transiti
##uplex
##ouses
##ham
indisp
advent
funded
##avenging
##memor
##!
advisor
whenever
##vit
##very
##operate
##eply
disco
##acy,
##demand
##ristor
really
##destructi
postul
nose
optima
impose
##simulation
canti
##nector
##number
##ifer
##outer
##ecurrent
Alloc
##arder
estimations
##floading
##amages
##under
##made
isomor
mone
##lerances
##uet
focal
##inging
##sided
##aste
##olarity
handover
∼
##ributor
makesp
amen
##ceding
##izers
##ifferen
Tot
##ethodolog
automate
prev
##uestion
stores
##imation
##ramatic
##iature
Wear
##inec
##tising
##uces
##obe
##terance
##oming
##mari
##acy.
##spects
distraction
##designed
##ofuel
##acon
##efficiency
##anofl
##idic
##±
##ander
machined
##information
##hain
##earest
##′
Asi
##approp
##expl
##formations.
##bul
monotone
feder
worker
##hallenge
##omer
semin
##ranes
##usten
##exper
##mages
##ighten
##icip
##emed
##cled
sure
##comput
##amo
##produced
clarified
soleno
##concept
##ficing
##bug
##irat
wash
preventi
tram
resp
##node
##two
signed
##resol
##cepts
##acet
##iche
##andit
iso
mention
bet
##ushe
impactin
##doc
oral
##eman
##rones
##mised
aper
##isten
mandator
##incre
##aris
clusters,
##adic
##cedent
##nosing
##imotor
##imod
discer
##agog
merel
ple
##athy
West
minimally
##och
don
##imer
##ariz
methy
##multiple
##itioned
ende
evidenti
##acker
apar
##systems.
postures
##iser
##edic
##rome
Stor
##flector
twof
##event
##ifecy
##ester
≥
##eloc
sex
##ecompos
##omomor
effector
##that
##exp
registered
identiti
##ilen
dest
maritime
##sten
##wed
##gines
##best
##sif
bush
distributi
formability
##usp
##chasing
##item
##ü
##gnosti
##lloc
##ximation.
##amous
##istered
##bent
register
##asted
:
##parameters
##iances
##imeti
multist
##ritor
##uenes
##knowledge
##exti
##izations,
##sisten
profil
completin
##impact
##tech
handof
##problems
##sect
discon
##iller
##problem
##cluster
foren
##cessivel
##tectin
spots
##secur
discom
##raphy,
##riment
##anot
##imp
##processed
##feature
##thened
##models
##á
##mentioned
##operated
##hallenges
##represent
##emplar
##ablet
##nects
dop
##accuracy
##raphy.
##osenes
##adata
##gnor
##tran
##adines
rechar
classifies
amp
##ogit
##vist
##conver
mainst
##∼
##omore
##fish
someth
##rofes
##post
improper
##evalu
##attention
##secon
##attered
wastew
##differenti
contracts
##onen
##detection
##astest
##agen
predetermined
##minim
##ficially
deton
simplest
∈
bug
Δ
##erant
dol
##rover
##(S
##lds
##oman
##mag
##fidenti
election
##plant
##terestin
acy
steg
##risti
σ
got
attracting
##developed
##ritish
##calc
##anog
##icy,
prof
##loaded
##abase
##Sto
##rever
attract
##henomenological
##riplet
##emot
##idates
Forec
γ
##omes
undire
##ione
agile
##elev
enumer
##oce
##ectral
lem
##respecti
##icher
##diffus
speeding
profici
##sule
##oche
delet
##osh
##stimating
##integer
##clustering
##gith
mature
imagin
##orem
##icone
##irator
##ubular
##romatic
Wester
##hical
##ffered
##feren
multit
fem
##due
##anocompos
##hate
##-local
##stell
meant
##rosoft
##iest
##tem
##odiment
##electi
##angible
##vides
##igro
##analy
##ama
##ethanol
##eles
##abet
##roposed
Indic
##rimal
##digit
restore
##conor
##ortra
##outines
##upler
##rine
##vested
##ermany
##deco
##wear
##emon
##As.
und
probes
##gnos
##ipled
##cardi
##about
iterated
##mpower
φ
##stop
extractor
##omplet
##utop
drin
##godic
rede
##istrator
avion
##environment
##lev
##esearcher
##allenged
modest
##ficit
##exten
indent
##utomob
##~
##fidel
##amon
##utomation
##search
tone
##emand
##oton
unequ
δ
##warded
##aller
##fueled
##ffing
##mpos
##anor
##etermining
##selection
females
##epos
transistor
##commun
##modi
Stra
##istener
##ellet
imposing
##-ling
##ogically
##selecti
##hanto
##det
##Th
impractical
##displ
dose
##λ
##covery
##ispl
demanded
##acen
##new
##echnological
##tracting
##reser
##inoc
stu
imposes
##rition
hyp
##anos
##dex
##ximates
##intered
##sorti
##both
##'s.
|
##onor
mos
##ragile
##ister
##asten
##random
##idue
##cedes
##cessed
##pattern
##stor
destruction
##stration
##iarity
##vical
##moco
##te.
optimizations
##chically
##effect
##-les
tester
##asu
climatic
##elled
##ifel
reloc
`
##distribution
##combustion
##ellow
##uber
##ioned
sed
−
##eson
##dset
##ativenes
##abler
##nessed
##maging
##prob
Tog
conditioned
##atically
##alent
##ceden
##β
#
##asters
remedi
fusel
##nog
##uma
commodity
##ropos
##tis
adi
##posing
##oy.
##conduc
##apered
##rostructures
##romato
##wered
motored
remed
##commodation
##comm
combustor
deletion
##sives
##gel
bump
ineffective
##raming
##osures
##aset
##systems,
##ressor
##atenes
##∈
##erspecti
##structures
##hyper
expose
→
subur
##ibul
recl
##forated
##multi
prevalen
##nosed
##noses
##some
##'s,
##formations,
##expres
##wedish
terminolog
##istrati
##atten
##rinter
θ
decomposing
##material
##entiment
##umines
##rican
##uco
redesigned
##solution
##ardened
##tool
##ompl
##ago
##-low
##oment
##aval
##finer
##achining
impactor
##ackel
mouse
demonstrator
##tradition
##numer
##ueto
##conception
##fident
##onged
prover
##utis
##ancer
##acer
##nament
##itrat
##terest
restin
export
curing
mouth
##west
loader
Fing
sor
##anob
##destin
##obser
##also
##orer
Iner
##ween
##modeled
##ordered
##ctober
##otyp
##ofing
##ecure
##ffil
##vir
##computin
legitimate
;
##owel
sodi
##rosive
reman
##aints
Fort
floc
##existing
##mato
finer
µ
##ferenced
##alloc
##studi
##esolution
##gistic
obe
##anotechnolog
Stere
##anon
##gic
indetermin
diffuse
soften
##igib
fet
##measured
##ximator
##bu
∞
##rene
##It
##romosome
##erob
##automatic
##ultimod
contrasted
##stheses
##multi-
unexpl
##eming
##cts
wed
##heromone
descen
commis
fic
##semanti
##racto
deser
##bas
aven
##ointer
##vester
##large
##senes
distributin
soy
##maker
##possi
impar
timed
dich
Indones
##moti
##esh
##ustworth
##ractor
forese
##uchy
wastes
decon
##cession
##aviti
##trar
postur
automating
##lining
##prone
##tist
recovery.
lowered
##edit
##irit
memeti
##uges
deleg
preemp
##aked
##raphene
##revic
males
##kers.
spare
##single
##arer
##ima
##compar
##kewed
##spar
dor
##ongest
##liner
##henotyp
fired
fear
agility
##partic
##rofl
##rof
##cler
##eno
##emo
##ese
##general
##iasing
unobser
τ
##omotor
stone
destructi
simplex
oracle
acet
improver
##tisement
##iating
##classes
##umano
retra
fen
##ferent
##mability
##neural
##omin
##dop
Ω
##ecovery
commen
##uese
fires
##decision
##inet
##devic
##sines
Cong
##ermin
contractor
##sition
##method
dates
##isodes
diffuser
##riber
##umour
##etra
ber
##habet
##@
##differen
##asoner
##weden
traveled
##faced
spaced
##ffle
##haring
##rorobot
##determined
##onetheles
##otechn
mating
ω
multisensor
##simon
monet
aren
ply
##alle
levit
##gover
##≤
##mol
##haves
##ffened
##clim
ages
##ximally
##resour
##hev
automation.
##fere
##aman
moc
##generate
##three
##iro
##optimization
##distribut
##pletion
masking
##itra
##haple
hed
##shev
valen
##ostering
##vile
##arin
prest
sole
dir
##chy.
##lare
machin
(St
eleven
##asures
##elematic
##egener
##stematic
##inste
fighter
##vies
##iam
##rospecti
compose
multispectral
tractive
##study
##parates
moderatel
##presen
##gear
fillet
##conditioned
##ravimet
workers.
##uche
fuses
##sects
\
##cepting
##istakes
##mining
##abular
##onest
##plen
##resp
##lecting
##oy,
##driti
##sidi
resche
##enetrat
multinom
##uene
##suc
Alex
*
##gnores
##tour
inex
##features
##mace
##sort
##abeti
presup
##osol
##ublesh
suspect
##avir
dot
##otherap
##elemet
##egen
##knowledged
##ackers
##moment
##trave
##plex
##icitin
##istential
isother
##xima
##omar
##•
discovery.
formative
##eren
##As,
##robust
retrans
##fut
##classifi
##elevis
cure
sediment
##nover
##uest
##decompos
##mos
##ffir
newer
redistribution
##uency
##conel
##images
##teger
resort
demod
Indo
##imaging
##imposed
##iates
contest
~
mines
differed
##henol
attractivenes
##ivery.
mined
·
##rout
decomposes
endowed
##ractice
##celerates
##hased
##ibler
##hatt
clarity
##pened
##ffi
##abouts
##kers,
##enome
##irab
##hend
##ologic
respects
##card
##inom
framed
##ffl
remem
##aparo
##covered
##imede
##algorithm
##roman
##sico
##asp
##hared
##bene
##isodic
signall
featured
##nout
chances
##rolet
strand
##riging
##allet
##gone
##ropl
##uminous
##ardines
##frames
##aby
cob
non-local
##sevi
##iffus
##networks
##ffener
##istur
##ede
##oco
##amodel
developments.
distributor
caregi
reti
composing
song
##oma
##dempot
##facet
##rigonomet
##riding
##atement
##testin
##riming
recomb
endow
south
reset
dog
##outher
##ä
##sioned
##eser
ν
##semester
##electin
##lerate
elective
##ille
##iariti
##oneti
##enom
##stereti
##egically
secured
posted
##mop
securing
##omotop
##ardi
isomet
ath
valle
##ampler
##iters
Still
##ocy
supporti
##netor
inel
thy
##sun
##cored
north
##rav
##itects
ster
##ustworthy
##cases
##select
##many
##romosomes
flower
##outinel
disparate
##marine
##times
inflow
Fine
##technolog
##earances
##roforming
##dischar
##amaging
democ
##osy
stuc
multitask
##rother
##acel
remin
##osti
endog
conditioner
##omolog
##iman
conti
κ
##mogor
##idues
##abul
##enth
##istent
indistin
##oden
monop
inefficiency
##espec
##ó
attenti
revit
##℃
##discre
intrac
##umen
##mand
##chased
##ilent
##osene
##sust
##main
adoles
—
recorder
##ecor
preset
##behavior
##ilevel
##adric
##oren
##adically
discovery,
##dot
noth
##compos
resortin
##This
##δ
ending
##ramp
##itis
stit
##estimation
##common
##rele
##ake.
ρ
##isecon
##hery
mere
##olet
##eleroboti
##ivery,
##larged
##rimer
##buc
implants
##accur
fis
##sectin
##geneti
##alumin
##utof
##istemological
##near
bevel
pron
##″
##rorobots
##math
predec
##amation
##iamese
##ctic
mover
##momechan
discard
##eran
π
exposures
##unterex
##imoshen
##uminos
##arine
undec
##Δ
##utomat
##sodic
meg
##infl
useles
##γ
compliment
##ulding
##tisti
formations
##“
##oneme
vet
##imated
##haved
##stral
##enew
##esti
##stracted
##emplary
##robe
discarded
##disper
##viz
##development
##enetratin
##isunder
semesters
dimethy
revise
##emen
##í
makers.
##implement
##-loaded
##iation.
##isuper
bent
##llinear
restruct
##stin
mail
##sid
busy
rent
##è
##achi
##agit
##spaper
##classified
##ightened
desor
restored
##fiber
##mper
basket
##namel
##structor
recovery,
##aned
cones
##ynamical
mother
mesos
##θ
ϵ
##ocally
##mates
##anoparticle
##vetin
##oded
##prediction
##produces
##ampered
predator
##ubles
##resse
##particle
##fused
##illet
##fuse
##ximations.
singleton
renewed
##hich
Stim
exposing
##mour
##stracts
##automated
##ractive
##chen
##inesthe
##icants
##omati
##ffen
testi
##ermany.
##chy,
##adon
##centratin
##interest
##orther
##sioner
##cured
##orel
##rosp
##cep
?
##arances
sorts
##≥
contrastin
##Ind
##gyp
##sionally
non-l
went
##ctives
##entrally
advising
wester
moly
η
##anging
##hy,
automakers
dementi
##acto
##unes
##profit
##sters
##mine
##inti
##feg
##ego
inor
##enetrator
contrasti
multiset
##reec
##nessing
respectin
##idesh
##rimes
##tract
##effectivenes
##inematically
##between
##call
##vine
##fide
##mant
resh
##ermany,
##flower
##ocardi
##isure
##fy,
amino
dome
##ω
##commodatin
##vilinear
tempered
##→
##iberate
##alecti
distracted
attracts
##igi
##tractive
##tsu
##vider
##store
##oured
needing
##eche
##Fin
dos
##andon
##methy
##isper
##ç
federated
registers
##roboti
selector
##conditions
##firing
##enotyp
##bec
##iff
dish
##ifested
diseng
##unof
##ogo
##akers.
##ecy
##onological
Aspects
##σ
##wester
##ston
##eff
##forese
##illen
plent
anode
orig
##lection
##funded
##ashe
rob
##desc
##routine
##adowed
##igil
##experimental
##usters
##ifesp
Tour
Anomaly
##odily
##omon
discur
##otspot
##asured
##otstep
##entin
##ersi
bun
##ronom
dosing
pleth
##robots
wasted
##olen
##mator
##wet
devising
disent
##urant
##ofil
hedon
##problems.
##conomet
##amelet
##iron
developments,
##fusing
##adver
##tone
inflection
##riples
##dride
##agin
##atever
##timing
##akest
##when
##imon
acted
amel
##√
clarification
decompres
factored
effl
##application
##istemolog
##kstra
##isol
##atit
##conditioner
##gnorance
##esigner
##spot
##evis
notin
supre
undo
##henomenolog
##omple
multith
dat
##commodates
##olent
##fited
##drit
##spectin
##spre
##hati
##geles
##wares
##oprop
##nop
fighting
##susp
abuse
endor
##ighe
instructed
##routin
workers,
##rable
##kele
##sole
subas
##modes
##travi
##focal
##sper
##φ
##isode
##minen
Inequ
##som
Ł
##reduced
##lective
##gocent
anemomet
##fitin
##ceded
arisen
restit
Tomog
##sod
declared
##harden
##nesse
##anges
##atts
##ometimes
##eworthy
##student
##ocomp
##central
##theor
expos
##commodated
plantin
##hail
##vise
##odical
norther
##maint
##aso
impreg
##rile
##distur
##rofile
##opar
##tico
Γ
##rader
##anet
##ridi
##akened
##isuse
trader
##…
##tethered
souther
retinop
plen
amor
##transp
##limate
##twork
##istop
##got
##otechnolog
##owered
##urob
Aspect
##^
regenerated
##tractor
##bular
waste.
tasked
ample
ore
contracting
##ermanent
##otspots
meantime
##iten
##akes.
calen
cof
practiced
##adril
##comet
##will
##umentin
##amacher
##aton
##amor
##bler
ended
sow
##anomet
hyperel
##venti
##mesh
decor
##raphe
timest
##named
##aple
tones
ere
##fically
##fired
desul
##entran
##resen
##tiloc
##reson
wearer
reno
##ocomotion
##lled
Indire
##epresentin
##ogistical
##iberatel
##itration
##besto
##wash
##iri
anesthe
##obes
canop
preg
##character
##osensor
##oading
##ariff
##mac
notor
aber
##elecom
##cant
gone
continent
##ogist
timer
strap
inton
##ediment
##ischer
##plants
##ragon
##siles
##vich
##umon
##oloc
##hex
##rev
poset
Φ
##processes
##ichard
##moset
##elet
##-led
##All
##à
∨
##iclustering
##ultimedi
##nots
##mati
##bes
Ast
##itist
mall
distractor
##ypothe
##ubled
##ulent
##ucoma
##aran
##dof
clarifies
##icardo
modem
agro
##fferent
##avenged
##gnes
##rosimulation
##distor
##solet
technologically
##interested
##ethered
##olec
multin
##formability
retraction
##andoned
revising
##ffled
Strati
Σ
Θ
##minimal
##pren
Ash
performer
##restra
##profes
##ultis
exposes
##idati
posing
nest
##problems,
##clusters
##hering
caro
rer
Stop
commanded
##odine
##erse
##ynam
##cone
hearer
##kep
##alect
imaged
##dsp
##transition
##nered
##agion
corrent
##avis
signer
##rose
≈
##isorder
decorre
newest
##iano
##ewe
##ighth
##domen
##heng
##clut
##hero
experimentin
##evin
##stim
sump
##ximations,
##fed
##methane
##osters
##ceptor
##oned
##blen
reth
somato
##pent
##Top
##revention
reconsider
##rimate
reducer
##entor
##ularis
##there
##ferer
##plet
##gy,
##ongevity
##isection
##egoti
##this
unde
##τ
##present
deletin
##texts
Fortran
##was
##omaterial
##reeding
worthy
]
##flecti
##ober
femor
ℝ
##etworked
##abulari
##izers.
##estur
##pots
##emar
##bet
enem
##reaching
handicap
outran
mand
##-loading
discarding
##trat
##nex
asper
magic
fight
##dil
demo
disprop
makers,
##ira
insti
rem
commoditi
##risoner
systemati
stego
##methods
##nodes
##soles
##qus
underestimated
Congestion
##urofuzzy
combusti
##antine
sevent
lime
cured
«
##important
##spector
transon
hemp
modeler
##pentine
##ropower
##dentit
##agic
##onoc
##vising
##igin
##vene
χ
presumed
basing
indig
##‘
sut
##centrator
##imations
##eclar
itiner
vesti
##cet
apple
alle
technologist
##corecard
##imes
##iton
thigh
multitasking
##trast
##emin
##alen
hemodynamic
##entimet
patterned
##tested
foremost
##ffetin
chic
##stimator
##avid
washer
enumerated
##acken
##engines
##astopl
inexper
trades
##agel
##anop
##asel
##egin
Thic
##asters.
##emotion
##akers,
##mort
##uran
estimations.
##regener
##appl
##uset
##diz
##egistration
mandated
onomatop
##lary
##andi
costin
##»
##stimates
##elemedic
##adrid
##simpl
##oston
##mear
##odog
stran
##ragility
##dorandom
##ffles
##kenes
##utob
##maco
##ronological
##omachiner
##estioned
##igner
##odor
##tes.
redire
##ofer
##uner
fishe
##rer
##ν
demonstrati
##lerated
##redenti
##agogies
##instor
##eleman
##demog
realloc
##iffic
##moter
##iad
##secure
##iament
##bases
##cloc
##tivenes
delim
##estimator
##aritime
##istake
##erants
##ecall
##ctivenes
##profile
##roplan
##gile
##inematical
##oregener
##iations.
##itement
##effler
##intro
integro
##than
##copl
postin
##stu
##vesto
##eache
upload
unobt
Allen
##osu
meso
##stracting
##atitis
##ronec
##fload
##dsen
##anow
dots
##vehicles
##ceptive
##commen
##ofidel
##sised
##ples
##And
##Â
€
recalled
denomin
##â
diffused
terminological
amal
##formances
##tilinear
##hadow
##mouth
##emer
##enet
demer
amine
plow
##ompletion
registering
wherever
##onemes
##imate
anodiz
##seth
##sop
oran
##effects
##surate
##ounder
##lenes
##ocor
##opl
##mpowered
extractive
##uropro
##tects
agnosti
undet
##ilestones
##states
##chases
##namese
##ramer
spacesu
##dril
##inodynamic
##rather
##anoma
##rith
##osoc
##vesh
monog
##ressivenes
##icide
masked
##leng
##isen
aster
donor
abut
##ilestone
##travel
##hage
finel
##meg
##umper
matting
##ximin
automor
##lds.
atyp
##kering
##nomin
##urore
##necto
##evit
##fy.
Tower
##utomatically
##ublesome
multimode
##atelet
##netis
##racy
##Tor
coprocessor
##icant
##usher
##llar
##bedo
##largement
##analyz
##rapher
recour
##rimp
noble
##research
##istin
standof
##illy
spro
##elder
##rided
##fires
inflex
##omop
##hamp
west
obes
##ã
##formativenes
regenerate
##posure
##acecar
##aminer
##raper
##ctop
beach
doses
datac
##different
##contrast
##ifetimes
##transiti
##tracted
##eproduc
##tracap
##proper
##avines
moth
##methanol
##monotone
##ricane
##ersion
##simple
##avenge
##risto
##oused
detour
stones
dereg
##gol
recal
medit
wast
##anomaterial
##instit
##uging
##basel
##odent
##limp
##mate
cane
fum
##isimulation
##ractices
multistep
##dataset
##iterate
##aven
##acec
##inog
##dol
##hy.
√
##mechanism
##makers.
unordered
##henever
locomotor
##editin
##rides
##sules
advis
gim
##Tolerant
imagined
prespec
##monly
##momet
gig
fid
##ñ
##ℓ
ξ
##ardation
##ablenes
moderated
##isenes
contra
##hair
previs
anech
resup
poth
transplant
##models.
##exting
##planet
##emain
##adesh
##ldest
areal
##kem
##̄
®
##teaching
##esigned
##ouston
##extern
##amard
operand
traded
##anth
matt
Wet
##abases
trademar
##paper
##exter
resume
##ador
Therap
methodical
nestin
dem
##̃
″
##poster
##chard
##inoma
##imat
##cout
mole
º
##anostructures
##enerated
##asoned
##erster
imagine
##usor
isog
##correspon
##ethane
##orthe
##estor
demol
℃
##entially,
##atting
##ributi
coplan
##ratt
##dise
##gy.
Tol
##π
##knowledgement
##romachining
##experiment
##practice
##sector
##idimen
##renew
##eleg
##onge
##obel
##wen
desy
extracur
##bered
##hered
##iariz
##ricle
##velet
##adel
##ofe
gos
##formally
##ateles
##tinger
incredi
##roben
##ritis
##medo
overestimation
contracted
semesters.
##-large
##diment
##ventin
##aspect
automati
##iati
##dog
anec
##edition
denoised
behaving
##idist
##cased
##evere
##pares
##ller
##routines
##marised
##izers,
##molec
##noti
##omag
##nequ
##ypro
##amaterial
##rastruct
##achary
##utisti
##adout
unempl
##onos
underestimate
##umatically
monotonous
##database
##ocer
##abus
##edo
ψ
##arithmeti
##itesimal
##marises
##ocar
##κ
##Ω
##roroboti
##ainous
##ksonom
##astes
##ffloading
presumab
##eeding
attest
##amar
presti
##formant
##estra
##uror
molar
##odo
##η
indifferen
transester
##ardised
##airable
##mathe
##haser
##rore
##name
engen
##ynamically
enumerate
##ecover
##ateson
mandate
##cane
##particles
automates
##marines
##romotin
##reenes
##kerman
##were
ventin
softer
extrac
advec
mater
overestimated
##given
bever
##ϵ
##anofiber
##warder
##unen
dim
terminologies
distracting
##amodels
##improve
comments.
uploaded
##sened
##aret
##contraction
##intestin
##otoreal
##rimates
##reache
denotin
##dowed
nonemp
redistribut
##formati
##needed
##master
matured
##emeti
##icial
##athy,
##fest
##esol
fisher
filed
##⋯
ane
##makers,
##ightest
##urants
mandates
##rosur
##iabet
techno
##anoc
meth
##parameters.
##alleled
##ctivel
##osture
transpos
##imally
##gesti
##outhe
##lects
acetone
##into
##ô
##stractive
##fighter
Tolerance
##ultist
##seven
retract
##sest
##alar
demon
##descent
##higher
##worthy
##cestor
##iciti
##mager
##genes
##enon
##fib
##Wen
rater
##extraction
retractor
##forest
##owell
erasure
##Wel
conor
##ρ
optimizations.
##ostered
##pletin
indiscer
##ocon
##hant
theses
impos
Ander
Asp
@
##estimated
##concepts
##istering
##chic
recap
##acl
din
##characteristic
##provided
##ocompos
##effor
##hale
##commodity
contractive
##icontin
##erated
##inel
##lds,
monoch
}
##multiplex
nonetheles
##proposed
##ocomoti
##attenti
##posel
##regon
##somap
##ibus
##dsor
…
##candescen
##videnti
##ressur
##handed
##tised
##chant
##ocent
##edes
overestimate
##ederated
##ificiti
##oples
##tiser
##waste
##rish
renow
Fore
##iations,
spectrally
##medical
climates
##tives
##igion
##owen
##nob
##compared
patterning
##andidate
intimate
advised
##arent
recalc
##alet
ama
##climate
##atened
Iterated
##preemp
##hagen
elected
##oner
##adil
##Ther
aval
##onoton
##imel
Stone
##apotransp
##singleton
makerspace
instruct
##isters
##larges
##impro
##unti
pareto
##abed
##este
##ibet
##vion
##every
##elly
##iste
##imor
##acke
##iso
##ademacher
multisour
##adened
##rosthe
##antin
##visti
##rave
##aber
##loch
##iap
meton
##machining
##workers
##vesters
##tellect
##oratel
##worker
##iamon
##ugin
sper
##º
〉
restructured
searcher
profiled
disposed
##allen
remodel
##romin
##preg
##orec
resur
bure
##eparate
##asters,
noiseles
##anoman
##denot
##ulet
##tral
##mpre
Allow
flare
remap
##sof
ische
underestimation
##utomating
##sumables
##atterer
iterates
##esters
testimon
##othen
##rider
##macy
##lime
datal
##rex
domes
mash
##`
legitimacy
##hypothe
##achiner
nonorth
speeded
##iasti
compost
##evil
##otop
anodic
mast
##č
##amate
##inth
##leti
##gene
stenos
monor
reran
à
⋯
##applied
##iabeti
effecti
##wenti
non-le
##eget
##eto
Aside
diffe
##ldo
tob
##dimethy
##ustion
##mentor
##omores
##sides
##icles
ventral
##parel
##exton
##mone
##distributi
##improved
programing
##abletop
##explan
##timed
##hasor
##iacti
##uste
##itop
decar
##omo
##dat
##〉
##†
##automatically
mastering
intraclas
##astened
##tenes
##orent
##ignet
##antor
##dsig
advise
dither
##penetration
##ersistent
##istaken
hermene
##kesh
##aine
outset
regist
##oset
##ractically
##fighting
transpose
##olaris
##siflex
##canon
inoc
##€
##dospectral
##contractor
##develop
sounding
##takes
##aples
seventh
stent
leth
##roparticles
##avenumber
speedomet
comments,
##distin
##ticesh
##trane
##ompro
##moder
##athy.
##aplan
##leran
##lari
discor
datap
ken
##stimate
##entit
##ereal
environ
##anopl
##dequ
##ithe
amorti
##avel
##odon
dit
##completion
##curatel
##omolec
##berant
##nesot
##ucer
##thy,
##rama
##ido
〈
##osignal
##formate
##sement
##better
##probe
presump
hypered
iterate
##tenti
##adop
ith
##stimated
instructi
##rofil
##olev
##hash
disor
presy
mot
##rospect
##uencer
##inclus
declare
##leven
##ardin
##unout
shower
##enor
##ogis
##cob
hemor
##anostructured
##rospects
##olarimet
##ementiti
##ultinom
##ackers.
##randing
##Forest
##reduce
##tector
##alects
##raver
##somet
forego
##roma
fores
mower
mandi
Foren
sod
##anostructure
##iparamet
effectin
##enomes
masters
##robes
##hare
finest
##elle
malari
##dos
##may
datin
cant
##candescent
##hardened
##gomotion
intimatel
##identit
##teacher
exports
nonover
##stiti
imports
##icle
##dour
##need
trash
gif
≠
disordered
##roformed
##reener
##therap
##ardis
##iamet
##regor
##gelet
##acan
##onel
asth
agit
”
##roservic
determiner
##calariz
##hancer
dimples
relocal
##omed
##ubur
##iari
##show
##sex
##≈
##ethodologies
makerspaces
##portion
retracted
##elimin
##mored
##rison
##iflow
##maris
many,
legib
sten
£
##representin
##obtained
##andel
##rachi
##femor
oracles
clever
##omat
mop
##gistically
##elesti
##siden
##ressi
spacer
##aric
fines
Ton
##，
##instruction
##istakes.
##ffection
##olariti
##certed
##gentin
##cener
##iplex
##ento
grout
##ffe
femin
##fun
meme
∑
##ationales
##raveler
##funding
##utsche
##omesti
##abeler
##intake
##terno
##iffer
##eme
demar
malle
##implex
##strand
##templ
##marin
##ando
##dric
Anon
Tom
Π
##imation.
##comple
##ische
probed
deng
Thy
##addition
##esearche
##anosecon
##romotion
##cancel
mastered
##rostin
##propos
##below
##rally
somatic
##rimed
##onol
##iage
##they
##uger
nonex
arity
lary
##ustempered
##exposure
##hically
##stones
##emale
##mach
##hending
##egister
##comer
##igiti
##anech
##itec
##iffi
regro
##hak
##had
amate
##gis
Aler
redo
##technological
##rosecon
preselect
##tasking
##spaced
##compre
##thanes
##acant
##romes
##onosp
singing
groutin
##There
##rinth
dimple
##Iner
isomer
cand
dof
⊆
∧
informations
recompres
##framed
##miner
##astor
handed
##egis
##tisy
##izen
apples
fumes
##practical
automaker
##romoti
##mines
##ancel
##sise
##tram
##till
##giz
isost
##dig
Tong
â
⊂
##romachined
preexisting
electives
##orkers
##cancer
pronomin
##minor
##moche
monomer
##roles
northe
##isor
##irac
##ugon
##oran
hemato
isent
systematical
estimations,
##classif
##levered
##sumable
##marise
##ardest
##imethy
##rasing
##adison
leaching
##instem
##nouts
##gized
##iditi
##ulded
##utout
##racle
##molog
instin
indisc
monoco
##icl
##Sti
##odynamically
##icomputer
##sometimes
##adiscour
##edesign
##hatter
importin
##ispect
##agogic
##among
##ineto
##rosis
##fund
##omel
##erme
##topl
unden
##git
##cto
aram
Ale
Λ
##parameters,
##eveloper
##angevin
##floaded
##isotop
non-ling
contral
dentist
##iffor
##iric
##cede
##cere
##West
##ricy
##icir
Cone
##framework
##continent
##motherap
##untimes
##gerated
##chaser
##lector
postoper
##urate
##their
hermeti
##hates
##tice
nonequ
##ndos
isobut
trabec
comet
##iac
meti
##uroroboti
##iclusters
##hanumer
##stratin
##flecto
composes
##timet
denoise
##rames
robusti
##idest
##imply
operant
##amag
##aren
chase
##tof
##ndo
##nen
strad
Alar
ade
∗
##abulation
##supportin
##models,
limestone
predistor
##romolec
recomput
##romob
##ifing
##amoto
##alary
##anobe
##hall
##tene
##iak
##ξ
##ethodological
##omechanism
##evised
##traver
##tione
##reest
formant
##enev
##fled
decont
take.
gon
##∥
##lectivel
##estimate
Tolerant
Anemomet
##eeded
##ulter
##pron
##ughe
##idex
pareti
regol
##umo
##ë
##transparent
##moforming
##consider
##attened
##osystem
##amouti
##estate
##astran
##hating
##avies
##emple
##umar
##ffed
##eldo
##ingo
onesel
caring
masti
stew
dear
hect
##ć
##iautomatic
##networks.
##etermine
##imposing
##lowest
enduring
##sparen
##omedic
##reeman
handing
##antis
##alene
##nexp
isotop
##mono
##Indi
##neco
eras
medo
##demonstration
reconsidered
##interestin
##herically
##selectin
##isother
##achen
##ripar
##canti
##epres
##file
wastin
revel
isop
undetermined
##scherich
##ximative
multiples
##contour
##olester
##echnol
##omeles
##tetra
##certi
##Index
##amas
##etit
##gir
unoc
besp
agon
##š
##heromones
transposed
semesters,
##odemog
demining
##ugher
##hable
##bund
##ilow
##ema
##gos
##won
##Φ
##∂
##ú
∥
##investig
##formants
##machines
##transit
##sidered
##rofiles
##sparent
##akedow
##anoshe
##ersus
##feres
##keles
##tinen
##tines
Anomal
##iard
##mosy
disul
mated
##dem
soma
##̂
##algorithms
##omerate
##namomet
##nested
##moured
intracor
##ectra
##ubech
##elen
##nent
plenti
##fif
legen
arid
cher
Tob
##χ
##ximability
##anoroboti
##ainflow
##behavi
##etinex
##onolog
##otorec
##semous
##imous
##entra
nearer
##aill
##dish
##ofed
eradic
##sot
inedi
why,
une
lar
##operates
##elerate
##command
##sifies
southe
##ardo
##ibu
##idynamic
heretofore
threedimen
##students
##exposed
##ecuring
##ctorate
##transi
##buses
##ridis
testers
##apple
##encer
##male
##ibe
##automation
##strator
##reventi
##format
##stere
##fores
##oader
##iagon
##vered
##trade
##meth
##ogin
##icar
athero
seren
##considered
transitioned
formations.
##etraction
isoparamet
##ricanes
uploading
combustin
mentored
##uplet
tasking
uneth
Store
endo
##µ
ery
##automoti
##reventin
##omerates
##results
destined
##strati
##hended
##romate
resumes
##ecton
##odin
##Then
##rico
##agos
##fle
clash
chev
##¯
##effectivel
##researche
formatting
##creditin
diffusing
##ultin
##haran
##renet
##discl
##ulted
##anocl
##meshe
##achin
##iaget
##kest
##isim
##llen
ach
noc
optimizations,
##behaving
##predator
##ecorder
sectioned
contrapos
##inemato
##vially
##ureles
##idened
##candin
##itrage
##odeti
##dedic
##stake
dosimet
##itral
##elow
##esen
wasteg
##adet
nomen
comor
unor
Õ
##registration
enumerates
commanding
##tentimes
##stander
##mistic
##sidiz
##isent
##iracy
##ariti
##intra
##gomer
regimen
monom
##bum
fever
mant
⊕
##omologous
##speeding
superelev
##heritin
##alesper
contoured
##isector
resection
##utsour
##mined
finenes
##omos
##orto
##uged
##onog
##ofl
##nof
ℒ
∪
##registered
##discovery
##contradic
presents,
##andover
##atthe
##ubler
##hary
##mask
dispro
hemog
Stic
mate
##modynamically
##ultitask
##mation.
##thering
impostor
##resher
##letin
##dstor
##imin
make.
##fim
Alen
performative
##demanding
commander
timestep
attested
##attit
##surer
##anged
prestra
##atto
##ilet
##onon
remel
Wen
##Γ
##rosystems
##mproper
##ustered
##gesture
##idical
resorts
intake.
heredit
##utset
##ogos
##eton
intral
##ango
demos
unob
##otoplethy
##technique
##generates
##moderate
##usement
##istened
##grother
##stated
intestin
##habeti
##angen
##kened
##ueled
##iator
##rachy
caller
spares
##Inde
##tele
##aron
##eger
##nem
stum
arab
##ł
##ø
##ā
ϕ
underestimates
##knowledges
##designer
##dodecane
##rosensor
##idesour
##require
supporter
##sistor
##terror
##alleti
devises
##solar
##make
##ffet
##tine
##igo
demag
##wol
aller
##´
é
overestimates
##ramechan
predispos
spacetime
##acetrac
undistur
##mistor
##utofoc
##reetin
##rored
##expen
##desor
##sever
##illow
datatyp
basesto
##dong
##ibel
peren
stump
duel
fec
##networks,
profiler
##during
##having
##tingen
##isoned
##itinol
##conti
##igop
##noth
remesh
##iran
##moly
##iciz
##gots
##ulds
##achy
##why
presh
effi
’
##ractitioner
##optimally
multistate
##perated
canceled
##timore
##import
##rapple
##-lower
##atical
##raving
touring
wastes.
elector
##sular
##urofe
##eset
##elec
##atex
##dout
gist
nogo
##∘
med
##⁎
##hallenging
indifferent
##roposing
##mologist
##oderate
##ightse
##hallow
decommis
##isomor
##trasti
leveled
##these
meander
##nemon
##ighti
##ermes
disuti
domino
isoton
##ypot
##abe
trad
ale
##iprocessor
##accuracy,
##arantine
##machined
##ologise
##allower
##aceshe
##astell
##racted
##chants
##dened
##ximet
##previ
##ostur
##vitin
##devi
larges
##lint
##avil
##kste
anodes
##usen
aston
flesh
unem
##commonly
instructin
##ularised
##ipresent
contouring
##bulation
##itioner
formatted
##engined
##asketin
##itised
##mplant
##rimacy
##ustes
##anone
##illes
##manen
##kson
##rosi
##iffe
##geno
washe
undue
##ecl
festi
abus
dign
##˜
Ö
⊤
##systematic
##utomaton
##estructi
##acemaker
##cestral
##allele
pronenes
##omance
##idene
##acher
##rines
##uropl
##ogot
##emog
ampere
##alum
multim
##ipot
##chas
##mish
##ulth
##iast
##dema
bushe
##tet
##∧
⊗
##candidate
##required
##astering
materially
##angered
##reedily
imagining
comonoton
##oredom
##ogener
practise
dispose
forever
##umato
subun
##sog
eff
##Σ
##properties
dynamicity
##ustemper
##omethane
##vization
##fficial
##ristine
underexpl
##adecane
##romotor
##eviden
##decane
##anopos
##roster
##ewell
##comed
##secti
##erent
##dison
dentin
##dose
##Tot
##lel
haven
ashe
##É
featureles
moderates
##mations
##urates
##reeder
intranet
##minton
careles
##ispar
inexten
##leton
##inema
##enger
##mane
strato
inoper
##tesy
##amak
##idis
##emoc
nemato
##stet
##imo
resub
##׳
##simulations
##statement
##composed
restores
##tracts
##elecon
##rasses
##hery.
##spots
##mover
ketones
##omocl
##matis
##alari
disequ
##acar
##sesh
##ros,
##atti
##amod
Wer
##∨
舠
##istructured
##ultisensor
contractile
##lerates
commentin
##ouldin
##iters.
##worked
##diffic
exportin
basement
##etinop
chasing
##terer
##rande
##impos
##anter
##adome
##astel
##onet
##inen
##rono
dirich
##obus
##tst
mesop
fume
amod
##ž
ℋ
functioned
##iberated
##elecomm
##several
##implant
##meared
##rastin
neurally
##kevich
##uleset
##vened
##ldith
##disti
##mpres
##icari
##moreg
##esos
##gish
##aply
##cand
##onem
apron
##gow
Aston
endoc
##owe
##ń
##∑
##舡
##technologies
##ultispectral
##generally
##extracted
restructure
registers,
##resentin
##ackers,
##romethe
##ignocel
##limator
compostin
##minima
##asking
##fectin
##ermate
##rased
##kside
##ermet
##echar
##asher
##Stop
##ande
##icid
##dobe
##nod
obese
aroma
why.
Ø
##anofiller
##bumper
stranded
##aviest
##matter
##inomet
##stakes
##humano
##orane
##ucent
climato
##rager
##gible
##amele
coreset
vection
intrad
secant
##adri
##avic
##ecan
agenti
##eso
mound
cari
lev
##∕
∂
characteristically
ineffectivenes
##penetratin
##elerobot
##ffector
intestine
##stines
##compro
##ightof
##amocor
##airer
posters
##semak
locomot
##disp
##airo
##-len
Stake
senti
plex
dith
ƒ
##clustered
multimodel
##automat
attracti
##regime
##-lever
suspects
##chance
##noser
##dson
##adir
##enen
desen
##uby
leach
Fork
Tone
Alde
Ito
##ψ
registers.
##avenger
##ompare
##restin
secures
Foregro
seventi
##icion
##avist
##uton
##ugel
##cari
##alus
##omad
venous
dated
##ege
cares
releg
adobe
benev
##ocl
stun
ase
##Ł
distract
##elleti
##tiller
##illari
##female
parenthe
##nesthe
##ticor
##effer
##ustum
sounder
singled
##ribec
##These
##ampre
##ofen
stakes
##sher
testor
nomog
##ucy
renor
isocy
##⌉
ζ
##modynamical
##agogically
##unological
##emplarily
##mativel
##enetran
##icides
##igomer
##discus
##itened
##mament
intimacy
superel
##curen
##monel
##oreal
##iren
commin
##ripl
##icil
##apos
redesc
##hag
##bub
paro
memo
##≠
Wed
##ॅ
∩
methodically
##atransit
##ucharest
##radical
##onotone
##severe
##roposp
##iters,
##imedes
##ultra
##orker
##imacy
##egel
##nest
sovere
##omod
##flet
arable
##ithm
motone
many.
##Ale
airst
paren
##kst
undi
##undation
##iterated
##chandise
##rostate
##netores
##discour
contested
##profil
##soften
##oundri
allocent
##nement
##hading
##rasper
##forec
##egime
##orton
##reshe
##valle
##ispos
##imoto
##couts
##hages
##novel
transh
##misp
##ruce
##Fing
##vidi
##omeg
memes
amer
##æ
##ê
##attractive
##sintered
##federate
##oprocess
##hadowed
##ampere
##odeler
##coutin
##inequ
##atise
##editi
##celes
##ongol
##-lect
tracts
##ifle
##ibur
##amad
##umel
##ireg
applet
unear
Forth
stin
##å
##的
##prevention
##utomakers
##mological
##icluster
##ologize
##ughened
transitor
inflected
##tramet
##ifuzzy
##strab
##andri
##utshe
##reemp
##mplec
##rimor
##uther
##ceton
##icito
##inton
##ros.
##abas
##eshe
##gize
##osum
##ersp
intrav
##Asi
##Ton
topos
unen
hen
##gitimate
##contract
relearning
##deletion
##climatic
##rasound
##restor
##oprene
##nocent
##iconet
##Wester
##ractic
##elesur
##ainter
##orest
##ynamo
##ogosp
##Iter
##amal
##usel
dishe
##mad
Finet
##ß
formations,
mechanorec
##entinel
##atered
##atured
##hamele
##revity
twodimen
formable
##andof
##timel
##neven
##trand
##resup
monolog
foresh
##amos
##otob
##acop
##fes
##hyp
##wes
evil
atop
abel
##¬
##ॕ
Å
##omachines
endeffector
##roprogram
##elerated
##rosystem
##angibles
##leaching
##osystems
##timally
combusted
##redator
stateles
##stored
sometime
##ourant
##sortin
##unolog
##istun
##thene
adviser
##netit
endothe
##rofin
##somor
curated
##ksort
##thy.
monost
##amen
##oret
##idop
##icis
Tomor
canol
sorti
stur
veto
mow
##¢
Ψ
̃
methodologically
##resulting
##ypotheses
##rominent
reloading
impractic
##usters.
##gically
##sising
numbered
##sters,
##atino
##rinoc
##rinel
##tenth
##odrig
##odide
##magin
planter
##revis
##elere
isosur
flowed
##doco
##ndes
coflow
##drin
##romo
##onot
endem
sonog
limp
drib
vest
pren
##ě
##
ß
™
##conditions,
##determining
##contracting
##ificances
##imations,
intransiti
##ronolog
##weller
##ougher
##utouts
matures
##imper
legitim
improb
##ecto
##inos
baseco
##heno
tramp
dowel
##fem
##fis
##oso
retor
caric
##tso
oner
tout
##⌋
Š
##ronologically
##omatically
##accuratel
##clusters.
##ceptical
##ocontrol
##atentin
medically
##hantine
intraper
##filler
composer
##revent
##rester
##obular
##tranet
##mander
##icardi
##ementi
revises
##ellen
overemp
presume
##oaded
##vises
##viral
##astew
##acomp
##ulton
sorter
##ersu
##icor
hemodi
##loco
##esop
isoch
aceti
benth
ines
nob
##ı
##∀
redevelopment
##ecomposing
##accuracy.
##estration
##alearning
performant
##marising
##locally
##rolevel
##hatever
##avalent
demander
##tralow
##eventh
endother
##magine
##radesh
##inston
##eeder
##aste.
##adest
##haled
##lest
##hari
##asus
##teco
disem
outst
Alle
mach
Ster
dom
##ĝ
##ƃ
†
##ersistence
##anorobots
##rilinear
##rigidity
##iferate
##amander
##asearch
disposing
##randed
##result
##isobut
##cardin
##pencer
##toform
##ffith
##ieder
legible
##fion
##edon
trache
##igon
##obt
##hav
Were
cler
wore
##÷
##艂
##isimulations
##roparticle
transplantin
##iferated
##uralumin
##However,
##trasonog
##ialecti
##porter
##traden
##ellent
vectored
##arines
##amenes
##torate
##teller
##rents
##doran
##undes
##charo
##take.
##utist
##rairi
engined
agronom
##rimap
resump
beache
##viro
candid
##romp
##apar
hersel
monosy
##ifl
vel
##ş
##researcher
##extracting
##presented
preeminent
##provider
##omerated
##process,
##imating
##enerate
dithering
retiming
indolene
##astes.
##genous
##amento
##ersche
##erevis
Indolene
##imator
##itise
##-lime
##fides
##noded
##apply
##dines
Toleran
tragic
##uren
##lard
planer
##chev
hypere
##elar
##ksum
##oson
intram
strag
hashe
Fores
intim
##moc
evic
anem
ime
##⋅
Â
∆
»
⌈
ॕ
##ustworthy.
##tereffects
##imations.
##surances
##ditioned
##ifestin
##spectra
contracti
##onement
##igiditi
##odomet
##imagin
##emples
##onored
advises
##romot
locales
##emedi
##timon
##stede
##menti
##iatic
##epot
##cano
plenop
##irig
retest
##coma
flares
##rege
##nde
mates
##Θ
##₂
∘
⇒
##otechnological
##practices
##ressional
##henomenog
##sentiment
distracter
##irobots
##impreg
##rested
##vident
##edrich
##oughen
##edicle
##amaran
##isused
##ointeg
##irati
##reset
##omper
##medic
##ichan
endodon
##spres
##forma
##egist
##otrac
##domon
##mower
##aspar
##hants
##names
seminor
##upre
##uson
##osur
##obut
##rima
finet
##egi
##ewo
marit
undil
attor
posth
##⊆
ø
##roprocessing
##istentially
##techniques
##instructor
declustering
##combusti
##etrator
##oroboti
##modity
##ofrequ
##antime
##rerequ
##descen
##anthan
costumer
##fector
##seval
resumed
##oleno
##ratis
##otine
##lesti
##iterm
##memes
##rage
Inevit
##ongo
##diff
dispre
##opro
despec
Tomato
##dev
##dst
erase
##tsh
fecal
rand
loco
##contractive
multiservic
##databases
##featured
##trastin
practised
##imentin
##evising
##elletin
endocardi
##eremon
##perate
nonexper
##extra
##Ander
##isocy
indenti
##romel
##anout
erasing
isoprop
##hery,
##racy,
##ublet
##iblet
##hated
##asche
##ecar
##tish
##dest
##imar
##emet
##dele
##nort
##bun
##fid
steth
Anec
##ś
##‰
##ℝ
∇
predesigned
undeveloped
##eparated
##ultrason
##usters,
##utrally
##ridimen
##ropland
##isimple
classific
retinotop
##ipareti
##anomal
##dispar
##cester
underexp
operandi
##ubules
##rostim
datashe
##delet
##anton
remover
##furan
##fusel
##ucaly
##ermat
##ermot
##mash
##adis
##spro
susten
##asim
##ethe
##anof
##bump
##edig
orally
##emes
##gist
##adim
##Stor
##arid
##itex
##-lex
Stras
datag
obedi
##uec
##С
##∩
##­
##⊕
¬
intracluster
##transistor
##oughened
##omachine
problemati
##process.
##oulding
##andator
##allowed
##itecton
signaled
uneconom
denoiser
softened
##idised
##omprex
##noised
##aposed
##esche
nomadic
##athan
##echno
##files
##monol
##icily
##highe
##vigil
nowhere
steples
##mones
##timat
##unofl
##astus
##ndow
moneti
noised
tracto
##ugi
dosed
##‚
##Ö
##Π
§
##omological
##enetrable
##limation
##pronenes
##itising
##isonous
##actored
##marily
##onotop
##otores
##astral
##ricles
efferent
imposter
##atheor
fisheri
##seles
##seded
##anest
##oclas
##ropar
##airab
##kemet
##facer
##genom
##strac
transti
##agoy
##hama
isoper
erased
##apro
##atak
##ulen
##rosy
##hake
##hene
##osto
##kse
monob
##dir
##did
Fint
##£
##ý
shy
Ino
##∫
⌊
##istemologies
multimaterial
##non-linear
##utomation.
##approache
intravenous
##utomechan
##elerates
##uperated
##producer
##ressures
##istake.
##ctioned
instructs
##redomin
##etraple
##foregro
##ripled
monoprop
##actone
##sters.
##asture
exporter
##anover
##giform
##omatis
##deton
##texti
##corer
##vesti
##abeth
##ustor
##akesp
##Fort
rentin
##reve
Allevi
##cton
clashe
##-let
##cest
##agod
##mole
amines
##angi
##Tour
##dity
subexp
moles
##mam
marin
cures
tran
isos
##◦
!
′
Č
∀
ॉ
underestimating
redistributin
##stimations
##utstanding
superelement
##oprocessor
##discontin
demultiplex
##comodate
##ultimate
##datable
continous
##energy,
##rimethy
##masking
multistor
##respect
##idempot
##orthand
##simply
##drides
##resser
##soming
presumes
##icones
##toplan
handouts
multiti
##cures
stellar
##epler
##racy.
##ratit
##inous
##capro
##teach
##poset
##ostak
##rare
##unel
##sede
resent
##odop
##ashy
##sos
##Asy
##gec
##-ly
Astra
##Tow
amas
anew
stut
##ϕ
舰
##andidates
recondition
##hallenger
##profiles
monodisper
##ethering
multistrat
##llimator
##allenger
whichever
##trading
signalled
##reditor
##erstras
##covery,
##idestep
##alestin
remodeled
##larger
##idespl
##tioned
##tradic
##heffi
##isman
##ughen
##trath
dimpled
##cheff
##igour
##fenes
##doles
##raser
##scher
##ricar
##north
##ypots
##gomet
##nolog
##oging
mechano
##ocene
##leno
##tear
##ecal
##rosh
##ifes
##ocel
traged
##oble
##atop
##eres
isothe
forer
amper
pled
##Λ
##品
∫
##anotechnologies
##approaching
##problematic
##transparen
##ispectral
##romosomal
##numbered
##iational
##itectin
##ximants
##couring
##elector
##astisol
##mention
##ecured
##imager
socalled
##iffuse
##egical
parentin
##irobot
##reven
##subur
##Strat
##icard
##aille
##omech
##canth
##omino
##plow
##atra
locale
decomm
##iby
##keg
prequ
chequ
evin
ally
Inex
##ò
##​
##形
ℤ
##conditions.
performatives
##istraction
##decomposed
##anomechan
##patterned
advisement
##ocompres
##machiner
##estioner
##derance
##roprobe
##gnorant
##evident
##omemade
decorated
##ximable
activenes
preservic
##istrat
##discon
##ianaly
##aranti
##elemon
##corder
##silent
##ailles
##iplane
##ubeshe
##askell
##allard
##rofici
intakes
##tover
##ultit
##trash
##ermon
formate
hegemon
##ademe
##misor
technoc
##elles
##adish
isotone
##unto
##Stra
##bush
ketone
bother
##uers
##ucen
rested
##clec
##rato
##mech
##obul
##enel
memos
devel
##hay
clasp
Asimo
wasp
prer
ores
fist
bum
##〈
##∪
##Ⅱ
##。
⊥
##nomethodolog
##estimating
##istracted
##empowered
##networked
##ineffici
##register
##workers.
##titioner
##ainstak
##ametral
##rofiber
##contrar
##advisor
##otother
##forate
declares
##eletra
mandatin
##ketone
##osened
##idator
##omanti
##uginos
##alevel
##monet
##angel
##agile
##rible
##taker
##iprob
##enton
##ometh
##bumin
##omace
##ichen
##ditis
##ribus
fishery
magical
##impre
##alem
##atim
##outi
##rede
##eden
##rath
##mofl
##ugos
##etor
##ados
##dshe
recomp
cased
demap
##dim
actin
ditop
resy
nect
nour
anod
leve
dati
##⊗
dod
##ƒ
≪
„
Ⅲ
ℕ
薔
##nomethodological
##itransparent
undifferenti
undiscovered
##emodynamic
##severance
##clusters,
##nological
transplants
##ultimode
componenti
##stention
recomputin
##etragon
temperate
multisign
##rademar
##posture
predation
locomotin
mapreduce
##onorth
multimet
##sother
##ceptic
introver
##coplan
##roneed
##atemal
##asper
##fical
##odore
##south
bumples
##evine
##keti
##erma
##tere
stake.
despre
sedent
##otis
##ewel
##irar
chaser
relear
##asop
noses
cored
undoc
rene
fled
##υ
̄
∃
ƃ
overestimating
considerate
##estimates
##tereffect
##ultistep
##amodels.
##tempered
##alestine
comonotone
##antonese
##ramento
##especti
##isectin
##donoise
statechar
##limatic
##handong
##estruct
##rident
##espect
##lester
##tratin
##bustor
##Tocher
retracts
##washer
##ifesto
##discur
##intin
technop
detract
##oplar
##rigor
##renti
##aston
##ogiqu
##roloc
retinex
##emato
##ogici
##ismog
##andic
##Store
##werer
##rinet
##utra
##raco
##heri
##ndog
##giti
##anen
##Anon
##done
Stern
sober
##cof
they,
forex
carer
unex
pots
vex
gor
Ž
Á
⊙
##ethodologically
##larification
##fidation
##various
reconcept
##gentine
##theorem
impaction
##another
##motored
##dorants
##edicare
##oremedi
##emester
##ffinel
diffuses
##overed
##romesh
##masses
##romine
##atthey
##aneles
##risten
resuming
##emales
##ariner
frameles
##theses
##marand
##mother
##oplan
##reden
rateles
##caler
digitis
##arest
##iflet
##futin
multisp
##eclet
##asked
##neman
##derer
##sted
##Wear
monocl
##tras
relent
##omol
##ipre
approb
Westin
##oust
##none
spacel
##agol
##lowe
nosed
monot
diffi
stear
caly
##ɛ
ano
sof
fes
Ã
ॅ
##rostructured
##dimention
restatement
implements.
##ecovered
practising
##impactin
##factored
knowledges
##renoble
##ementit
##givenes
##mprover
##iposome
##odeled
##echnop
importer
##amarin
##gility
undistor
##gromet
formants
##dsters
##credi
##ochan
##medit
##ignor
##tithe
##until
##raman
##magor
##mance
##magic
##avari
##rimet
##docon
##orant
##atton
##foren
##unode
##adith
##deno
##sino
##ismo
##uben
##akel
##osem
##gial
##hagi
semap
erent
regen
lemon
disen
##shy
vene
##œ
##ℒ
##之
^
##methodological
preselection
##combustin
automakers.
##erminolog
##contrasti
rediscover
##discover
##continen
##strable
##ridised
##iformed
multitone
##atherab
##asement
##ultisim
clusterer
##antised
##oplane
speedily
electing
##acketi
forested
##amethy
##obased
varistor
##isomet
##gnoses
##linton
##angib
##echer
flaring
##demod
singles
##Indic
##thigh
##anoco
manomet
nematic
##ermel
##mouse
##rosod
Toledo
##feng
##ulev
##omex
##onop
##adec
##eldy
takers
##inol
##obed
##gill
##alut
##aing
retool
##alim
##Wer
Asper
forma
amply
comed
caran
##fuc
cano
##õ
##⊙
÷
≡
Ç
##echnologist
##reditworth
##automaton
##oclimatic
##llimated
##drically
##uberance
retracting
##compare
##impacts
##omasses
##isotsen
##ractile
##elecare
##akeven
##someth
##iffing
##amated
##ameles
##nologi
##atech
##atine
##reech
##fuses
##Alloc
##eplan
##atted
##strap
##veles
##hagic
##aprop
digitor
##regel
##tiles
undomin
##Fine
Indent
##sito
monocy
charit
##uech
recont
dimeth
##emem
##enot
nonexp
##iris
plethy
valet
##dsy
Aster
furan
##lly
capro
coman
Inel
futi
isob
Wech
god
##‡
ine
##與
ℛ
○
##acknowledged
##anomachining
##hypotheses
##itesimally
predetermine
##rospection
##etermined
##romethane
automakers,
##uberances
##elerobots
##ditioner
##ortioned
interelect
##hyperel
##-loader
##ultiset
##ationed
##omposed
##simplex
##ardener
##andelet
##makesp
##derant
##spacec
##adouts
##amedic
##export
##odrich
##osimet
Foremost
##ofemor
##norate
##postin
##ireduc
##entiti
##istone
##romod
##disco
##owest
multisy
commune
technog
##inout
##icore
##ecomb
##uchan
##ellar
##ostel
undisp
##bunt
##cter
##opot
feared
Strand
##orke
##ldst
abused
##utom
##reem
##mino
##mere
bedrid
##itof
##hico
##ofi
apro
grom
gour
ari
##§
##̈
##⊂
##˚
□
reclassification
##attractor
regenerates
##rostheses
##multimod
##entioned
##leranced
##oforming
##omposing
##elevised
##focommun
##ourally
##outsour
##osters.
##domesti
##irandom
memorand
##sinter
##masked
##riplex
##otoper
##stered
##matone
##impose
##etheri
##aplane
##omandi
##mopres
##ledger
##romedi
##agenti
##Tomas
##kered
momento
##neled
severer
##ibles
##ucher
##ework
##ersen
##simet
##democ
##nding
##cleng
##iesen
fischer
##oform
##icist
##molen
##suses
##thant
##malle
tonotop
##ubed
##stuc
##ugof
##unde
##isum
##agem
maples
##umas
##onob
retrac
##caro
##oshe
##omal
willow
##ucon
##rano
##edin
indec
##oby
cono
asto
Stit
Sten
sple
gib
##∃
##造
∝
≃
υ
##oprocessing
##estruction
multisection
transplanter
represents,
##lespace
##ismolog
##automob
##atticed
##sisters
##roplex
##fferer
sectored
##oundof
##loader
##putout
##edelec
##mainst
##mating
##igidiz
##ximant
discuses
##sterel
##ridine
##discer
##amable
##omosex
##ultith
##sionet
##urones
##determ
##hender
monomod
##amino
##rofor
costate
##ypres
##abund
##email
##vengo
##obule
firedec
##onour
transom
##ulary
##mocap
##ndire
##leshe
##larif
##arate
##chery
##mason
forelim
##dowor
##antsh
##amat
##ersh
devalu
##odec
##inod
##haro
##odol
##reer
##otra
##idos
fights
##asob
parano
##gig
##Tom
imple
datas
aspar
somer
canes
suben
endom
limin
gog
##∊
mad
##ﬃ
fim
aly
##�
Î
̂
¢
℘
ℱ
##environments
##ultitasking
##instatement
represents.
##determine
legitimatel
##acomputin
##workers,
##methods.
##ompletin
intracardi
##mposing
##iedeman
##anomaly
##esters,
##revalen
##rachial
##rimaran
##istical
##covery.
##utother
##anotool
##edomet
##impler
##thered
##amates
##ermane
prerecor
##lether
##declar
dithered
##idiser
##umatra
##laring
##rosper
##acedon
hypother
##coflex
##agenom
adenocar
##utored
##naming
##ipares
##reder
##chand
##iplan
discont
##tisoc
timecon
##strav
##iprop
##mated
##viser
charity
##ainen
##anocy
##vall
##emod
disuse
##tson
##esto
##osul
##adin
##hane
##avin
##ubel
##iand
##iato
##omem
##amec
##meme
##ugo
timev
lenti
##Tof
fuser
stup
Tome
##∣
gob
##ù
kev
##產
İ
∏
##isprediction
##odynamicist
##ostructure
##iclusters.
##ifunction
##asomotion
##sodically
##akerspace
indecision
##vesters,
##atternet
##ridecane
##mandator
##anodevic
firstorder
Tolerances
##raveled
Congested
declaring
##amating
##romodel
programed
##aspects
##reducer
##herever
implantin
imagistic
##rasples
##extrap
##cetone
##discom
##amater
##larity
coproduc
##arenes
##ficity
##umple
amperes
##tence
##sises
##romor
spacesh
##feder
##gediz
handout
##eleno
##mishe
##ramas
##ersof
##airst
##nded
##odem
##dsim
##ifin
vested
##upro
##oush
##ksen
preall
##alex
##adiz
##amom
##ithy
hecti
##usy
##Ash
clima
(Sto
nost
rese
coma
alex
##ﬁ
Tof
as.
gin
##⌈
performability
nonengineering
##onologically
##destruction
##ogistically
metaknowledge
multimachine
##odynamical
complimentin
##iautomated
electorates
##iterates
##vesters.
##ultracap
##ultisour
##olarised
##moformed
##disorder
##astered
##etherim
##emorand
unexposed
##plantin
##aillard
##igilent
##deletin
##omposer
##ocomple
Ineffici
testers.
canceler
erasures
##reened
##stores
##editor
##imothy
##agenes
##raparo
##ologis
##kerson
##vigor
##enosp
##robus
##unexp
##raves
##ologi
##actit
##amari
deminer
##prono
Stiller
##senet
##uming
##abile
##tisol
##olaro
##umoth
##andow
##combe
##etrag
##mack
##busy
sonobu
##desp
##adol
##ugen
##aile
##etis
##apot
##Alex
##reff
##oste
decomp
##tich
##nore
##idon
##ibed
##moth
##seng
##unog
##ingi
##alev
comer
##obu
resel
dimer
splen
reval
copos
pare
moto
As,
##≡
##≫
uno
##ˆ
##ż
##⊥
##設
ĝ
◇
ľ
##edistribution
##romechanism
##ismological
##attraction
##oprocesses
rediscovered
redeveloped
##ampattern
##ignorance
rediscovery
intraneural
##supporti
##supports
##itering
##uperate
##comment
##stellar
##enetrab
##ecoming
##oposter
##herents
firsthand
##idising
##rofiler
##tingent
##ifilar
##ighton
##ticloc
conduced
##dinous
onedimen
reconver
##umplex
imagines
posters,
heredity
intramed
##omothe
##ristop
##ageran
##intron
##avicle
##adomes
##matist
##optima
##ravent
##trapos
##soter
unoptim
##eplen
##rappl
##effen
##washe
##resti
##haven
##arist
##alese
##strad
##actob
##tones
##amese
##halum
resequ
##ongi
intrab
##elex
##sodi
##esor
##arim
##atem
flared
##isog
##veco
##neth
benton
##teno
Stored
##ubas
softwo
allele
##mint
##ksto
knower
##dob
##tob
beset
##gne
endol
demp
herm
ket
ist
##Ì
##̊
##生
∊
É
ℂ
á
problematical
##ustworthy,
##missioned
##llimation
##rosivenes
##fectioner
##impacted
nonoptimal
##profiled
##vigorate
hyperexten
intestines
predesign
##herally
##esters.
##imposes
monomethy
##isters.
practises
##motoren
##atechar
##itrator
##acetime
##rintout
##racting
Wentworth
##romatin
##eletion
##gerate
##ecorre
##encent
prealloc
##avigne
multiseg
##olenes
##bother
##ismant
##mpossi
##aristi
##tetime
##hagocy
##presup
unexper
##certs
##areal
##rimon
##silen
##andor
##women
##ffiti
##aines
##parer
##cones
##andin
##valed
##anden
##tored
##Stere
##sedes
##ramos
##omacy
##undin
timeser
##romal
##umoto
##undic
derever
##buse
##sost
##umpl
unorth
spared
##ceti
##ndic
revalu
##rino
Theses
##llet
##esus
humane
inexpl
##agor
##suno
##esem
##sema
##igos
##sow
undel
ation
usher
nones
effus
selen
mecan
demot
Forex
grop
tofu
##«
##î
sob
##ζ
##‖
##‒
##⁡
##舒
##利
≻
∅
⊖
ι
##demonstrated
##tractivenes
##ternetwork
##akerspaces
##cloconver
##econsider
technologic
##oranthene
##ethodical
##-largest
dynamicist
##icompost
##onocardi
##stering
detouring
##othened
transitin
commonest
##iresome
##forates
##iativel
##isters,
##resumab
##ortines
##crested
##ainstor
##resters
extention
digitised
##oterror
##rosodic
##ibuses
intramod
##onomer
##yperel
##obules
##omeran
##lerene
##roform
##elemar
##kesper
##anomas
##iconor
unexpres
##uronet
severed
multish
##manti
##tises
##riply
poselet
##leles
##odesh
##anole
##robur
##basti
##itech
endomet
foreman
alleles
##trab
##alun
##egro
##Indo
##irer
determ
##fear
sprout
hasten
##cele
##rach
Stores
limous
##ucan
##mpar
##idol
preseg
##stev
##onof
inthe
dodec
stell
maple
sones
comma
gith
asex
##Ã
##Š
##ℕ
##研
##計
Ⅱ
Ⅵ
Ο
##istemologically
##practitioner
impractically
##implementin
##abulations
##epresented
##formatted
predisposed
##developer
##ximativel
##riminolog
##atherable
implements,
desperatel
predispose
performati
##amation.
##rofactor
##rostates
##utomati
##acketin
##secured
##esortin
##diffuse
##ditised
obtention
##posures
##astures
##charide
subexpres
##operand
##ucomato
##isusing
##meance
##basket
handines
multisub
##dosing
derandom
##takers
##undish
filletin
communes
##roflow
##utopar
##raviti
##onomet
##caregi
##ronome
##obusti
##vility
##oretin
sematic
##decon
##undel
##atras
##ostim
##tened
##raved
##miser
##ridem
datadri
##menop
##ramed
##ewear
##iflex
##warde
##imono
##romat
##enge
##idec
##tima
##atec
medico
##ushy
##kene
##mare
##cedi
##trav
##kshe
mesure
##oure
##peno
Wenger
##ndec
prever
comedi
fined
malev
Finer
##Ast
besto
##Asp
betra
##uev
effec
datab
reall
filer
mesen
taker
fide
Ston
abet
##̇
diz
##ǧ
##„
apl
##ο
##△
##費
##者
∣
Ā
informations.
##henological
##idistribut
##elecontrol
##imagining
##ulterated
##cessional
accuratenes
parentheses
##extractor
##decompres
##ecomposed
##iconcepts
##currents
##centimet
##idically
##ithering
##umongous
datamining
problemsol
##risectin
##istuned
##tinoise
diseconom
##iffuser
##ronomer
##ationer
##agility
##isement
##mplants
##echner
##extent
##etrans
##dorder
restated
retested
non-load
##iratin
##illesp
##dorant
##ropose
##tester
##erment
##unosup
mechanom
marionet
##rosim
##ugene
##illoc
##omply
coreles
##ramet
delocal
combust
leveler
restate
chariti
##amant
##fenol
##egent
##rofib
databus
ushered
comming
##rorel
##golog
##urest
##itone
##halus
##prede
##ismal
##uchen
##devec
isoform
##raseg
##arde
##vedi
##dile
Theven
profus
planed
##hack
##ousy
##dine
##idil
respec
desing
##epre
##ogor
##madi
##undo
##vere
##tofl
##areg
##ereg
masker
hypoth
##egor
##aben
##fume
##omap
##ugot
##oseg
twost
outin
##Wed
domed
Stran
predi
resus
hypot
soles
revet
deto
ging
dere
como
reto
som
##⩾
##Á
nom
##¿
##對
##究
##消
½
deregistration
##riclustering
##ostructures
costeffective
##distracted
##candidates
ineffectivel
##locomotion
##etradecane
##egistering
##multistate
automatical
decondition
transposing
##ragogical
##eparatel
##ustrator
##demanded
##ticancer
##ightener
##ridement
##provide
##ipresen
##roplane
##umbered
##dimples
##climati
##osters,
##ingitis
##impossi
##otester
##leveled
##omecare
##esturer
##diseng
##ristof
##ishand
##certin
##ustere
##prover
##finter
##thenes
##idento
##mistak
##wastin
eleventh
##isoper
sproutin
##otoren
##erobot
##gester
##splant
##sentin
##mailed
##penthe
##umocon
multimor
##escher
##hander
##avenet
sentinel
designet
##never
##stran
##mpere
##sheng
##makes
##deleg
##arion
revenge
##achim
##onges
##idine
##icile
##rigon
##ulds.
##istel
##etrac
##idone
##mento
sprouts
Inexpen
##utofl
timeles
##outon
##ogico
##oresp
##aregi
##Stone
##uget
retake
##nese
##spos
##asth
mantis
disten
##pled
elects
##rado
decano
##amab
##idin
##igot
Anodiz
##dste
##clet
##idog
##ialy
##iben
##noby
##anew
##rast
##hadi
##inem
##aseg
##engo
prenex
sublex
##lec
disoc
##Tod
monos
nonoc
limel
foret
agram
nonog
posy
Ande
##˙
ati
##∙
##Å
##ì
Weg
##進
¿
##estimation.
##functioned
##contracted
##contouring
##respectin
##Tolerance
##ofunction
##acomputer
caretakers
detracting
##anomotor
##iposomes
##redesign
resounding
##haritono
electorate
##aprogram
##urorobot
overexten
##graming
multinode
##rofiled
##ementin
##chanter
##suspect
##entrale
##matures
##ustines
automatis
##isensor
##ectored
##rentice
##henolog
##ventral
##ispered
##transin
intragro
##trarel
##Aspect
##olocal
##commis
##dispos
##sumoto
framelet
##osener
##really
##uratec
##osomal
##irally
##welled
##rimari
transect
##arorec
##osuper
##trapre
##venous
##inenes
##tracor
##non-l
intrave
##iaris
##rosoc
##inthe
inorder
##molar
mortise
##enoto
modeles
##conol
##ragog
##ampos
##atore
##kener
##acesu
##porti
##itake
##osome
##vingi
##eveso
abusing
##semes
##attic
##henom
endomor
##rorec
mailed
##bued
timesp
##elim
##igne
##eret
reload
##egev
##noma
##adof
resign
##ksim
##dsto
##ctin
##mano
##isul
##ubuc
##kset
##hicl
##inew
stover
##kege
##anom
curate
unedit
##risy
##haly
Andes
stopl
remol
##lde
typos
Strad
hypar
mocap
suces
devil
resor
senor
dever
teste
##gem
Toure
agnos
bust
hast
levi
lest
asoc
lima
clen
##Ü
oro
##≻
##∇
##□
##∆
##ǒ
##ũ
##本
##㎎
##㎕
##用
≫
ℙ
##stematically
##distraction
##reestanding
##sicomechan
legitimation
##discovered
underexposed
##arepresent
predestined
##anopartic
##anosensor
##egenerate
##eretofore
##unotherap
##ologizes
##istences
##selector
##ecompres
##however,
##-leveled
##modiffus
##sthrough
postimpact
##gization
procession
##atecomer
##anorobot
##terested
transposon
##astated
##masters
presuming
##oproduc
##achined
##roposes
monoplane
##fflower
##minster
##asopres
##ogicist
##ancetak
indentor
multisur
dodecane
##omadic
##dstone
##norkel
##aseles
multityp
severest
##odisti
renumber
##ramati
##atinos
##inocer
stenosed
##richer
##imates
##iageti
##nestin
##halese
##imacy,
##feffic
##megen
##iamen
##mandi
##dater
##monoc
##rolen
##delim
##iseng
multito
##auser
##hamel
##spare
##datac
##ifuel
##cerel
amulti-
##acoma
##teles
##ulds,
##avish
##anosp
##sotop
##arish
##diton
##bevel
##ubule
##anost
disused
commode
##nevil
##ibuch
##ospec
##timer
##astur
foremen
##ricop
##ficin
##idata
##sidor
non-lex
##revel
##ticom
##haric
##edel
##dots
##amac
grouts
##dopl
##digi
##egiz
intrag
##eare
leache
##icur
##enop
##itob
##obur
##ecap
##erec
##ndon
handic
##isub
##ucom
threes
datast
##unos
##gib
astra
##ksi
remod
##gil
shave
nonob
##kso
senes
##cly
##uem
Stent
mari
Tosh
dequ
eval
sear
neti
##‑
##½
##Î
##₃
##©
##∏
Ane
##Æ
##∶
##ǐ
##能
##、
##分
##專
##意
ɛ
‐
‖
⊢
##henomenologically
##isimulations,
predevelopment
##ocomponent
##romachines
##vigorated
##sectioned
legitimacy.
##risection
##combustor
##urorobots
##multiset
##ectrally
performace
##multinom
interevent
##diffuser
mechanoche
##charides
##irestone
multistore
##evidenti
##impostor
##attested
##ularise
redevelop
severance
##empered
##oplanes
##searche
##propose
##curance
##egocent
##attract
##romoter
reclassif
##extract
##oconver
##oformed
##halaris
##magenet
##atherer
##acommun
##ineural
##nomatop
caretaker
posthuman
nonelect
##umpled
##handof
##mision
##isuses
##adoles
##otored
processu
##alenes
##alocar
##ubeles
##geared
##emodel
##omines
##ethere
posters.
##ustine
##digiti
##dimeth
##orants
nonexten
##iracle
##nomati
##angram
##ubelet
##discor
##inomas
##utomor
##titone
mentione
prenomin
##ialect
##ologiz
mastecto
##alumet
##uenos
##gizes
##iedel
##omedi
##odest
##males
##inest
##atran
##rined
##anthe
mariner
##ingol
Stonele
##roshe
monofil
##esort
interan
knowhow
##etest
##terob
##donor
##iacet
##olest
outrage
Anesthe
##ostul
##macy.
##macy,
undisco
##rosen
##osequ
intrath
profust
##ogost
basest
##Alar
Strato
testes
clevis
##lowh
##ouro
##umal
##ibes
##doch
##isex
##iril
redemp
##iane
##emel
##aril
##fles
##asot
##paro
##iseg
##redo
endocy
##olel
##erel
##imot
Strav
##fex
resto
fibul
##esy
##ewh
prele
remor
ising
ming
stak
ache
##Ë
gil
##ŕ
##ǎ
##Ŷ
##ė
##Ψ
##ι
##ī
##＋
cyp
##探
##以
##為
##解
##物
Ć
←
⪳
Ζ
ॖ
##rastructureles
##performances
##uroprocessor
##urobehavior
##astructures
mechanosensor
##astructure
##ultrasound
##moformable
##icondition
distractive
##missioner
nomological
legitimacy,
##ropattern
##ultimodel
##anostruct
##roprofile
##portioned
##etramethy
##performer
##atheoreti
##imagined
##epletion
##identiti
##predomin
##methods,
##eworthy.
diffusenes
mechanosen
##advising
##gestures
##morespon
##oustime
##aprofes
##profici
##eminent
##asurand
presents.
intraspec
##ationof
##ronomet
##odesign
##odorant
discredit
estimable
##timenes
##antiser
##paranor
dataspace
##cedenti
##rimage
multitra
##omason
nonoptim
profitin
##dodist
##probes
##ardiff
##illard
reloaded
##otrans
##resche
##largel
recompos
stearate
##rosine
##stecto
##ardise
##rosted
##framer
##wastes
##anofil
##anther
##ematic
ineffect
##gicide
federate
##isheri
standout
transure
##gesort
##uropar
##itemap
##pareto
##rento
##egize
remanen
##prest
##beded
##monop
##lingo
##moden
##andis
##advic
##edric
commodi
##atist
beveled
##aceti
##haker
##ometo
##renow
##rason
##ocher
##hares
##isost
##kstep
##isect
##vales
##terne
##riser
##basto
##ronob
##omato
##nessy
##utore
##apler
##clust
##etrat
##ricon
##woman
##icomp
##topar
##nocel
##irand
##ucene
contrac
##nosel
##gemak
##trad
demoti
##ndoc
##buch
##owed
##been
##reno
##alel
##odiz
##eple
##inop
##imas
foreth
##irap
##sily
mantra
futher
##idow
##resy
##ubul
preshe
##enec
##trag
##shen
##odil
planth
##Cong
##lden
##asoc
##ogiz
##ogop
##Fore
##poti
domoti
forecl
##etak
##Wet
Anech
noner
##ksp
Alder
Cones
Tomas
##vig
deman
Toler
stool
Indig
Asher
##mow
##Tol
##gop
maver
##tse
pred
lard
mour
Inor
nes
##Ï
ace
##ő
##Č
fuc
Tos
##‟
##℘
##⌊
##ʕ
##飲
Ś
�
蜴
ै
##simulations.
##algorithms.
##distributor
predetection
##instructed
##ristofides
##ramatical
undemanding
##suspectin
##nordered
##itespace
##reespace
##diffused
multispeed
##reedines
##inerated
##requires
##utoreson
##rintouts
##-locally
##preventi
##mosensor
##ulariser
##sureles
desperate
##dentiti
##heredit
prestored
##speeded
##odecane
##rofuran
##ifactor
##itratin
##unement
##touring
##trasted
itinerant
##iformal
##unobser
##anochan
bothering
##estered
demostrat
##erobots
##mariner
##mentine
##stemati
##stition
##eweller
##rimenes
##orobots
##torates
##aposing
contrales
##asystem
##detour
##enewed
##reelet
attestin
##ipower
##lenedi
##omathe
##evenge
##caring
##portra
##istema
##soleno
##omagic
##ofiber
##certit
##owhere
methodic
##anofib
##adener
##leache
##ficant
cherishe
regiment
profusel
##acemak
##ranous
##asurer
denoises
undistin
##kstore
copartic
completi
##pareti
##motone
##heffer
##akersh
##echow
##etrap
##moman
speeder
##angor
##omine
##osten
##filed
##uever
##desul
hematit
##moded
##iffel
##fecto
##stras
##osche
##vener
##otore
##arano
wearout
##inone
##avion
##overe
##veret
##itran
##idise
##obasy
##tinom
calcane
monomor
##upres
##fuser
##tisub
##rinos
##arore
##illel
ineffic
##urone
##enthe
contrap
tonomet
##many,
##engor
##apose
##rinen
denumer
##arevi
##ronos
##spose
datales
expleti
##nodel
mallard
##tino
##esur
##idor
##dith
##Aler
##ldor
##Thic
abuses
intrap
##dued
##avec
##omob
##agro
##bust
##rito
##asen
##ifed
##onex
##umed
##thex
endosy
endear
##usum
##buto
##iach
##aira
instep
##rall
##dome
toured
##isme
##inex
##decl
fleshe
##undi
##rale
undone
##Stim
##Anet
intron
##egot
##osex
recher
dinos
##ndi
decal
astut
isocl
effer
##mec
manet
##Ase
##fec
##gim
decap
cared
ariti
menop
usur
lent
trav
dicy
elet
trag
##≃
##¼
##ę
##↔
##Ø
##於
##象
Ü
↑
Ï
Ⅰ
​
ς
Ε
Џ
##methodologies
##isimulations.
mesostructure
##algorithms,
##distracting
informations,
##distributin
##emultiplex
##rosystems.
##rosystems,
##represents
##comodation
##formatting
##disordered
##rofeatures
##classifies
##timonotone
##commodati
attractivel
##multimedi
reselection
##flectivel
##presentin
predetermin
##ompliment
##odatabase
aromatherap
##ridescent
##preventin
##contracts
##omologies
multitransp
##handover
mesomechan
##atterned
##amations
##espectin
##ctorates
##anomedic
##itepaper
##illarity
##postures
##revalent
##yperform
##ronectin
##lectives
##iconcept
##undated
##ringite
controled
registrar
intimacy,
evalution
##gomatic
simplenes
##curated
##egionel
processus
##contest
federates
##lestone
##ogising
##adiscur
##akemore
##seding
##reston
##imable
##emaker
diffusel
##rimoto
##robase
##elocal
##traper
##enumer
measurer
##leston
##oroben
##differ
cofactor
##icitor
##ermeti
##valled
##Tomoti
##cresol
##rimeth
##isomer
transoce
##perant
##ostral
##hakesp
multiman
##hardon
##inumer
##iliman
##actiti
##thenon
##ilocal
##texton
##genome
##reemap
intrapar
##apples
##shaven
##rosequ
##alles
##onost
undiscl
sounded
##otest
##randi
##ereng
##dimin
##Allen
##trale
##sisor
topland
##dster
##noble
##upron
##anode
##extin
##achev
##etion
##schen
singlel
##icled
##rabec
##avent
##somes
##olecy
##yprop
##tecar
##oblen
##ultim
##ignes
##ocont
##mosen
transor
##idevi
##onoch
##macop
##ardow
restudy
##rador
##vitis
##avine
handily
stenoti
##moton
##lowes
##evise
##nesti
##ramod
##egeti
handrim
supres
Forese
##emat
##itit
##Tone
agilel
timesh
exprop
##tego
resusp
##itak
##ldow
##icom
shaved
tooled
adenos
##osim
##vico
##atyp
festul
##iace
##leth
disple
##drig
##iado
##ouso
##uthe
##asos
retino
##dore
supere
##iese
##steg
minter
presol
##vint
##icob
undis
##ypl
##bue
leven
##sth
##Ith
Astur
prese
autom
comme
chard
matic
maloc
allel
gingi
Congo
dong
clar
elec
dicl
chen
mint
atra
uner
lego
##⩽
##Ⓡ
##≺
nos
##∅
nel
##Χ
##ʼ
bev
mex
##ℋ
wer
##ॠ
##↑
##ℱ
##」
##特
##行
##針
##避
##化
Ξ
↔
¼
⋄
##echnologically
##osimulation
##otorentechn
##formativel
##attracting
interelement
demonstrate.
##anostellar
##anopattern
##idifferent
##ularising
##federates
##mocompres
##llimating
transection
multimethod
implementor
##ototherap
##automate
destructed
##Indistin
##etration
##magining
##provides
##amachand
indecompos
##icomplex
##presents
##effecter
statespace
##comments
overexpres
##docomple
##ationese
intraprene
##denomin
##ocommun
##revised
##ispaced
##ticorre
##simpler
##spaper,
##gestone
##roreson
##iflower
##seminor
##imagine
##isoprop
##ostures
dimention
composted
##opreser
##rominen
##instrap
##automor
##ideshow
monologic
##ificand
##chener
##ameled
##resump
##rasure
##router
sublevel
mattered
retestin
ushering
##allest
##imples
##dising
charater
##gilent
##limato
restorer
distribu
##sester
decorate
Stratton
##notion
##softer
commemor
##hattis
##ridity
mechanob
##anoply
##ilenet
##fested
##stelle
##locher
##racles
##anonew
##heneti
##erenti
##stinen
copresen
##agidor
##trapro
##redec
##vines
##ellev
##etour
##cheng
##aveco
##adine
##ecant
##earer
##theno
##enon-
##andol
##wesen
wellest
##dimet
##ausen
##rinom
##iales
##raton
##andes
##namet
##iones
##odesy
##thero
##allar
tragedi
##ructo
##sther
##anesh
##tison
##candi
technol
costume
##empos
bastion
##robub
##akesh
##achar
##conog
##ermos
##oulds
##urand
##ardel
##wedes
##gemin
##fishe
foreleg
##alesp
##demat
##uchy,
##ointi
##ardos
##raged
##uers.
##asker
##imedi
##meso
##buts
disobe
##iash
##geme
##imos
##ofor
##floc
##tese
##nobt
##acor
##thas
##veto
##rego
##regi
##tint
##unet
##rese
##soti
##egib
magici
arised
##adog
##alur
##emak
##oben
##ocap
estima
##vale
##eged
##dich
Indigo
##elem
##enob
Congen
##gosp
##Stic
mation
intras
##enem
##leco
##fima
##nogo
somed
resen
calle
arach
profi
cally
##mab
apost
Strap
weren
dimor
##bex
corel
vener
undri
metak
varif
outsh
##wec
sund
sect
secl
dint
dues
sher
dode
Ano
##Ε
##Ê
Wes
aby
##ū
##Ô
##́
##Õ
##ℙ
##ॉ
##ℜ
##性
##出
##析
##合
##語
##迴
Χ
ŷ
ℜ
ℑ
ॠ
⊃
ł
ℚ
ě
##iautomatically
predistribution
##erminological
##environments.
##otechnologies
predetermining
##inefficiency
preengineering
##practically
reconditioned
##demonstrate
##decomposing
##ribulations
##romodynamic
##stematical
##monotonous
overexposure
reclassified
contradistin
##inflection
structureles
##distractor
distributer
##climation
##contracti
non-locally
nearoptimal
overexposed
##conopower
##mocontrol
##minimally
##students,
##radically
##paratenes
##elearning
##traveler
automative
##ridising
##penetrat
##mations,
##redistor
Indetermin
timedomain
##mandated
##rachisto
##reedimen
##anemomet
##timatter
##climated
##iberates
##stranded
##uterated
##uminomet
technocent
##ocomotor
##osomatic
##osemanti
ditransiti
##ocomplet
##mentored
framerate
##achical
intranode
contestin
##estured
##worthy,
##energy.
##anoflow
##rappled
##uberant
##acetone
##extrave
composter
##denotin
##devised
adventiti
##prevent
mousetrap
##iproduc
##angifer
##utomate
##advised
##dementi
non-lower
##ireleng
##ronomes
monocent
##egimes
##atised
##aschen
masters,
##igouro
##acknow
##hained
##tevide
masters.
##inflow
predilec
##machin
##avidon
##Strati
detracts
remanent
##trados
##fillet
disposes
##Allard
##showed
##tether
##ermain
##rostra
##omodel
##larion
##adishe
##rachis
##onover
##theran
##umples
##centin
mounding
##etrapl
##randis
##gentis
##agoner
relinear
##multis
subevent
##lesing
##ndatin
##ermato
##amathe
##forant
##ticost
outstand
##odeset
proposer
##advis
##Forec
##canop
profuse
##ldots
##hades
##crest
##esing
##sobut
##mpreg
##cared
##anoch
##teran
##orand
##apron
##ulari
##romed
##henes
##ronog
##monog
##anedi
##cants
##ioner
##iarid
indones
##forme
##dator
##itras
##somed
##ronot
monocop
##omoto
##chera
##etrad
##iparo
##cetin
##ourer
fibered
monothe
##omaro
##iredo
nosocom
technos
##etwor
##elaro
##iseme
##istex
##copro
##ratop
##hater
##ringo
##ingod
##ispec
##heles
##emino
##buche
Itiner
speedi
timede
##acly
##effi
##emap
isopar
##gico
##opos
##gion
makes.
overex
##cono
##nous
##drid
##amol
mesher
##inof
varico
##fira
##stes
##stis
fistul
##elel
dodecy
magent
##abem
##rasy
##gnam
##anex
dement
presur
##osun
##ucel
Weston
Strath
##ucet
##ffoc
##simo
##isem
##egos
anorex
##matt
##vino
##tege
isomap
remat
Forti
##ubu
amoti
aired
coned
##sob
isofl
##mom
Anode
reche
##wof
ineff
semen
endon
Andor
avec
bere
adri
inti
unop
rere
mare
fust
isth
unof
upro
fint
desu
eve
##ğ
##‾
Ase
##Ä
mec
gow
##新
##其
##需
##過
##成
##程
##發
##問
##得
##彙
≅
ℳ
⇔
ο
Ú
̀
蜒
↓
ȯ
ℐ
##inodynamically
##henomenologist
##technologist
##regenerated
##ublesomenes
##icompletion
##stimation.
mechanotrans
##iclusters,
##ostruction
##hallenged
multisector
##commanded
##-locomoti
##egistered
##moderatel
higherorder
##atterning
##chandises
##edesigned
##unosensor
performable
##ospectral
##istractor
##uploading
##climates
##eworthy,
##dolinear
##etracted
algorithme
##relentin
##disposed
##tistruct
estimative
interobser
##implants
##atherine
systematis
##atheorem
posteditin
decomposer
##amespace
##traretin
##allocent
discoverer
##apattern
transects
##ignored
##isetime
##denoise
monodimen
##discard
multistop
##adirach
multispec
##icompar
##oworker
##rofibus
intimates
##aplanes
##alemate
preeminen
constrast
##ketones
##romator
##iamesed
##carding
##mopower
##rinolog
##rofitin
##ometime
##estates
##omethan
##omodels
humancent
classifer
##climato
##gentist
##mologic
##romouse
##odechar
##dospect
##otransp
##posted
##predec
forestin
##necter
##anodiz
##etract
##opower
##irigid
##airest
##techno
chicanes
##aricop
##mester
##stechn
##impres
##crevic
##emover
##anotyp
##iraloc
intrados
##ribune
multinor
##idecar
##arised
##eranti
##bution
##ristim
##rister
reselect
##pleton
methanog
##resume
##istion
##isione
##idesti
##enedic
softener
##rospar
##monoco
##ifocal
##ageles
##gronom
##upland
##atoren
##echano
##risply
##eletin
##resund
##contra
##halear
extracor
##isemes
##tracti
transper
inexpres
##monoto
##advise
sedation
##ravidi
##orobot
##fferen
##thendi
multispl
##isopro
##rolary
##eneto
##eplet
##racts
##econt
##lecti
##irage
##ecome
##mesim
overexp
##lethy
reveled
endopro
##imest
singlet
##unton
basedon
amethod
aposter
##nomet
##entis
##adise
##hower
##otino
##imine
##amour
##esume
##nexpl
##ticed
##eldom
##odisc
##reene
##advec
##undow
##arand
non-low
##ticon
devided
##morec
maskers
##edist
##aplet
##tegro
##ocaly
##avall
##utoby
##empot
##oreno
##titon
##romac
##maton
##forex
##comen
foreset
multine
##minog
##ilare
sememes
##acomb
probler
##gecto
##atth
##adev
##olow
takes.
shaver
##arit
##ruch
##edri
##abut
##angy
##mocy
##ogol
##Sten
funder
##hast
##sore
##beth
busing
##emal
plowed
##erem
##hano
##asun
##adom
##odet
fetish
##ecom
##amex
##mede
##upar
##ilex
preest
##emos
##osus
##acem
##kell
##hach
##odos
##robt
Sting
preal
sores
##nev
engro
##ldi
noded
haver
deden
recom
pares
disun
resul
reder
##Its
##esu
##tev
##gog
heton
##Wes
##Tog
somat
heman
stepl
twop
inop
seme
avid
Stil
nevi
ador
Tomo
Alec
gout
bequ
##ᵒ
ave
##⊖
##ĩ
##Ç
##ř
##К
##）
##↓
##ℂ
##一
##「
##功
##不
##中
##而
##將
##可
##求
■
ö
ẋ
⌉
∐
##rosimulations
machinelearning
##riminological
classiffication
coregistration
##properties.
##automation.
##gedetection
##-locomotion
intravehicle
##anosystems
##discovery,
predisposing
##determines
##egenerated
##estructure
##chandising
##anocluster
##aprocessor
##egitimate
##uminother
##ultistate
##echnologi
##calarised
##imaterial
##anodisper
multisystem
##oleaching
##arantined
##rosemanti
##acemakers
##impactor
##istiming
##presumab
##economet
##eparamet
##etractor
##simplest
##mations.
##ompostin
##amodels,
##isoprene
##roplanes
##engining
undeclared
digitising
undetermin
##isparate
##credenti
##introver
##elecardi
contravari
##intimate
##rimester
##however
multitime
##reduces
##estenes
##ruction
multisequ
##decorre
##becomes
##estimon
##inexper
##manding
##tonoise
predestin
##angover
##ranomet
##rospace
severally
##certing
robotised
dentition
multispar
##aginous
##testers
##amamoto
##multist
##rigener
withering
##matitis
##monolog
##Anomaly
##atheron
##rilevel
##facelet
##istones
##datenes
##datatyp
betweenes
##idemat
##ischen
##textit
multiter
##ultiti
##adricy
##flowed
##traded
denosing
destruct
##edimin
##llared
##risper
##paper,
##antisy
##become
bothered
##noises
##surant
##ermene
##henone
##Indent
##hation
##anomem
effecter
##eminen
##uspect
##arinog
##asesto
hastened
non-leth
##omable
processi
##asthan
##idicon
##roprop
##omingo
##owaste
##gisoft
##fisher
##ucuron
trampled
##airity
##oresor
##urenes
##venger
##buster
##disent
##istere
Indistin
##inoder
segement
##undity
##useles
##romere
##undire
##harder
##worthe
##asimet
##emerer
##ofuzzy
##imacy.
Congesti
##omavir
##eseman
##domino
##edimet
##ogotyp
multimap
##rimand
machinel
##eleste
##anotop
##aviren
##ctored
##iposuc
##mesos
##porto
##hamed
##odone
##mashe
##esher
##isole
##ifles
##sidel
##ideti
contrab
##isoft
timedel
##sitin
##malus
##rimod
##odata
##abill
nonoper
##nocen
derated
explant
##orked
##ffest
softest
##epots
##hadev
##oughe
##anore
##teres
##riton
##ueles
##raben
carding
actives
##tener
##subun
takedow
##ibash
##ypere
intracy
##ulare
##ulder
##osper
##jecto
##umous
##andid
##herol
##undit
##ustis
##toned
##uchy.
##lares
##chich
##mound
##tsche
##demar
##coper
##arech
##ieser
##utrac
##enequ
##lenet
##harif
##mater
##ropot
##tradi
##soton
##tonom
##arich
##titis
##ochen
##oplex
interex
##welly
##itese
##femin
retinog
##thase
##robex
##ustus
##genos
##ianor
##ibeto
##osoft
##aspre
##igong
##eldsh
sensort
##ueste
##geto
posten
##olim
##roso
decane
surest
Anodic
##ifeg
##fite
##idet
##ricl
dition
##enol
traden
nomine
##erso
##estu
endoto
##Tong
##mair
##stof
##ualy
##ndel
##odig
contor
##caly
undisc
##oreg
combus
##giro
##unob
##ubus
##vesp
aristo
##omot
##isoc
##epro
##duel
##ndom
##Cone
isoden
##Stak
##irin
##dati
##moma
##modo
##cary
##masu
agenth
##ruco
mance
##dse
##tep
attic
monod
Inder
sonot
desol
preex
indoc
modon
outof
coreg
bushy
##moy
redoc
nonos
parec
ston
Itak
simp
nous
goth
vale
redi
plec
Anam
bast
duet
Ales
Tous
ofl
ned
##ō
Aly
##¡
##Œ
##ʹ
##≪
##⊤
sev
##ॖ
##İ
##☆
##̅
##徵
##測
##在
##並
##再
##結
##方
##式
##有
##上
##年
##態
Ⅎ
Τ
ŉ
⋅
Ż
¡
ü
þ
⪯
overestimations
##redevelopment
##simulations,
multiselection
preregistered
##tetradecane
##roprocessed
##anomachines
##ropatterned
##aparameters
##tracomputer
methodologist
##technique.
##spectorate
##utoparamet
restructures
monofunction
##programing
multimeasure
##riclusters
preselectin
##putsingle
##rosection
multisearch
##ultimatel
##romachine
automations
##osystems,
##acontrast
##roprocess
##traneural
##emanding
##oderatel
##ectioned
##locomoti
##etracont
##penetran
##mostruct
##istratin
##rigogine
filesystem
recomposed
##atureles
##ocomplex
##Indolene
##becoming
isocontour
ferroreson
##toremedi
##centrati
##restruct
##searcher
##Allester
##ignorant
formativel
##transpos
##roprobes
##intimacy
##apreduce
##amatives
##ologous
stranding
multitrac
##largest
##telemet
##arising
registran
##ostrati
##utscher
##norther
##idiscre
##istemas
##females
dirigible
##limated
##iatured
##oresour
anodising
##lerenes
##hakedow
##iracles
##iatures
##antines
##practic
##gicides
##fforest
##genotyp
##rigonel
##norates
##nderexp
##anosusp
##viginti
##edescen
##atinocy
##itetime
##selects
##rostrat
##emeshow
##ronomin
actinomor
contracte
##itiner
fication
##anomer
##veston
##antion
##restit
##trasen
hyperexp
##rasher
##icised
##itises
##riprop
##mposed
##dolene
##nobser
##dement
implanto
attemper
##eleven
##rostep
##ricard
##allevi
##pentin
##ugenol
##etrach
##toured
##uminop
##ompost
##hancel
##ethene
##randes
##rosome
##revise
##inemak
##ifeles
##itener
##roflex
##useman
##uperel
##atises
##aranto
Stratono
##siform
##orecur
##omenti
##estore
##attest
multimem
costumes
##idered
##aledon
multinet
##hainer
##nethod
multiser
##memeti
##randiz
itineran
##plethy
testers,
##gestur
##idines
##eledil
##keller
##isteme
##laren
##elent
##edire
##robuc
calcare
##ifled
##ramat
orderer
nonemer
##kemon
##cares
##lenop
##arima
##atour
##avery
##rages
##pence
##dsted
##oflow
##ingro
estimat
##istul
##monom
##festi
##gised
##antra
##erate
##dover
##actis
##moles
##igidi
##carif
##riman
##maged
##ripen
##eleco
##fight
##ermed
##omano
##dimes
##odour
##itrac
##ropro
comprex
##irall
##stion
##isoch
##estum
##estuc
##ongis
##ermpl
##ilari
##imach
##riste
##romop
##haler
##stent
##ugong
##dical
##alear
##romen
##Conor
##utran
##ifity
##uales
##agere
##selet
##itemp
##ideme
##morti
hypothy
##iavin
##imall
##methe
monodic
takers.
##iarel
##cerer
##tepar
##gione
posturo
##inene
##Fork
##emag
##imad
##agop
##aget
##erst
##edis
##poth
##gong
##ffly
remake
##otsu
##feti
##chow
##ifil
##ffus
methan
##iama
descal
##umat
amulti
##leve
##asor
##cres
##moch
##sene
##itet
##tono
##iaro
wastel
##iale
mallow
##esup
##ureg
##vira
##bere
##edor
descre
##ndor
##sush
##asub
##odri
##iful
##vith
##mast
##kent
##mosh
##aleg
lectin
##ucur
trampl
##aloc
(Strat
##demo
##ubec
##buco
chases
##irag
erases
##cred
##namo
##moce
##deme
sememe
##atob
##rigo
##prof
helema
##arof
##usun
athere
formel
##dosp
ather
sorel
nonel
posto
nomop
inexp
Towed
##tsp
##sut
legro
anoly
##-ll
(Stra
##fum
amore
##ueg
macer
deres
handi
socle
abled
deshe
fored
nonor
deffu
minec
Asth
mati
deth
mack
anel
meto
athe
asti
tras
dese
Ally
Asoc
feto
doch
thyp
mele
sous
orof
##≲
##∝
##⟩
##ă
##⇒
##Ž
Toc
kel
##ų
##ϑ
##ĕ
##क
##ℐ
wex
##裝
##選
##應
##題
##統
##關
##流
##適
##料
##提
##容
##法
##器
##是
##外
##所
##仿
̇
≦
ṁ
Ŷ
⩽
⇜
₦
№
‰
Ê
Ʃ
¯
⊓
ʔ
ϝ
本
##redistribution
overestimation.
##roformability
##ultimaterial
##demonstratin
##performative
##egitimation
##coprocessor
##acemakers,
##icomponent
consideratel
multinetwork
##riplestore
rediscovery.
##acypreser
##comodated
##programed
##speedomet
##practiced
##non-local
##dospectra
##federated
##dodynamic
##composing
commemorate
multimaster
##climating
##otorespon
##andestine
##agenumber
##adatabase
##timonoton
##roretinog
##rostering
##osentinel
non-loaded
##oderated
intrastate
##vesystem
##ridation
##ouldered
##resulted
##alentine
practioner
##ightines
##allocene
##idomasto
##eprogram
##limating
##improver
databasing
##ardising
##sediment
##trademar
##egisters
##resuming
##redation
##etinotop
effectives
##docontin
##facement
##pronomin
##unodomin
mechanomor
##antimon
##corrent
singlenes
##haseles
##otstone
##chenect
##aregion
##egising
##mosolar
##angeran
##standop
##finenes
##Another
##epletin
##ompares
##rasemes
##lesters
##romates
##lextrac
##avicles
##illared
comonomer
##tinodes
##iamachy
##-larger
determing
controler
performen
##meander
##worthy.
##peratel
##ardover
##seventh
##televis
##stester
Thispaper
##utioned
##otestin
##rapples
##ackened
##ramolec
##empower
##oregion
##rimacy,
##somatic
##visterm
##ultisur
##entisti
##omingos
##ointset
##arenthe
##omocent
##compose
##intract
##iacomet
##valenti
##estorer
##mariser
##angouts
##sematic
##dinosus
##entored
##anosome
higherat
##ectran
##racter
##handig
interant
##unedin
##aceton
singlecy
##ostell
##iciled
##gining
##minous
##ffines
##mowell
##ematit
##ongong
##moditi
##ideman
##cheffi
##rinoco
##igimat
##obucar
##thenog
Forester
##isects
##combed
##idises
##risome
isoprene
##ropres
##amatic
##moform
bettered
##orobut
##anever
##idedow
##imolec
##stradi
##esopot
##tilled
##imants
##eveled
##iamant
formance
transimp
##emplet
resigned
##ucheng
##northe
qualimet
##vignon
##ademar
##adenos
##inemas
##cheffe
##statec
##onosti
##roside
##wastew
##atican
##ricone
technosp
##imento
##alleng
##ristur
##aceset
##isoton
multises
interobj
##advent
disconti
superexp
##sorter
##macher
##uement
##sister
##ifical
demotion
##itaker
##ellare
##ultima
##otoner
##eclare
##romino
##erevin
##cherer
##ticomm
##arison
##emeren
##alecto
##imasen
##outist
##rospec
methanot
##sterec
##uminex
##moned
##istak
##demag
##celet
##ershe
##renth
##Stras
##eging
##deser
##ogize
##rosit
##hiche
##iardi
non-lim
sedatin
##eples
##utono
##imene
##ailly
##ichev
predate
##umino
##genog
##erste
##emeno
##revil
##tonel
##gined
##arino
##emodi
##abene
##andil
##iacon
##esten
##inole
##omant
monosem
##imaro
##rinog
##utomo
worthy.
decanol
##disul
##diloc
##anous
##virid
##nocle
climati
##rosol
##regol
##omage
##nowed
monogro
##agous
aliment
##riles
postion
##andex
multise
undimin
##roned
unevalu
##idech
##ramin
##iride
##esper
##sicon
##vedic
##astop
stentin
##bedev
##mplex
##haded
mantras
##onequ
simples
reveren
##amore
##ateno
##Tower
##vinen
##genti
##penes
paranor
##aceto
##echen
##leach
##ronew
intraco
##eledi
##chere
##atesh
##outso
##asund
termino
##rener
##tinet
##ashev
efferen
##ketra
##meton
##ermar
corenes
##rofly
##akeme
hyperem
##ianos
##iresh
##ueren
valedic
##caper
regenes
##sicom
##namal
##rales
##anoti
##ilard
##rosin
##imag
non-ly
whiles
##erer
##uall
##ndri
nether
##uego
transe
detrap
##ifen
prespl
modesh
##wede
##kech
##tisp
##sima
##ibun
##eges
##ragi
##aket
##rere
isocon
##omec
##rofi
##iset
##agis
legion
##doti
candel
endosp
hereto
##isth
##onod
##omoc
##mest
##mply
##Tosh
##sosp
charis
##oces
##adot
upland
##otsh
##hade
##uede
amodel
hemost
mortor
##iesh
##-lar
predig
presow
##ulow
chicor
##igol
##nech
##enos
cypres
##atev
##igob
##fler
##amot
##peng
##clel
attrac
##meto
##arev
##ewof
##inow
##lles
##adoc
##asup
##nden
##ewen
##egid
##acal
##pred
dinofl
##ogoc
##ceco
signet
resect
##usoc
regent
orator
##imap
##emop
##idig
mechn
anon-
remak
##Thy
very,
resum
##gid
isoth
prere
Stout
diffl
bures
Torto
sonor
strab
paran
##mev
sobel
timex
##Sts
datar
sore
keff
Weng
fici
Inoc
sono
unes
engi
bash
acto
Aste
Asex
anom
amar
sube
anos
Anop
##⧹
##≅
hev
##
iti
##¥
##↦
gis
##̀
##û
gom
##⇝
##Р
##ň
##н
vec
##﻿
##Ā
##ς
##○
##Β
##¨
##¦
##★
##ℤ
##⋄
##⊣
acl
##ὲ
##及
##後
##目
##卡
##機
##效
##系
##場
##現
##尋
##打
##自
##多
##包
##青
##少
##討
́
≺
ﬁ
ã
◦
ℬ
є
ϑ
蠄
⋆
ʦ
##overestimation
##experimentally
underestimation.
##verestimation
##charification
##multispectral
##trastructure
##ainformation
##istemologist
##demonstrati
underexposure
multisemester
##ultiservic
intranetwork
undistracted
legitimating
##transposed
##implements
fenestration
##roprofiled
systematised
climatically
##utomatical
contractivel
##iarithmeti
##rinologist
Inefficiency
##lintstones
reclustering
##vification
##uestimator
##patterning
##contested
inestimable
##edinteger
intrasystem
Ineffective
##roughened
##etitioned
##decorated
##amability
##commander
##obemaster
programable
##clarified
intraregion
##osystems.
##ynamicity
##anostores
##resumable
##centrally
##etitioner
##transpose
##itransiti
##amespaces
algorithmes
##ularition
##canceled
intramolec
dematerial
contravene
##titerror
##ilocally
##ighthand
##ackerman
##nologies
monodomain
##extraver
##blestone
##estering
##ksysteme
##matising
representi
##ightsour
##ticlasti
##declared
##casement
##aintwork
##romoment
##Iterated
##ecompose
##sublevel
technochan
##ticoster
disempower
##omatical
##utworthy
##testimon
##instated
##anoprobe
##ypattern
##mologies
##utoreduc
##ethodist
##nologico
##idetrac
##realloc
provident
##robuses
##andered
distracti
##magined
##limates
##groutin
##atinous
stonework
##sitised
##eedomet
thispaper
##randine
compution
##interev
##onoured
##resumed
##atemate
##umaneti
##romated
##ruceton
##vimento
climacter
##systeme
##urevich
##andicap
##itworth
##entisto
##asolene
generants
##leventh
##aminent
signaller
##edestra
##tragent
##olesome
##osemary
##istures
##amagish
##timaker
##echanom
effection
##umacher
bastioned
##minolog
composure
##elemoti
detractor
##encelet
##traclas
multiplet
##ancenes
##comeres
difficile
##ostoper
speedines
##ridises
##herable
##dominop
fenestrat
intimacy.
intrasent
##faceles
##ularist
##carides
##ogitech
##entrans
transelev
##amative
varifocal
##omation
##nesters
##warede
##angnam
##ogized
##intrac
nonobser
pregiven
##eletyp
##randen
##riston
##iarise
##hachev
##areles
##kstone
##misuse
indiscre
##athise
##ravesh
##atethe
foregone
##uronex
##costin
indentin
##wesome
##formab
##anemar
##cother
##idenes
##inelet
##umaker
##ffined
vechicle
##spered
##anopar
##ofuran
##berate
##nesene
##basing
##iester
monofuel
##iracy,
##ecanol
##wasted
##ameson
##omeste
Stiction
##inetyp
##icines
##uplant
##asocon
##ffload
##umatis
##oulded
##unover
generaly
##ardino
##astate
profited
##ardine
##strato
##dimple
##egione
##masker
medicare
##anocar
##extran
molarity
twolevel
conduces
##asodil
mackerel
##anofin
monodisc
##odigit
##anobel
largenes
##avecom
recommis
##iracy.
##ypered
multimar
##temort
##romacy
##ocales
##igoden
##iconew
##ultisp
intrasub
##omonof
##unosum
##timacy
##orthen
##outran
monodire
##risted
##ifenet
##egible
##anofor
##anomol
##uliman
##genoto
##estake
stenoses
##airach
Indiscer
##ateman
##ridist
##urorec
##Therap
##omulti
##egimen
##edicur
##eweled
ondemand
##ominos
##omodor
##multit
##somedi
##tracur
##semedi
devignet
frameset
##anobub
##urofil
##Inear
##ifeng
##namon
##iadap
##isome
intrapl
##unequ
##atico
##exted
##uers,
##carel
##sthat
##ilary
##metin
##ronor
##beach
##mered
##iffle
marines
##onese
##steme
##acard
##ortsp
##ieseg
##merev
##renor
##dspar
##ismer
##ometi
##osemo
##ousti
##canol
##linto
##adosp
##elene
##inost
##acese
##abash
##dolog
##hatel
##onoco
##sinor
##gesel
##esent
##odist
presort
##Allow
##radic
##hevet
##rimel
##demon
##etral
##omach
##fumer
##ablel
##seler
##romog
##umati
##tisen
methode
maching
theorec
##idisc
##rosil
##merel
##curer
##ancet
##haira
##ranol
isoster
##ongen
##oundo
twostep
chandel
##caric
##minol
##utish
statede
##haply
##urane
##ismot
##andet
conduce
##unten
##nempl
##valev
domaine
##schev
##urano
##dicon
##nesen
##uenen
outsole
##simal
##icand
##harir
##hanti
##esoth
##clump
##ubexp
##romol
##iades
##reeng
##sific
domatic
##trasy
mesolim
##useme
supered
##romar
##kewer
##imodi
##intim
demotin
##icost
##Asher
##omocy
##emoti
##iasto
##icare
##ifent
##rosth
outspre
##denes
##enoma
##splex
onetime
##gitis
##ortof
##othis
##ulele
##aburo
##umest
##dino
##iask
##iact
##gime
##-lev
##lesh
signom
##ramo
##umac
##dedi
##iloc
Storer
##airi
##stun
##ucar
##oced
##furo
##idoc
##curo
##enoc
##rimo
##fico
##iras
varing
##ribu
##imog
stonew
Tobler
moding
##usth
##imak
aminos
##umos
aromas
flexpl
##deti
evalut
##asem
preval
##uthy
##ilec
##ocet
##acom
formab
framer
Indisp
##othy
##rair
intima
##ocur
outsol
combed
##tsev
##ucor
##amay
##hath
##obet
##kser
##dico
##lino
##dost
##gous
##adex
##emex
##riso
##engi
##weng
##gnet
nework
##ucop
isused
mallet
##wous
abuser
##'soc
##tste
##itev
##igig
##sich
redist
##effe
##iffl
Therab
somati
##Asis
datat
undop
froma
clust
selec
##fll
retak
##wob
doser
iment
monel
Finel
forme
andin
athen
##mex
conto
denti
maser
##cec
methe
Stich
agrol
##gom
tradi
##mof
Andon
sonop
upreg
isose
##kec
Andri
moran
roble
Todor
##'sp
endob
filen
semas
candi
conos
Topos
##hac
Thigh
##iay
twol
Went
acer
Tort
buts
ofer
deve
soy,
regi
trab
nono
ding
Anew
gine
ares
prac
amet
wort
trat
Aspl
disy
onew
orac
masu
acel
##Ф
##Ȩ
##М
ino
ado
##ů
##Ⅰ
##人
sos
##（
##
##²
##ȳ
fiz
isp
qut
##↾
##̲
##←
##Ú
##ℛ
##ℬ
##ʊ
##≓
##或
##由
##運
##決
##資
##果
##蛋
##喜
##建
##相
##最
葦
ì
˚
Ì
⅓
œ
Β
蠅
ᴀ
舒
Κ
ﬂ
##anotechnological
##rosimulations.
##systematically
##attractivenes
##optimizations
problematically
recommandation
##edevelopment
##carification
##rastructured
##anopatterned
##creditworthy
##minological
##utonomation
redistributor
mechanotherap
##acontroller
##mologically
##unocomputin
contravention
##contractile
monoprocessor
##elelearning
indifferenti
##telecommun
##automating
problematise
##ismachined
##minologies
##contrasted
##elecommand
monomaterial
##teleroboti
##elemedical
undecomposed
automaticaly
##discovery.
##ferenceles
##mistically
dedifferenti
##robehavior
##makerspace
##valgorithm
##eleservic
##sistences
##astworthy
multimodels
##dithering
##proposing
##egitimacy
##ultistrat
##telematic
##anosystem
##tractivel
##limation.
indestructi
##celerance
##combusted
##compostin
caretakers.
##comodatin
multitasked
##omethanes
##adiractin
##aminoprop
##ractising
##completin
##asperated
##rospectin
##commoditi
##rospector
##intraclas
intradomain
declustered
##ocomputin
formational
multimotion
##clusterer
##herentist
##framerate
redetection
##ogization
##ticontrol
##erspector
##gitimatel
##semesters
##ploading
##ologises
##proposes
##risector
multitrans
##ultitone
##itestate
##presumed
##iverance
##acentral
##formates
##aluminos
##-leffler
trandition
agroforest
##utomaker
subelement
##formated
presumable
##noiseles
##odosimet
##extracts
##ocenoses
##restored
multistake
##ationaly
##mational
optimation
##ifficant
##reachero
##romodels
##rosional
contractil
##improper
multimodes
##aclasses
##exportin
##ispectra
##itedimen
##ubexpres
##ramester
##ancestor
##iautomat
##creditor
##amedical
##omatised
##acomplet
##ressives
##speranto
underexten
##ispredic
##entestin
##terestim
##modeler
vehicleto
##rosumer
##mentiti
##esteren
##mpostor
##inement
##nedecor
##ismodel
##instate
##omotion
##iarised
##ronenes
vechicles
datamodel
##ultravi
##handing
##matured
presignal
##ronodes
##anechan
##umamoto
##Indones
casestudy
##matives
##undishe
##decanol
##perance
##estated
##modisti
##amperes
##dosimet
performan
##ularily
##transon
##nomomet
##alement
##chanced
##sproduc
##arother
##iatives
##coverer
##arified
##planter
##inester
##isignal
##flaring
##arantor
##itrable
##akerere
diffident
mesomodel
##thereal
##ismomet
##aclasti
##idescan
copresent
##otstool
##orkers.
##alentin
##robusti
##gerates
conceptor
##stellen
datanodes
##kstores
##inexpen
##urofush
##reneche
mentioner
##inocere
##sposing
##omesign
##anoster
##anthera
##eloaded
##omatise
amortised
##chantin
##arantin
##ologiqu
##radesch
##ortimer
##herobot
##Fortran
##onomous
##igenere
##hairing
##ridesh
##tsimas
isofrequ
detoured
##ortran
##ustopl
##igener
##dentin
##commin
##astion
##dicher
##comply
##icorre
intrabur
##tiling
##aintop
##takes.
disobedi
##chuman
##uneven
##tement
estimati
##imatic
##drided
##redric
overexpl
##amaker
##achite
##iacomo
##siding
##flocal
##icheng
##ianech
##-levit
##utofur
##ospect
##risect
##acetin
exposome
climatis
##dspeed
##utobus
##anodis
##ispace
##amamat
##sunder
stevedor
##tioner
##ynamet
##ematop
##amator
##reesof
##modore
##eveles
##nolent
##attion
##stemes
timecour
##idemet
##liming
##postur
##plenes
##non-le
##ocenos
##tinode
##mperes
##ightsh
##aspace
##Westin
##spacer
achilles
methodol
##eworth
##imaged
methodes
##celent
##untion
##shower
##gition
formated
##varing
##doster
##omacy,
##lectra
##atheri
##aility
##sodata
##ogisti
mastitis
##plowed
studenti
##amanot
##hasech
##masing
##untour
##ynamos
##preset
##gemone
mechanot
##varico
##ononen
##omanes
##marant
demoneti
##astrac
##videre
##omegro
##intool
##ubemap
##sposed
##tramod
##andide
##grobot
##abased
##imonos
##ndothe
##anowor
##raster
##blenes
##theore
##avento
##ridise
underemp
uploader
##formet
##carine
##ndowed
##emeval
##ilares
clarinet
##caller
##clever
##iagent
clevises
somesthe
##iffled
##formin
##ubenes
diffiden
##asegos
hyperequ
##avinos
##erstra
terminog
##egized
##omacy.
##tramar
##anorex
##trapar
##alethe
##ucomet
##urobus
##riplec
##ermack
##sorate
multisim
##couter
##iditis
##achiro
##rinoly
##uchic
##enese
##Stake
##ousen
##achan
##agome
##inewo
##estit
##amesh
##kstof
##grout
##ramac
##ersor
intrati
##datal
chicane
##reles
##demer
parenth
##valer
##leren
##semer
##adate
##edema
##amome
##asteg
##ecane
##ctran
##edout
##limes
##monob
##mprob
##ionel
##sitis
##eldri
##ouren
##soper
##nesor
##cardo
##ethan
##steve
monomet
##domor
##raste
##racti
##onene
##flesh
##amand
##stima
##alson
##tinel
##dosed
##carin
##vison
##impar
reseach
##obese
monetit
##inose
mesomor
##redin
##adecy
##eween
##vally
##inedi
##maple
##iploc
##resor
##elden
##veled
##ersin
##amach
##nomer
##meant
##sorts
apropos
##onoma
##subas
##amaro
##bever
##mares
##evich
##moper
##renes
##agosh
##icaly
##deles
##oseco
##kerer
##siser
##imant
##gemet
##orthy
##ragil
##omack
##achip
##idong
agromel
##omodi
##stegi
##ingof
##aresh
##iging
##icino
courant
##dspot
##egise
##akewo
##redon
##ocere
##ampar
##momag
##iadis
##goste
##edine
##ichar
##hader
bedevil
Allowed
##haron
transil
##tevil
##wolow
##agiri
##icure
##mande
##undoc
##ilene
##ecapl
non-loc
##erano
##ifill
##ronen
##machi
basking
##chari
##Foren
##bedos
##hashe
isodata
##uresh
##imane
##Allel
##thand
##harev
##odric
##maver
##sicor
##chary
##iclas
##reedo
##teleg
##iteco
##sonom
##halim
##istes
##supre
##soled
##omosy
##matop
Inexper
##umari
##comor
##iaret
##edesc
##ridex
##sonog
locoman
##clash
##ofint
##meres
##utoma
simplec
##ionom
##sores
##otwor
##emasp
##atrac
##neser
##ogish
##Congo
##kedin
##ramar
##oshen
##ititi
##mores
##effel
##expos
##carer
##docle
##ecout
intrast
##ubust
##evedo
##adisc
##upren
##emate
##atequ
##amato
##wotob
##toper
##Tome
##reso
##ilel
##tsun
##dech
##hera
##tily
##ermo
##iavi
varima
##edec
##inot
##unth
##masp
##stew
##nost
redone
##esed
disodi
##icap
##owes
predis
##sint
evelop
##ffel
##tout
ferent
costed
threel
##goto
##sund
##lima
lemong
##socy
##iamp
##vecy
aceton
##egol
##olex
##ravi
suport
##Ales
##sous
##igno
##imob
##bule
##xime
##effl
##goma
##ldis
##arop
acompl
##isob
##rido
hermes
adimen
##viso
##etwo
##isec
##agir
##vish
ficant
largen
##ctit
##ceto
liming
##bash
destem
##odow
datase
##arig
##owex
##ogow
Stenos
chants
hemoly
##emol
##vese
##umog
Theres
##Alle
preach
##ypar
##tsen
##iasu
##ximo
##eseg
##stel
##racl
##isma
##nocl
##Ster
gistin
##akew
wither
##ogro
##edol
##isod
planog
discec
declen
##isut
##tith
##mene
##osup
##uldi
##fino
stints
##sono
##pene
operet
(Stop
##kev
mothe
unobj
toned
cants
resut
semol
##ifu
##Ano
detor
indel
acent
Inedi
dicar
allen
engin
disel
trand
disus
##Ito
##Ine
hasti
cofer
cleth
mashe
hecto
chant
soret
monon
##god
adeno
andor
##uex
##gno
indem
baset
requr
stequ
Thera
maven
##gif
seman
impot
doman
endop
redet
timeg
nonem
dened
bueno
usted
##fiz
matit
hande
chare
dener
Weger
fied
onof
uned
acen
alow
dech
keto
atti
aner
flec
dele
inec
outh
evis
beng
cout
isti
acor
aset
desh
isow
eral
Stin
aton
aman
Anem
inos
aden
deff
sumo
##ȩ
##ṁ
##
##ź
##ɑ
##Т
vem
##Ñ
Wex
mom
dob
##с
##ļ
##Ŵ
##⇔
##п
abu
##ţ
bem
mog
ima
ond
##ﬀ
##蜴
##薔
##∖
##ṃ
##ð
moy
##ľ
##電
##路
##製
##信
##號
##傳
##使
##試
##因
##明
##間
##質
##標
##等
##案
##達
##到
##則
##模
##經
##市
##此
##受
##重
##類
##集
##群
##供
##師
##轉
##更
##概
⟨
ṡ
а
ç
―
А
Ⅴ
ǀ
ħ
˜
Ş
∉
Ñ
Ŝ
↿
蠁
▽
▷
ï
⇀
Ỹ
ϱ
的
♢
ë
𝒞
♦
multimethodological
##eachengineering
declassification
featureselection
nonexperimental
##clarification
##predetermined
##moptimization
##osimulations
##demonstrator
##orecognition
##redetermined
multistructure
underestimator
##undetermined
undemonstrated
##dodifferenti
##fenestration
predetermines
##techniques.
##demultiplex
##ocontroller
##uperelement
##omplimentin
intransparent
##ologization
##reditworthy
##eclustering
##ultimachine
##aclustering
systematising
##untereviden
##riplestores
performativel
##toprocessor
mostimportant
##penetrator
##determiner
##ifesupport
##compliment
##ightworthy
##istructure
##multispeed
##icompostin
##contrastin
reclassifies
endocarditis
isocondition
##problemati
##anonetwork
##ferroreson
##amethasone
coprocessing
multiplevalu
##umeconstra
##esomechan
##planement
##multistep
##etermines
##riparamet
##soparamet
##multitask
##attracted
##continous
##itespaces
##roparamet
##tetradecy
isododecane
##chandiser
##ellection
##moderated
##aretakers
##ecomputer
##unordered
##radynamic
##ationexpl
##vizations
##oprocess,
##entration
##ellective
##gorithmes
unestimated
##eproduced
multineural
##domeasure
##intestine
##ointspace
##registers
##ceconstra
##ragilenes
nosological
##obulation
##asearcher
##ulterants
##ologising
monological
##ximatives
##rimanding
knowledgesh
##uplespace
##unologist
twosemester
##irotherap
##amagocour
##roregion
##improves
multistand
##empleton
limestones
##uploaded
multispect
##cedestin
##ecovery,
##ometrage
##omemaker
tragically
##pentines
##Anemomet
##anoreson
##ringines
multimotor
##undecane
##basement
##romating
##celerant
##stereses
##elespeed
##ultispec
##iamperes
##stearate
##nonomous
##umatised
approachis
##nologist
##formator
##sometime
demonstrat
destructin
##ologized
##transect
##edotrans
##aminobut
technologi
##mistakes
##econtrol
##randimar
##cheffler
##obulariz
##ractiles
##totherap
ratedistor
dataspaces
##anogener
##ompostel
##jectspec
automatise
deselectin
##acontrol
##ralinear
##oclimate
##testers,
##tonomous
##ristened
##ingocele
##intranet
##imonoton
nonelement
##rotherap
##icomplet
##anetwork
##unterexp
##traposed
presemanti
##parenthe
transposes
##erstrand
##asystems
##currenti
##reshener
systemolog
selectsort
classiffer
##effectin
twoparamet
multisenos
##ringolog
##visement
minimester
##angramob
##raminear
##estersh
##acecour
systemand
##ultitra
##ortobel
##reditin
##seventi
non-level
##reacher
##riminog
##iffused
##seconom
##estored
##rimaver
##rigidiz
##echelen
##acemask
##posters
##ultityp
databased
##astates
##aplesim
##rosters
##henomor
##romeshe
##utheran
##llimate
##idereal
monomolec
##berance
##irables
##utonoma
##subesub
##elardin
monetised
distracts
detracted
##monomer
##eclared
##tisoned
##postion
##'system
##ellevil
##iroboti
##idisper
##iplanes
##bothane
##eredith
##rofiche
##anesthe
##ermanen
##mistice
##mandine
##anomodi
##randest
##sidised
##imoment
##transus
##ortsper
##ecorate
##matting
commotion
##fficing
##ecommis
##domodes
timespace
##mesocor
##onerate
##attstet
##uginous
problemof
##prespec
transesop
retasking
##usterer
##isotone
##andemon
presortin
##haseloc
##erstone
magically
##astines
##dosound
##ogicity
##idistor
##rimesen
indention
##ropares
##cenenet
##anderer
##arionet
multisent
##istrans
##mematic
postorder
processer
##matised
##ationes
##amesour
##ostruct
##stinent
underempl
##ellects
recompose
##ameshow
##omerant
##rosplen
##icomput
intrachip
##itinous
##ogonous
##ultines
##ocharis
intravent
multisper
nonengine
##romopro
##instell
##hainese
##domotor
##isprono
reservic
##resort
##tramas
##oclase
##clasti
##reeche
##uscher
##ricore
costates
intrases
multisel
##bleles
##ctsequ
##soprop
signaler
##arinth
##ineman
##tische
unevenes
##istech
##adates
##secant
##etrath
##ripler
##achano
anodised
commande
##ultish
undesign
##wellen
##iverer
##utonet
intakes.
##handri
##adrise
##netopl
##rosour
##inolen
##matech
##ethodi
##onenes
##ominer
##risodi
##etones
##aneled
##icanto
##tradri
##ionosp
##haleff
##uetime
steranes
##Indire
##unouts
fischeri
##uminol
##acombe
generant
##airage
##itered
##sitise
##jecter
##verest
##osomes
##timent
##eledes
##macore
##idimet
controle
##haging
##onenet
##istrac
##avened
##methan
##terant
##asomet
##orever
##gising
##rofine
##romati
##iraled
##valume
##trades
##carifi
##eventi
##itrall
##ctical
ondition
##tasked
##mische
##ostrat
aburance
decanter
amaranth
##fleshe
##umater
##iander
demeanor
##iteman
##anocel
##abuses
##earate
##anoder
##stenos
mechanor
##ostate
##aluron
##iteran
##aparel
##aminog
##amplar
##unomod
##ardoso
##itecap
methodis
##onoson
##ogilev
##uranti
##onoste
##orento
##westhe
##iterst
##oreset
Forestin
redescen
##odolog
##wearer
##prache
remodels
##manded
##amingo
##comere
##sotone
##osevel
stepleng
subevalu
##mallen
##steven
##hastin
##tevalu
##andico
##tracon
##randon
##harono
##traged
##tegies
##cheval
##anevit
intrapro
##ultine
##osenth
##keleto
##focent
##ecomes
##achery
##mallow
##icales
##inevit
##upered
##hattop
##isterm
##aluche
hyperobj
##amotor
##akenes
##ginoly
comparer
##ocanti
##aridis
transpar
##rinthe
imageset
##aburob
##allese
##demato
dataseto
copredic
intereth
##uralow
##itopos
basecall
##ersten
aspartic
##aposes
hemocomp
##aminec
##achico
##usubel
##ristev
##mouren
##acaron
##candel
##presti
##ueclar
hyperech
restenos
##ochico
##umenth
##uronew
##somato
##mengin
##istemo
##bemeti
##rattin
##carene
##perand
##iables
##atined
##othane
##levery
##ermedi
##ectset
##ocuren
distrib
##rabel
##enodo
##ecour
##demol
##oleti
##geman
sustent
##many.
postequ
##heval
##lariz
##avesh
remotin
interel
##isequ
presure
thatthe
worthy,
##otran
levered
##ueger
##imore
##eload
##veste
recomen
##siled
##tenon
##iareg
##fumes
##decar
##rosec
##renel
dentine
##acone
##dised
##raned
resuper
robuste
##moson
monotyp
amortis
##nonex
##diles
##uchar
##amabe
##nomon
##vento
onestep
##acton
##uecar
##sitor
##timor
##ublel
dematel
##atrat
##ancev
##dopot
##busti
##aluma
##cenog
##resur
robotis
##dises
chasses
##amash
##besti
##bushe
##Anech
##ustra
##calen
##itrap
##erobe
##limed
##grama
##osign
hersche
##pland
##umene
##orene
##etool
##acesh
usecase
##dodes
##ugiti
##uston
##erane
##hagon
##modic
##icicl
##asent
##posus
fibular
##harit
##imeth
##simin
##keton
##abeco
##ticar
diselen
dirigib
##titer
##pered
##nocal
##omoti
##utsed
##disor
##oures
##ameti
increse
Conesto
##acare
##ximas
##onon-
##fever
##revit
##modem
actinom
electon
##seses
##aneth
##anent
##mants
designe
##celar
##weene
##leves
##decap
##resto
##derel
doweled
##iasec
##iridi
##ageco
focally
##comob
##levit
charing
##ocone
##fusor
##achis
##bumen
##attak
##momon
largele
##ledon
##ragro
##airob
##onoly
##andog
##ersic
##ounde
multino
##lding
##ribun
##haper
##putin
##arico
##ardon
##anodi
sonomet
chantin
##kever
##iaper
##ceres
##stine
##comas
##soren
##netop
##reled
##eares
##arigo
##flare
##agong
##datab
##adisp
##cento
##alema
##irano
##cheri
##somal
##ewest
##unden
##decor
##odeno
clarion
stakes.
##iados
##tsing
##istra
##motob
unevent
##ostet
##Alder
##rados
fumaric
canalyz
##dopar
endocan
matical
##visel
##airal
##riper
##hacon
##wasth
imation
##adino
##hendi
##ionet
inflect
##stego
dicover
##alimp
##conop
##onous
##ucari
##ruche
Tomasel
##atopl
non-les
nodeset
##odele
##ravis
##neses
##moner
##caran
##adrig
profund
restudi
##gomen
##teman
##tiled
##temer
sparest
##unoch
##thera
##anedo
##outis
##umain
##jecth
##ignol
##sober
##prequ
##deson
##stemo
##halem
nosolog
##emake
##imeno
##(Stak
##resem
##twoch
##doche
##achib
##enesh
##keres
##rache
##ocoma
##ismar
##peret
##tspot
##undec
##asort
##roser
##atask
legomen
##iadin
##eshen
endofun
##kster
##acobe
##adele
##acene
##henop
##harer
Indowor
##eston
##meles
##atear
##emine
##Stout
##angos
##ineco
##astra
aridity
##hanel
canton
##avet
##dear
##sply
##enow
##mocl
improp
preven
##mard
undeco
postex
preequ
##earo
eventh
cantin
aminim
thenew
##advi
##ndet
##abur
##gour
##icic
madrid
##amav
##iall
##gite
automo
##arem
##ifit
solari
##veti
acetop
cantra
##sone
##ndev
##arif
##ocle
indole
##geco
##imop
Stenot
##iaco
##ibut
makesh
wether
##cofl
##ksit
mortis
finsto
##orob
agiven
##ewon
##isop
##amem
##ffec
##stum
##akem
indigo
toutin
##asut
oregon
machan
##doce
attent
##idit
##orex
indign
sundri
storer
##alup
##ewor
##valy
##grop
##gner
##acap
##osth
Forton
Anodes
##imac
Conoco
##ewet
discal
##unow
##amop
##seti
##ipos
##umob
##ticy
##dris
serene
staked
##iram
##amam
##iame
timeto
##odex
##erev
##loce
##esof
##ichy
Indign
##alec
poston
##grom
##ldon
##edet
##iair
##agid
airing
##edex
Tourer
##iath
##lere
##owhe
chased
##Stit
cantor
proble
##esob
anemot
##twor
##ishy
anomer
prenor
automa
mentin
##ibue
##alow
##ilev
##edob
##outo
amples
##odit
##tser
theore
##ucal
##baso
matthe
##nosy
comato
##ifid
monger
##unec
##elll
##avip
malloc
##rigi
undist
##ksel
##ffes
##neme
Thelen
##stut
##noso
##otof
vallec
##umap
##Ased
##Asub
##asog
##bele
willed
domine
##gono
##emec
##odot
Stones
onenes
wheren
##adat
##cepl
##vito
sutras
##hame
##Fint
fumed
busof
##ofu
feren
dimet
trasp
comap
devit
simon
mesog
stout
##(St
netwo
chero
aceto
chari
Tones
nemes
##wom
##'st
caret
domen
posti
magin
funer
##goc
nomad
agrop
asthe
conop
outsp
nonev
subul
legit
indis
trabe
Aller
memin
haste
Weser
##'sh
moton
denor
acter
##'so
hemop
##dsi
acomp
Aspar
minst
##dso
marim
dater
golog
twopl
demen
hypos
delex
deran
##qun
##Tob
rants
retyp
menor
##cev
mongo
seler
ames
endi
amob
isto
plet
fife
pror
tore
anor
nent
ofen
eren
Ando
amin
unos
dico
mair
mego
rant
kent
gies
Topl
bask
tobe
tral
sech
gole
ande
amis
Tomp
inot
fect
advi
mamp
mequ
goto
unel
agop
Anom
gira
Asus
mapl
mage
shy,
Aldo
Toth
Asto
futs
ager
ples
anop
##Ė
##ą
##А
##Í
Asu
giz
##Д
##Μ
##Τ
chy
abe
isu
##у
##‧
##þ
nog
##Ⅲ
ara
##є
##ﬂ
##：
Ith
git
veg
##⥈
##⟶
##ẋ
mav
##ə
opl
nev
##主
##𝑑
##工
##展
##À
##›
##作
##往
##輸
##元
##識
##搜
##著
##基
##知
##庫
##技
##潔
##手
##卷
##調
##個
##好
##內
##種
##驗
##向
##要
##樣
##風
##詞
##念
ℏ
Ĥ

Α
Ô
К
ñ
‚
Т
М
₹
∙
̈
̌
À
⊇
蠀
ȳ
⌋
⁎
≖
̊
ʃ
𝜌
ϴ
∋
‹
##nomethodologically
intradistribution
##problematically
##deregistration
##nderestimation
costeffectivenes
overestimations.
##underestimates
##subextraction
##henomological
##roparameters
isoperformance
##inodimethane
##anocomponent
##isestimation
demonstratethe
activelearning
dataprocessing
##informations
technologising
##estructured
##adrisection
##ethodically
##attractivel
##iautomation
##romatically
experimentaly
##restructure
forementioned
##rediscovery
forestructure
monocomponent
##eprocessing
##oclustering
##idifferenti
##flectivenes
##isestimated
##ndetermined
##considerate
ofinformation
intraparticle
##econsidered
##unecomputin
##anocomputer
implemention
automations,
multiselecti
##risectored
##ogenerated
##tetramethy
##estatement
##ismologist
asignificant
##ceptivenes
##formatical
determinethe
##henomenon-
##otechnique
##omachining
##ocondition
##Congestion
##avecurrent
##transplant
##featureles
andimplement
pregenerated
noneffective
commemorates
##conoclasti
##contractil
##procession
##iffication
##iautomaton
##monologist
decompostion
##ultimotion
commoditised
##extractive
##macotherap
##etravalent
recompletion
multitaskers
##atticevalu
optimonotone
##moremanen
predecision
##multimode
amethodolog
##godically
intracommun
##ultitrans
##stheoreti
##fromation
##ragically
##uroregion
##ultimotor
##iselinear
algorithmin
##epresents
##-limonene
##systemati
##isomerate
demostratin
remachining
##rengement
##mothering
##alletised
##fficially
##ogostemon
##igificant
##instructi
##tradiscre
##izationof
##elletised
##utonowash
##tradistin
##pentheses
##ultispace
##calespace
##anofactor
##aclassifi
##amardinos
##echanorec
##predation
predisposes
destructure
##enesereth
##postorder
##igitising
##inflected
##ynamicist
recommander
##discarded
##isordered
recharacter
##anoprobes
##ubularity
##locomotor
##comodates
##telerobot
##encelevel
##traproduc
##omesigner
##istracter
##dedintime
rerepresent
##supracomp
effectivene
##ediscover
##odementor
##comonoton
subelection
##egization
##edomodels
powereffici
##icization
##posthuman
##urotherap
##theromato
terminologi
##blestones
##ridelect
multistudy
##astworth
##eproduce
analysisof
improvethe
##avespeed
Theresults
##aredevil
##sidising
##posters,
##traveled
##matische
intimating
##ricanter
##adynamic
##eloading
stevedores
postindust
##iffusing
##hichever
##sproblem
dirigibles
##carified
climatical
intracanop
##osection
##iferates
##aminoben
##curances
##softened
composters
##oprother
##allowest
detraction
compostion
nonextract
##prevalen
automechan
##handicap
##ceptivel
respresent
##ecorated
monoplanes
##rofiller
##forested
##chardist
highenergy
##terelect
##inematis
##othering
##resters.
##mostated
##romachin
##buprofen
##lestradi
##sularity
##ubletrac
##formatis
##osteller
##econstra
##extraper
multispace
theranosti
##Tortorel
##exposing
effectiven
##iablenes
Indifferen
##omonoton
##econcept
Indecision
destructor
##mplantin
##ongiform
##elleseth
##gologist
##ultramet
##enestrat
##idescale
inflecting
machineset
##ibustion
##idatable
framerates
##gitimacy
##oundered
componenth
preselects
multinomin
##calarity
##sitising
##reesound
endotrache
##dourants
##echnosoc
##whenever
##egistrar
##onomatop
##multinet
##instates
##anderror
##rastates
##parentin
isopattern
inflective
structurer
##isemanti
presentist
##steraner
##unerated
##radescop
##reservic
multiplech
##coprofil
##temether
preaching
##restand
##eprofil
##etiming
##inemeti
##Allowed
##emander
##avenges
##tracomp
##utorate
multispot
impliment
##texting
##achisto
##nduring
##taskers
##esuming
##ancesen
##somenes
analysist
##dimpled
##driding
##rentino
##souther
postoptim
Itinerant
##Aspects
##yproduc
##calaris
##oledoch
##aristor
##omegene
##atthey,
##imonene
##tengine
##asteles
##allardo
##ributer
##iacomin
isocandel
##mistake
##comming
##siveles
##heromet
severenes
concepted
##omachin
##itition
environem
##apleton
##ilarily
##ndition
dynamicly
##ististi
##imonoco
##fischer
redistrib
##utoneti
##alector
struction
##itrages
defferent
##nomedic
##astitis
##rosives
##clarity
##iramine
##etracon
##alimant
##ingiber
##iarises
##netised
##singing
intimated
##rispect
##rolocal
##ethodic
##echanol
##illetin
##mostone
##tonemes
##extrane
##egiment
##odisper
##isevalu
##undatin
##nemouth
##undered
mesolevel
##arimano
##elevisu
systemato
##iterent
##resenet
##ortster
tradeshow
##enestra
##aliment
##umatran
##enoiser
##osecure
##telecon
##oneural
##perates
##esuthas
##emining
##acurate
##iacones
##atimage
imposters
classiffi
##ardones
##Iterate
problemin
##entwork
##forever
intrarout
##macores
##operant
##ulocent
##ialects
##corenes
##dsters.
implanter
##adenoma
##curants
##anoprob
##romothy
##abledri
##acterem
##magical
contraven
##ramelet
##denocar
##ridolog
##geneses
##ugement
##ellerer
##usumoto
##olinear
##alinear
intradata
##atracur
delection
##iblenes
technosoc
##revenge
dynamicis
Congolese
##alectin
commandos
##roposer
##ogility
##ticobul
##romatop
##celesti
##ersters
datastore
seminodes
technopar
##asterer
##contral
##oundish
##heromon
##utorder
##sthenes
##ressist
##vically
fusimotor
##aclesur
##romolar
##ispaces
electivel
casestudi
intradisc
##inespec
##gelevel
##ethanot
##fintion
planocent
performab
sonorants
##engevel
##umenous
##unexpl
##renton
##ersity
prestand
##oreles
##ultito
intraply
##ocorre
##ancesh
##esimal
##enoise
##hiclar
##sovere
##ificly
multisen
##postra
##areson
##sinclu
##orandi
multimes
##enotin
pregener
providen
##asumar
##uesome
##modest
##mained
##edrine
##matise
##leload
##mement
systemon
toreduce
##revalu
##inster
compered
##mentit
supracon
##asofer
##ismale
##achino
##propro
##benton
outraged
##vignet
parameti
varified
##anosol
##istate
##entime
timevari
##masoft
##anocer
##icance
proceses
transest
##amorti
##uminen
##egeman
##dostem
##sicher
sensored
##rische
##iamine
##isemet
actioned
##simpro
##tstrap
##sicant
undecane
optimall
##unomag
##instin
forecour
##ritone
##astime
##imolar
##Anomag
##etechn
##Tomato
##halari
##inetob
##spower
impacter
##entrap
##venton
##tonous
##tedate
##usofit
##Anodiz
##aminol
vehiclel
##avisor
mastersh
##alumel
##uenedi
showered
##ifflet
##igitis
contraro
##fueler
##centra
##romast
extracti
##unempl
##aticly
computor
##ressex
##atinel
retooled
##ranose
##clecar
##uringi
##ematel
cofunded
##beding
##romech
structed
##idatan
##ocheng
##cereal
##ifican
topredic
##evines
##actopl
##overer
##shaved
fishery.
##andate
##acemos
endosper
##isosur
maskers,
##ireson
cofiring
##odesul
##kingin
##sesing
##nonequ
intracar
reseache
##itiser
##romoly
##henequ
##iffler
##magiri
Allocent
##icofor
##arenth
##umored
##toneme
##echnor
systemin
##adores
##etracy
##anolog
##uestra
##useson
##tecton
##sident
##antsev
##utimod
##ifidob
##sedent
##imonot
##uroper
##inomak
##enedet
##otwork
##etitin
##aintsh
cleverer
##idemem
##rucost
##bueren
monoplex
multiste
##temadi
isopleth
splenocy
##unoreg
##avidin
##asparo
##aceles
##entrac
##ridire
##ultisy
tonomous
##riplel
##olimot
##tiload
##trader
##mpared
##iclust
datastes
##unopos
##avecon
##astele
##aceman
classiff
##extsen
##ershow
##matton
##ancest
##titrac
Westerst
##echard
approver
##dispro
remining
##icoure
##rimino
multisec
##onomor
##attiti
predates
##osecur
multitop
##oundex
##amanti
##enomin
##undate
##extrac
##acones
##inolog
##igines
##nosper
##unomos
##onocop
##tother
intralim
##ectima
##eredit
therobot
##ndodon
partical
##inemen
##teache
datasour
##oseman
##aritis
##olower
##funder
##asimen
##acaran
##ledged
##ratton
##nonexp
##iritin
##odimer
##semato
##vicari
##coster
othering
##attimo
Aspector
##tences
##ructin
##astrat
##implet
##iximab
intravit
##antito
##riditi
##applet
imagenet
declarer
impredic
##hacker
##dispre
##osedow
##notsor
##omaine
##airene
##matesh
commiser
##hicano
##decont
##itines
##ereman
##oposed
##adisti
##asethe
##roboto
##romaly
##regist
##Stract
##redemp
##timedi
##amolec
isospeed
##decant
digitise
##tstone
##gromor
##omento
##emaran
##fiding
proposon
##ultimo
##harded
##imemas
##ularit
##ndomor
##ndomet
##adevic
multimat
##susing
continen
##avison
##fechar
##rimace
##ulardi
##rimack
non-lect
##anogos
##astore
robusted
##odemar
##agelet
##onemal
##machir
basecour
##canos
##istyp
##doned
##dereg
##obles
##elesh
##redri
##attis
##genet
##alevi
##esequ
##disoc
##notin
##angne
##-leth
##onopl
##gimes
##ermen
##hacel
##otson
##trati
##obase
##inesh
takers,
##ueret
contras
##ereto
##ismes
##ocard
actived
##eldof
##Indis
##bedri
##etone
##isede
##masun
mandril
predril
##olima
##adobe
transus
##sifer
##itish
##hador
thereal
##auset
##ortst
##venet
##shevi
##bumed
Inexten
##rosti
##izede
##ileso
sorenes
##ugent
##abere
##meren
##osele
##haver
##athen
##ulocy
mesocar
##heras
intakep
##sesof
##rofoc
##ogiro
undeser
##lecto
##ecter
##decal
intimal
##butsu
impacti
(Strati
##atish
##morel
##romeg
##newer
##inode
##inour
##riden
##utest
##orano
##raven
##ignon
##osour
##rasum
##typer
##oload
mesothe
##mesop
##chequ
##ragic
##ingin
##esosp
##haner
##romem
##drino
particl
##ructi
##olare
unester
##siste
##ousel
corresp
##comon
##iedow
##ripot
##andot
##itent
##ustof
##reent
intheir
##onocy
##etran
##suren
##ualar
##feger
##omare
##eparo
##emour
##heran
proplet
##arone
enginer
transim
##denth
##getyp
##uesen
##ireal
intrase
##gound
##gemon
##cenos
##llene
##arese
mounder
##ianth
##estul
##rosel
marigol
##metis
##sinol
##Asper
##otone
##iesti
##atake
##ibund
##sutor
##mopar
##havil
abetter
##ketis
actimet
##norer
##thequ
##levis
##ismis
##romer
##icise
##isest
##robun
##cever
##ruces
##astof
##iants
##Tomog
Forelim
##epron
##anork
##drich
##bumer
##atice
##obuil
retakes
##ortop
##varin
##virac
##urale
##igocy
##esump
##vigno
##tiste
##sprop
##coman
##umocy
selenog
##iadoc
##adoch
hematop
securer
##icano
##doble
allocor
##erech
##veson
##reesp
##ecaro
##omand
##merer
##eldin
##lesen
##uenth
##emant
remeshe
##somer
##menes
twoclas
##chene
##iradi
##untra
reviser
##nosto
##larid
##buter
##presh
miniman
##iadom
##chano
##unone
##risom
##ecler
##hanon
##eldon
##manop
##Andri
##visto
##beled
##dores
##rober
##enedi
##visos
##semon
##aplen
##ecomp
##ignos
##maine
unorder
##icont
##Andom
##very,
##linex
##sonen
##erest
intrane
##leser
##ochow
##reevi
previsu
##encec
##Forex
Wesomen
##sicle
##umath
##demot
##manet
highend
##ongob
timesen
endosur
##avile
##nomed
##omodo
##momas
##tinoc
##touts
##posto
##imode
##preem
##demos
##ulten
hyperex
##comac
##ianto
toposes
##radin
##adose
##idoly
adenoma
##curon
##amole
##ushen
monotim
##igous
##imean
##ksour
##ignot
comulti
##rarel
oration
##odato
##regex
##avign
##hairi
chanter
##ibeti
##clima
##hican
##tenor
##redel
##alele
##ourop
##achil
##areti
##eachy
intrasp
##mecan
##elesu
##extit
##ecomm
##disem
##poser
##stech
##deman
preache
##dotop
##gneti
##ighen
##larde
##isere
##ampro
##odiff
##mogon
comolec
##radec
posther
##ersti
##ulesh
##raire
datapar
##cance
##matra
##effet
compren
nonexpl
##inopl
##ndevi
##perel
##oadap
##ofish
##adviz
solariz
##obtop
suprach
##sedis
##hevil
##lowhe
Ashevil
##odoma
soundiz
##focom
agrobot
##terec
##tonos
##ximow
##inono
##inosp
##deval
non-len
Allard
##blet
datain
Weshow
amotor
presub
noisel
##ousp
##arec
##aluc
Indore
##dicy
resuts
vestin
perest
fidele
Indira
trans.
##adit
##isos
Anamor
##viri
suchas
propar
##osot
##cthy
##suma
overem
probem
##kemp
stract
##eses
##isup
##irob
potest
aramis
##soch
outsel
##etim
##ixim
tourer
##noch
##decy
##usim
strage
##arex
##ctst
recomm
##ubut
##stec
##osec
monole
neared
shaves
##ndig
##irex
effeti
##Tout
##umop
##soce
##utsu
##buno
cofuel
Inoper
##hamo
##ifis
##ifly
posthe
##prev
buster
Indisc
eraser
##igom
##ticl
inthis
##rily
stenog
potion
##umam
##keng
##opre
##wort
twowhe
hermap
##memo
##ameg
##ofum
##sifl
fleshy
macker
##idri
##mapl
toples
##asof
Foresh
##'son
attern
testis
##desy
trashe
canter
##omac
demean
##dene
##ofib
##locy
##maro
foreto
applan
endues
preduc
##lequ
thesen
##irid
##-ofl
statel
##adod
##uale
##ubev
gomper
##idot
molest
coment
##kema
bustin
resear
##vesu
##teng
nonobj
isonor
##agof
##egon
maplet
sparel
##ibas
bution
overen
##bedi
##tsus
##Asic
erenti
couter
ofeach
presem
##enog
##amow
##atet
##osoy
##aceg
##elde
formap
networ
##ndol
##onec
endone
##vole
##aske
##noto
##exto
##inon
##ffis
prober
every,
formon
##uply
hypost
##geff
froman
##iatt
Tomosy
Aldous
endopl
Sterne
##imoy
eventi
##usol
##stup
Stopar
##anec
mandol
intrat
roboto
##ueno
timeco
##puti
##vima
##iamo
##gnon
stupen
##bues
wherex
##wase
Wearer
##nork
##useg
##haco
supren
##somp
##urof
athree
hector
##anem
##dsur
corequ
##osub
predoc
##seme
##asec
bested
##susy
minesh
##ldin
pared
uneng
lowen
nonen
mowed
onesh
corec
moden
cofin
datam
achar
metin
##gip
##Aly
uploc
sulev
fiest
dimpl
aprob
##bem
lowed
estim
##cth
##dod
plano
undig
copre
(Ster
redis
reges
Fines
basec
acesy
Itsel
corer
imino
enger
leves
bused
curen
datel
modic
avari
inder
preen
##Tos
manor
thist
##ksu
agrof
##qur
wased
thero
##gex
vedet
mesol
desti
##sev
ender
venom
heres
kemen
sured
Astut
sundi
fecti
fects
ratel
they.
chere
unest
remer
demes
somas
Stise
regex
redic
acomm
fusog
coran
basen
Itrac
ketor
chico
unemp
poser
Ashen
demor
toner
origo
socor
haves
timec
##owh
hegel
sutra
noned
vedic
##tew
sonom
Astin
deled
Allel
resop
ober
noma
twow
erat
ofex
acon
Itis
obel
rech
cofe
flim
Anel
aras
Inop
deso
aces
hese
noco
opre
gill
ator
aply
vere
outo
nore
asem
onor
arim
topl
inof
Asin
clow
itis
outi
feng
Asun
ased
soti
bele
vect
resu
Tout
ered
ofun
twos
Alel
adic
atto
sush
beto
opar
reso
asub
bemo
kesh
robu
beso
Andi
(Sti
Anod
atwo
asel
Anol
ler
ise
##．
##⊃
##е
##ȯ
##̧
ved
sot
wen
Ine
##≳
##О
##ņ
As.
##〖
eri
##ƞ
##ḿ
##Ḥ
##∉
hec
##а
##א
##舠
##ᴀ
##✰
##ˇ
##
##⋆
##⪯
gop
##ʃ
##ṙ
##葦
##ṅ
##⋈
##،
##族
##ť
##ɐ
##≒
##П
##̌
##智
##ĺ
##
##⁢
##體
##良
##加
##引
##備
##保
##然
##環
##線
##導
##理
##各
##件
##係
##動
##依
##準
##百
##科
##定
##異
##評
##創
##原
##面
##材
##會
##節
##查
##覺
##項
##數
##值
##來
##入
##愛
##影
##響
##購
##擇
##參
##考
##組
##瓶
##精
##符
##廠
##商
##開
##立
##透
##吹
##萬
##屬
##地
Ф
①
②
③
ı
î
¥
У
ũ
ʄ
Ä
◆
æ
‒
Ⅳ
х
В
：
˂
☓
š
Ώ
∓
≲
Ĝ
蠐
⊈
⊄
⃁
蝄
क
艂
⋏
⋎

Ḣ
ℰ
ɸ
⇏
◁
Ẽ
ʽ
吧
⩾
ɑ
ᵋ
Ǧ
﻿
ᾱ
「
形
performancecomplex
##suredistribution
##icharacteristic
##gotechnological
##henomenon-based
##acknowledgement
##formationstechn
##ogicalarithmeti
##classiffication
##henomenologies
combustionengine
##gnitionengines
characteristical
##optimizations.
##nderestimating
overestimations,
terminologically
postoptimization
##programability
transinformation
intraprocessing
##eregistration
##verestimating
##malefficiency
##soperformance
##environments,
##radynamically
##gecontraction
##idistribution
##metaknowledge
##enotransplant
##anotransistor
##docontractive
##isestimating
postexperiment
##predetection
##erepresentin
##rediscovered
multisectioned
##stemological
##ieselengines
##amplecomplex
##otobleaching
##overestimate
##agemechanism
discommodation
##erminologies
##formatically
##arepresented
problematising
distractivenes
##multitasking
##riminologist
##developments
distributionof
##ribulations.
##icalsolution
##performanced
##utomatische
##estimations
##multiservic
##redetection
havedifferent
differentimpl
##abulations.
##preexisting
##emosthenous
##ressionally
##impractical
##romomethane
##regenerates
##aperecorder
##decondition
##minstration
##vedifferent
performations
##motechnolog
demonstrates.
##edistributi
applicationor
##ultisupport
forestimating
##ultinetwork
##kstructured
##ationsystem
##reselection
##multisensor
##enestration
##opleremover
knowledgement
non-locomotor
##isestimates
##ametheoreti
##reedecompos
subelectorate
prestructured
##ineffective
##andetection
##iresolution
##rinological
##algorithmes
##nomological
##rosodically
##registering
datastructure
##ativecommon
##temological
##declustered
##roprocesses
ofengineering
##accuratenes
##utomakers,
mesoparticle
##spectrally
##odistribut
disparatenes
##ferencelim
##isestimate
##egitimacy,
intaketemper
##asodynamic
##varication
##actheristi
##istracting
##icaleconom
environement
##etheramine
##idodynamic
##econdition
##utomotores
##idimention
##regenerate
retransition
##climatical
completition
recombustion
##roprocesor
considerated
performanced
##trasystems
propertiesof
##ediscovery
##ademachera
##ronologies
##thashastra
systemsystem
##ologischer
##ersistency
##lectivenes
methodologic
##dematerial
##odiscovery
intraclasses
##nonoptimal
##isodically
##registers.
##extraretin
##destructed
##netorespon
##robotinter
arepresented
##ationspace
##-locomotor
resumability
prestructure
##humanerror
predeveloped
parametersof
environmenti
##iberatenes
##intransiti
##ndithering
represention
searchengine
##extraposed
##ultisearch
##edomodels.
##intraprene
##calarising
##iformation
##iropractic
##ultitransp
##otoprocess
Theselection
##discarding
##tioneviden
statemachine
##omedically
##algorithme
multisupport
##prevalent
##ultitimes
##ultispeed
##ferencepl
##diffusing
timeselecti
signallevel
automatised
##idatation
##ldodecane
##gecompres
isimportant
##izelexpen
##limestone
##Congested
integerated
##antinoise
##roplarity
performaces
##imetrally
##ultimatic
##utomative
##echanoche
##onodisper
##romonomer
##echnocent
intradiscal
##etracting
##osounding
##idomechan
hyposystems
recontoured
recommanded
##contoured
##disposing
predominent
##cetration
##controled
intratrache
differentin
preselector
nonexisting
##atheromet
implimentin
##celerants
##gnitioned
##umatising
##yperexten
machinetool
##ermathane
##ructoform
distributon
##attstechn
##fforested
##groforest
##anoproduc
multistruct
##edimentin
##romanomet
##ightstand
##ightworth
##echnosoft
uneffective
##hasespeed
##agization
programatic
##osemodels
##unocompro
##reviginti
##performin
##esperatel
##ailenergy
##transitor
##trarobust
##formotion
##iformally
##terneural
##eredigion
##mativenes
##ousemates
##idecision
indatabases
##oundatton
##tethering
##erentinos
monoprogram
contravenes
##icarditis
clarinetist
##ndotrache
theragnosti
contravened
##inodiscus
thesemodels
problemspec
recomposing
coperformer
##etrastate
##sortition
##omatising
costoptimal
##iativenes
##contrapos
##oprocess.
##ortofemor
##trastruct
constrasted
##ampletrac
representor
systematise
##veconcept
##nosemanti
caretakers,
##omegenous
algorithmon
##onotonous
multiminima
##emplarity
##omemakers
reclustered
##pentestin
##travenous
undistribut
costruction
optimonoton
##comments,
##momanomet
##egisters,
technologis
intimations
##anotherap
##echanosen
analysising
##eldeffect
##etramaran
##procesing
##rostenone
##nomatoper
##ultinode
##areconom
tradespace
weconsider
##ipowered
##andeming
##uelimane
##everance
undesigned
##foremost
##onerates
##uperelev
theresults
##ausethey
wereconduc
problemsof
##umations
##ularises
##tetragon
##onerated
##iforming
##anocones
##multimor
##utomatis
##rationed
##exposome
singletrac
##omeasure
threelevel
##maritime
oflocomoti
betweenthe
##anominer
thevehicle
coproduced
##onoplane
##ribesthe
##valerate
##irigible
##Forester
Foresters,
##ethaneth
##fromance
##angement
##uminesen
consideres
##postured
##timestep
hyposystem
##ofestede
##igitised
automotion
##supracon
##isetimes
##umachine
##ersistin
##asomotor
automonous
##umention
##echicles
##amintion
##ridescen
analysises
##anespace
##omofocal
##astoflex
dodecanedi
##iformaly
distention
##reverent
##processi
concepting
##ortioner
##gotrache
##emperate
##hampered
##devising
commoditis
##cesensor
##maticaly
compareson
##ulterant
fueleconom
##aterobot
##roproduc
##lexpower
##imestone
##osounder
demoustrat
##ocharing
##anolevel
assesement
##agistral
##eseacher
##ascheron
##anocanti
##reentran
##domoment
##ropotion
##elemaint
selenocent
##ndorever
##ceptives
##siderate
##tramoder
##netising
##raregion
##ignement
##ragement
##hatische
nonordered
##ultisten
##timecost
##cherishe
##Tochasti
singlestep
##ndocardi
##andecomp
##ableleng
##misunder
theorempro
##iprogram
##tractile
##tracardi
##demeanor
##jectwork
##rastract
disparatel
##compares
##atematic
##isomatic
itinerates
##neurally
##masters,
##ynamicis
##enetrati
##imagines
multisecon
##icidolog
##importin
##ampronot
##allester
featureran
ketoprofen
##ellimedi
multiplesh
recomposes
##ousemate
##esection
##antising
singlechan
##nomotion
##ationsin
##elesuper
##icomotor
practition
analysised
##erengeti
##ablespec
##omodimer
measureson
##intraper
##ticleles
contrastor
contrapose
atheromato
##rimanded
##magistic
##rimation
##enomenon
imposters.
improviden
##eselecti
##redispos
##temative
##olariser
##erengine
systemalso
knowledged
nonemotion
##reachery
##ologizer
##oratenes
##venomous
##ramatist
##commiser
##anesenes
##aretaker
##untested
##carifies
transomati
##chengine
multinodes
##costofed
comparespl
##waresoft
##stractor
##procesor
##olariton
##ressured
somatoform
##otonomet
##processu
composomes
##timalari
##ancechar
posteditor
##denoised
##stractis
##omogener
##alentino
##gnoranti
##notherap
##iarising
##ripleset
##aroprese
##namentin
restructin
##wenemail
##ampleset
##ilarated
providenti
profundity
##tisystem
##portsper
##ratising
##osthuman
##tecapere
##ionexten
##iteratel
##revising
##iteplane
featuresub
##edevelop
##posters.
##traprene
atradition
##abulariz
##derances
##anosomes
##emeasure
stonemason
featurevec
threestore
foredesign
##arecard
##amarine
##ationor
##dispose
##telecom
##regimes
##obasher
##hereles
meandered
##canolog
##chardin
##Tonoise
suspectin
##atingin
nonenergy
lowenergy
##ultiter
##putsoft
##ctionof
##teletra
##timulti
##singles
##coreshe
##gospeed
##takers,
##dostere
##romader
engineman
##eldrich
##umallow
##mentsof
##prerequ
##ingines
##adation
##amortis
##alumino
##enement
##irandol
##urances
theservic
##gostino
imagedata
##cedispl
##netiser
##atenous
##obehavi
##antimet
##imestep
##odicaly
##aturede
##-larity
##malload
##ndemand
##rofited
##ibution
##nedimen
##obuchar
##etratin
##ristear
##astimes
##oundati
##yperexp
##ationon
valerates
##ismatic
combution
##everest
methanoly
automator
##prestra
##rigible
##implest
##oloader
##compost
##isposed
##ethanog
##agenome
##actones
##roplant
##astersi
##akester
##spacesu
##ffinose
##mechano
##getisti
##suratel
##scheric
##modesor
##imechan
##anenous
##ridedow
##utomesh
##ightsti
##restore
##burated
##entialy
##asesous
##foremen
##otopres
databuses
##anomoly
##henomin
##chandiz
##amement
##idester
preffered
##formace
requlariz
sterances
##marined
multipler
remeasure
##combust
##igiplex
##rerecor
##ocuring
##cenedes
formating
##owastes
##iframes
##fibular
##atising
##igicant
##antithe
fundement
##genomon
##fflered
##gotisti
##onoprop
##isioned
##gnosing
##despoti
##amplary
##ndistur
##technog
##izerman
##basedon
##maranth
##nematic
##Alector
##canthan
##cerated
##idistra
procesing
amultiple
##berates
##amechan
processin
##oconduc
resultsof
propotion
##tstruct
##ridiron
##angoste
##stenoti
##anoform
##severel
##anomesh
##agenous
##valenet
##estradi
##testine
##disprop
postevent
Tolentino
##utonome
intracomp
##utonomo
##agogist
##amonedo
##dsters,
endorever
##sprache
##ersuche
##methode
##ethoden
##reenest
##umoured
##idenour
##idescre
multisort
##umaines
##ocomput
##ablenor
imagestit
##eserror
##locales
##denumer
nonenumer
##morever
##amotion
##dostate
##ultiman
##hadigit
mechanosy
##reeclim
##ouseman
typereduc
##amentin
##chances
##mposter
##asumoto
digitiser
##isoplan
##dodimen
##onexten
##cheffer
##rosimpl
##isoform
##amethod
magistrat
##gesters
##postech
##commodi
comparand
##ridrich
##untrans
##multito
##esimone
##discont
##rescher
##raretin
##henomes
##heraton
monostrat
##splants
##ableles
##comethe
##tofiber
non-levit
##netorec
##-lenges
##nodated
##ackerel
##illiman
##hypothy
##ostrand
##ellevel
##ifially
motionese
##adricop
##tworked
##istemol
##onocent
prestruct
##viriden
##rederec
##obustra
##busters
##itecore
##enoised
##agespec
##ispeedi
##iffiton
supracomp
##ristate
##minobut
retinomor
##iplanet
##arithmo
##amparel
##icising
##ypothen
##nowhere
##courant
##selevel
##orentin
##hevalle
##utorecl
##undomin
##icardin
commentsp
exposecan
##adviser
##teleman
##renocor
##umoural
##icially
##sention
##ultimed
bedeviled
##nonexpl
##severed
##abusing
##utioner
##routsop
delegitim
##ramatis
##presump
##ogocent
##Wethere
##hatting
##olarise
##enomous
calcarine
reducethe
##gentino
##esensor
##ichardi
##opresen
##ologial
##timento
##timated
##gogical
##ultimar
##rasecon
##iariser
##omonoso
##amenode
##unerate
##ederate
##multith
##untimed
##sopleth
##istinen
##uprofor
##arestra
##isiones
##ortisol
##shevity
isologous
##risomes
##trasent
##irandel
##adesign
##ficiall
##attener
##etralem
##stermar
##resumes
##omasund
##modener
##matiser
##ificial
multistra
problemes
proposent
##rositin
superform
##technoc
##nomadic
##enginer
transever
##ralimin
##manomet
##Forever
##oplanet
amoderate
##elevich
recontrol
##iristis
##erspace
##abethan
##hackers
##esignet
maledomin
##romance
prespecti
nosecones
##andouts
extractes
##ilocore
##osecant
##ultisub
##romacy.
##echneti
##soplant
##aspaces
##iciples
##etradic
##raviton
stegofire
##imevent
##icandet
##itraves
##othery
##insten
##ightra
Conector
##rucano
##oremat
flecting
##uranos
##aserel
##ameler
multishe
##wardic
##basest
##doreal
interand
##dochan
##reeves
##despre
##deleng
##spares
##ramatt
##apland
##fister
##umouro
##driste
##evered
designor
##bustin
Sterndri
##ostits
extentof
##oresec
##egitim
##avisto
##strade
##warden
##respec
impartic
##aveled
nolinear
##trans.
##coured
##angeti
##rament
##tramed
##entine
##noment
multiton
multimas
alsoshow
andinter
##adover
##igibus
presenti
##mposes
prorated
##hardin
##susten
theoreth
##espeed
##ilever
##mouthe
inflects
##ablest
##formes
##sinore
chastise
##owetra
##hatech
##ardide
##unther
##ragimo
##nostop
##antson
indometh
##humane
##ipothy
##ichera
##decano
##radati
formates
##aranel
##comoti
##iclase
##emplex
##osomak
##roming
##ersuch
properti
##onobut
##eseach
##anotin
##'stand
redisper
relevent
##romodi
##uresti
##mocard
##eweler
##andrin
remotest
##ermast
##romosp
##irabel
##ignon-
##erobes
##omecan
##vidata
##utoben
##ioneti
##ofired
##sititi
##ersted
##uranol
##dologi
monetise
##veremp
##anosul
##acural
##iracob
##oregen
automesh
##ewelly
##ledene
explaned
##odotor
transter
##llenge
##sisent
dataleng
##spacel
##ristob
##odicar
##trans,
basecase
##rovery
##utomot
##ecomen
refferen
##ritrar
nosegear
multimeg
##nomoto
##ragout
testwork
asthenop
##ledges
##odothy
##ynamog
singlech
##intest
##flares
##ressid
##idesul
##ravito
##ubulen
disimpro
##rented
##igneti
##ubemak
##raples
operater
reverent
##agical
##acemet
##iframe
##bundes
##planed
##mactor
##igical
uneffect
##sicles
##uestor
##osenec
##tofore
##icoper
##elecar
##preses
##amouro
##antrat
##eperet
##ederer
##emanth
##egemon
varition
##andong
tracting
##ocomel
##aminos
##aterer
##aintyp
##charin
##ritour
##-limed
##aricon
##unosor
##oplant
##acleth
##sulari
##propar
charanti
##stiste
##ronema
##comber
##acardi
##ointof
threemon
##dspots
##matted
##iedema
proposec
##hademo
##iespar
##itesti
baseload
##ultino
##ricalc
##-ofuse
##traleg
##sifing
corespon
##anomat
##therim
##undril
##ishery
##epower
Stenosed
##anodes
##formam
##untrac
##ilento
##clocar
##ersico
profibus
##istico
##aviden
##chery.
rediscus
##anoche
##astema
##avevec
##avarin
##ginous
##avery,
##descar
##iranes
##imelet
##antist
indolent
##acosti
allelect
##rallel
##onoran
##elemac
##odomos
wasobser
##atedin
##echnog
##ldomet
##avery.
##iardin
##iginti
technost
flowered
##obuste
##thenop
##allowe
##ravest
##reneti
##rofuel
##gische
##adenen
optimale
##iestel
##akeman
##ousten
##volari
##llimin
##upower
##porton
##mading
##avigon
##astech
##ichele
##uchard
##elects
##ighthe
##waste.
##ynamex
##tooled
##onoter
##terent
##ermatt
##atener
##umetop
##elarof
predatin
##sidise
##acenes
##sotsos
##eneman
presorts
##omethe
##plenop
##keleti
robuster
##resson
intrarel
##dodata
##ompose
##ononom
##attist
##itence
##necare
##attico
##enolog
##ficion
performa
##hairst
##astino
##edelen
##arandi
##igothe
firstand
##hatten
estimand
signemes
##emaine
##achari
##ointis
formulti
##ucally
##tscher
##stence
##anosen
##timone
##tinged
preacher
undiscus
caseload
##imethe
beaching
##kstrat
##nearer
##ocarev
##eldste
##achies
##odores
##iaming
##probed
##malari
##esolim
##ramine
##uneman
##thants
##etiono
##ulocor
##maluma
##amariz
imaginer
##simane
##anevel
##telere
##morant
##onosur
##ablecl
multimob
indispos
##outsos
##agemen
##enceto
##ortino
##etrasp
fishery,
acontrol
##stinos
##postul
##angest
##idirop
##anouts
##ticari
##astofl
##planer
flection
##osured
##anocap
##buloco
##uegill
##odevic
##implec
##monocy
##asimor
##ightst
##prenex
##arinel
datarate
dignosti
amachine
##formac
##aditop
##ropost
##elevel
largemar
##preduc
respones
##oremes
intradri
decorder
##acenet
##unopre
##intrav
##sevich
##ershen
##ogothe
##ibulev
suprachi
intragen
anetwork
intransi
##icover
reffered
##inexpl
##hakers
##ndomin
##icanor
##isosto
##ugenos
powerobj
##otsche
##rofust
Iterates
##onemon
##obucon
##ubeval
##untine
testedon
##agesof
##cepter
##elemak
singlest
##ameses
##etopro
adenomas
##esteme
##eleder
##sequti
##ematex
##actshe
##monoch
nonevent
##rosino
Aldoster
restates
Tortorel
##untern
robotsoc
##unenes
##stheor
##iveret
##alimer
dementin
##atetwo
##odimen
##ravery
##ominem
multisem
##uranen
needines
##tistes
##dochic
contesti
##approb
##orecor
##isming
##rables
##matico
##espots
##ageman
##eachy,
stimated
##itemed
##domoti
##anthey
##ignore
##restes
##umesop
##imetis
##angout
##hevale
##cepton
##nesset
##astudi
##nogogi
##onetis
##ispron
##aremet
##arises
##ilardi
wheredis
datallow
##itecti
##isosen
##anesul
candidat
agonolog
##edicon
##henome
seletion
##cessof
##liment
##atrach
##osplan
requirer
##anocur
acomplex
##amarit
##ifeman
##ethode
##'space
systemes
##oposes
monochan
##esothe
##cessit
##hypoth
##ilarit
##insted
##parano
##omotyp
##medeto
##restel
##estran
##ristin
formodel
##dstand
##everel
##alaris
##dritis
##henous
##resect
##reesur
##istral
##tilect
##reelex
whichare
problema
##ersist
prerequs
##fevalu
##intime
##regore
nosecone
constrat
datastor
##uevedo
datanode
sonorant
##idousy
##asenor
##iravir
##iciles
##ofiloc
##isthen
##kstras
deloaded
##esumen
##emaman
##ugiper
alsodesc
##odoses
##aparec
##ativec
##amemak
##amagot
##iandin
##aginos
##aticob
##lochic
##llimap
##maires
##disple
##charis
##westen
##istine
##ressel
retimed
##obedi
##roner
##elele
##doner
##ostit
##emesh
##Tomot
##engen
##alime
##ramow
##sitit
##illim
##giner
##asest
##mprop
##acost
##avith
threest
##reequ
##istis
##reste
##asour
##attil
##irade
##ecano
##aleng
##solel
##orken
##itour
##oweve
##nothe
weresim
isthere
##sthan
theneed
toreduc
##edign
##untof
aproduc
asingle
##limen
ofinter
ofelect
bustion
##valut
##Astra
##uetof
dominos
##idith
disoper
##ackes
##domed
##fidic
##umequ
##oblet
nonequl
exposer
##rofis
##Conom
achiral
##insti
##ermas
##buton
##iriti
##ubual
accuran
##olene
##lenti
##ewith
##eneve
underex
##cesen
##eldow
##moust
##gobul
##ocane
##regen
##macar
##moser
##mopro
##amail
##adira
##ongof
##toben
##very.
##rores
##ustit
##ocore
##'soft
##attop
##iclar
##ulere
##hasel
##ameco
##ionex
aromati
acurate
##timol
##istit
##ofied
##onone
##leset
##idino
##ticly
tragion
##Asoft
##atimo
##iamag
##ridin
##odosp
##radel
##ctene
##realy
##kstop
##viled
##ifici
##devil
##ofire
##senow
##obask
##cesor
##bules
neveren
##douts
##fites
##docar
##evari
##Anode
spacest
##mosor
##verex
##utopl
##habel
automan
##aseco
##astec
##notor
##bleto
##roler
##ragen
##fibul
##canes
##oflex
##ialle
derates
allowes
##sione
##ingob
##apres
##venor
##ecoma
prester
##dimon
##ueden
hyposto
##earen
clarifi
##amint
indoles
##idear
##alush
intaked
##utsim
##iffed
##ldrid
##reses
##tegic
##icall
##notob
##umeti
mesured
##ionec
Aldrich
##ichow
##opres
##ucano
##effec
methano
isopres
##abuse
ratemak
##sobel
##undil
##ximec
##uthan
##itram
##hevel
##advil
##lenol
##ueder
##ameth
##elest
##ravic
##ardes
##matel
##disen
implent
avidity
##ypreg
presche
##raden
##yprex
madison
##somel
##ressp
vention
##noter
##ranet
##rofer
##tramp
##ksome
##blest
specter
costint
##Forel
##benti
acompre
prorate
canding
##idesp
##limak
terming
##texto
##rigit
remacer
frompot
##risem
##viner
##osoma
##doses
comosus
##mosed
##viren
##risol
##otsto
##angro
##fisol
##agesh
andoper
##asthe
##iacal
##osema
##omoso
##anose
##temal
##fexpl
##kersh
##anoto
##isocl
##ceder
##imesh
##ridon
##vetyp
##irsti
##eldor
profles
##oseme
##voles
##ibeth
##fidiz
monoply
##tisur
##abily
##sterm
##asost
##edrid
##arito
##-lary
##acari
##neden
##Aster
##rosus
##oblec
##ribas
##rosem
##ypost
##neret
##angop
##asone
##ulene
##mogro
minimas
##hales
##rimag
##mecti
##espro
##engiz
##halle
revered
##ucale
##irado
##omene
##ostor
##entim
##ostun
##masti
##facel
##siner
##amoch
##abuch
##agest
##eldit
##avide
##estus
##cesso
##evist
##diffe
##rabas
##Inequ
##acoby
##osher
##omone
##Thigh
##seren
##adere
demotor
##estel
##usche
##otral
##dring
##sigon
##iesot
##firas
##modil
##uered
##asush
##antak
##iatti
##onore
##resos
##tilar
##enosh
##helen
##ffent
##paren
##sener
##Stral
##inent
##ethen
##umage
##domes
##Still
##engel
superex
isocent
##gemap
theorti
orinter
##fiter
##anosy
Westwor
##reede
intravi
seminon
##intop
transen
##rithe
sematec
##ledog
resters
##wever
mation.
reffect
##domem
timeder
##fimal
##itwor
##risop
##ndocy
##tinop
##roste
##omopl
##autom
##strag
##halev
##clime
##herag
##reesh
minored
##disun
##ingis
theoret
##netin
##ximat
##domam
##erser
##ffied
##noner
Wethere
##hachi
fileles
##gotra
##amane
##iatet
tonemap
##antof
##viran
##genth
##olari
monospl
##clure
##adone
##asome
##drito
##edish
##etine
##Forth
##henen
intrasy
##amedi
##taket
##Indig
##telet
##mader
##cestu
sementi
reacher
##onemp
databas
##pothe
soundex
##linor
##pload
##antob
##avisu
adiscre
acompar
##ridic
##agiro
##venth
##opose
##Anema
superan
##roses
##radon
##riset
##romoc
ferenti
##tracy
##maned
##ocomo
flexten
##wased
##haber
##edoto
simplet
##tsour
##areth
##marel
##otool
##ctist
##thele
##adeno
##Aspec
Foreman
##Alech
##uneth
##somas
##sinet
##comma
##rosof
##aposo
prestim
##extor
##uldow
##sesop
##teret
##peres
mesocor
##andig
##cessu
##ongor
structs
monotop
##amath
##idono
##puter
##imato
##ousot
##ocale
toposop
##ardet
##redil
##ratof
##redos
topothe
##emase
##amade
##deres
##comin
retinob
##agoto
##abuco
##ecalc
##timex
##ceval
##datag
##nemal
##cened
##ouser
##hames
surenes
##manec
corecur
##egeme
##agoce
##ersel
minimin
##inoth
##beman
areally
##aredi
subuses
##gitim
##imasu
##ndeti
##toner
##cevil
##esund
##mison
##reese
formost
##hatti
Strache
##undet
Asearch
testes.
##venol
##bulec
##mando
##ermac
##sonel
##athex
##gizer
##gesem
##aclas
##ospar
##umall
##otout
##istof
transth
##sosur
##onexp
##ingon
aselect
##nonob
##mplet
##inoch
##golen
##agish
##antop
hedonom
##preal
caristi
humanto
##ximos
##atisy
undated
##romas
##avele
##onoti
##umean
##ermer
##omath
##potis
##neton
##extic
##nesel
##benev
anevalu
##umand
##uedoc
##amedo
contino
##oades
##omere
##tecor
sumatra
##agede
propres
mesures
##larit
##nogor
oflarge
##uplan
iterant
##ethis
##linen
##temor
##ecore
##hamad
##femos
discomp
##dsher
extraco
##umere
behavim
##secan
##mpoto
atracur
mesoder
##teded
##valar
##sutop
##Tolog
formall
##nomas
##iaged
##sedin
Indenti
##oleth
##gower
tradesp
##ndico
##agici
##itits
##hamin
##setak
##agill
chancel
##kevil
##Astin
memento
##leder
##gning
respren
##ranom
mantrap
##unore
##inobu
##omash
dataint
inethod
##routh
##rishy
##spoti
##tever
##gingi
##alima
##-ofle
##imain
mousing
##ignoc
automer
##richy
reconoc
##eneng
##enear
##sogon
methodo
Tomatis
Finemet
##elesp
##alocy
##ismos
##icler
##ucere
##uchow
##sumat
##ionot
macedon
##marit
##ongon
##ronet
##hanos
##enect
##timod
##rando
##gesto
Congon
##tesh
formes
##Stil
##plec
diffuc
probel
##ersy
Anovel
noiser
##irop
##agot
setout
##hace
aprevi
##amof
##Tomo
##why,
fedele
undril
decalc
anumer
##amog
##usub
##dere
##fure
nobler
monoto
theres
forman
##reex
##dint
##tema
##twof
##omom
Storen
##dofl
##teed
desper
##-lec
lariti
##stwo
##enof
##fign
modech
##vele
##esec
modele
##imav
dicalc
aposto
##isus
##bese
furane
##tsto
##igod
##mele
##moto
mesofl
##digo
##otak
evened
carded
##usev
##iadi
eviron
##drib
withan
Stoner
thenon
demate
##keco
##ldig
pregel
##urex
##ndop
##unop
##nono
hemoth
devide
##ibec
theire
prevel
##maly
##abuc
##rofe
remodi
derate
##ieso
soured
remade
indesp
anomol
inditi
conter
##oply
Todate
noseti
speedo
##erex
commet
deming
contit
climes
predri
westin
sustem
Astudy
##esum
##Alde
eristi
##flly
enging
##dsel
aching
letion
##dsup
andere
##vily
##eldi
subent
sedati
##apre
##dima
##iasp
##vifl
##vign
##uere
enolog
##ugit
Stisim
##emay
bemore
planew
##unoc
profle
retime
theran
##fiti
##tobu
evener
##tshe
##ofic
##wedi
##gost
##Inop
##wast
levies
masher
revile
(Stern
Asides
vegeto
electo
##mobu
##arir
postel
Strans
##lede
##iave
##ucy,
##iedi
domand
##iare
##shas
##cthe
##imem
isogon
##usur
##esod
Touran
##tegi
##angn
##clun
##avim
incres
costra
##ibug
##usof
##reeg
##onew
aginst
##Inex
##umag
mesent
suming
nonout
##hado
##egil
##dosh
##uema
##sear
ineleg
##asul
##unod
Fortin
##ffig
##omay
eratin
minent
##asom
##teti
##usuc
##wect
undecl
##clue
arenot
##oadi
sublet
##Asti
##uspl
##docl
##idat
##ucy.
##ulex
##tsim
##nobe
##osof
##cofi
##ogog
##nede
##tsum
prelex
##aviz
mouses
##shic
randon
bestin
Staked
##imof
##ocev
maller
##amap
##unor
compot
##abes
##stur
rester
beachi
##domo
##obug
sundow
resuse
##keth
##siff
cluste
##unon
indesc
preson
hemine
##gede
##fint
istime
##nemo
##esth
dicomp
##llow
##ifir
intran
##geth
##hequ
lenges
docent
perror
##dato
##gido
##dogi
##ilim
##mama
matras
apothe
##malu
##dign
##ofun
##desu
##llex
incred
dovere
##levi
ampler
##Alec
sorede
##obun
##otim
##blex
goblet
##dsos
##Aser
##iasy
traget
##gron
moreso
##Ally
##basp
intere
corres
##anod
##izel
##unot
##llel
postec
charet
##ueth
##sime
##dole
menger
hander
##etyp
##dues
##-ler
##nodi
##odoc
##kedo
##sido
indocy
techne
##ocop
chaste
practi
onever
##arob
##aspl
minocy
formof
##uesh
userel
##ksil
##isun
##bequ
##Itra
proces
##umow
##umay
##cobj
formos
anoche
stimer
##ledo
##laro
##ueme
##kese
##tepl
##gror
##Ane
endof
twoti
thene
Iting
decan
andex
coper
andes
mesof
##Weg
atthe
signd
deren
sevil
cance
tofur
##iav
valer
imine
typer
asing
sonol
Finew
setor
keton
inobt
orati
isode
calco
morel
monow
twocy
maked
medev
dinon
aprop
hased
obtim
parel
nomex
aditi
requl
torel
malun
disol
mesur
baser
recar
trast
costo
surer
momet
sevic
trave
stras
##wog
monof
lenge
Forel
sures
conex
besed
capre
reste
machi
Finol
limes
profl
foran
atone
ofint
intak
adato
sowed
stevi
charo
digon
solec
Wedig
medin
basop
valut
regin
pract
##vif
somel
softs
Strab
remon
Stima
steti
beson
supar
Stile
chery
remag
spred
rened
reren
setof
Strag
preem
Stram
decom
moust
recop
ables
bethe
resim
conon
besol
ispro
canom
specl
aspec
nonon
Tomad
copro
##tsy
basol
ander
velar
devis
deseg
andit
apren
Torob
##oyp
meand
dints
firab
(Stor
canot
nolim
##gof
asump
comen
##bup
Torti
imago
godel
gofer
Astyp
reseg
##'si
##'se
moded
fedor
indor
Aleth
desub
canto
nosot
mevin
lects
relex
##wow
capot
acont
theri
origi
##Iti
aposy
Conos
worke
robto
disuc
Tonon
amach
conod
utile
obten
souti
##wos
andof
gonor
memoy
comod
isoco
##goy
diner
onewe
##ksy
besti
inoti
alary
derec
sthan
dirac
redit
manos
Anoso
simap
Strac
lariz
eles
poto
upen
bunt
obec
prex
flet
heme
flel
unev
isen
effe
sime
gong
mary
orat
isod
fiqu
maro
isof
fule
adom
enol
inet
evit
mear
alen
suby
robe
amol
fuch
valy
Stak
usel
Anos
neto
sone
eran
aron
beth
aric
aire
airo
oren
oris
mace
Anex
doyp
Toma
ofit
gosh
twom
reme
oned
itwo
dato
doth
veng
Tork
Toch
meno
ales
Tobu
fies
imen
usus
hasp
sene
stel
cles
amat
onel
dore
masp
adat
buco
dine
diri
Inow
agor
elen
lequ
meng
seti
fest
ised
digi
locl
Asol
deme
lege
apre
ofin
diti
Togo
dole
vall
mago
##⌀
##ℏ
##≦
##⟨
ora
##⨯
##Ι
##Ś
fex
##ȧ
tof
##έ
lec
rex
cly
ust
ene
ame
##Х
##ē
##³
##ɸ
##ṭ
nem
##ʺ
##―
##ű
##ل
ish
sog
##ț
##Ŕ
##⋊
##Ĝ
##ḧ
##↿
##Ʃ
##蠄
##⪳
##Ȳ
##Ɇ
##ै
bup
##▿
wec
##⊈
nop
##Ǎ
##Ć
##Ỹ
##ĭ
##⊑
##正
##⃗
##⃖
##‌
ush
##𝜺
##𝑝
##⊔
Wem
##ℚ
##¶
Wec
##ό
##È
##㎚
##㎝
##〗
##ḱ
##檢
##晶
##片
##藉
##至
##常
##高
##失
##真
##徑
##長
##衰
##減
##判
##辨
##點
##呈
##互
##接
##維
##網
##換
##術
##顯
##改
##善
##彈
##簧
##鋼
##絲
##食
##也
##省
##型
##大
##我
##家
##就
##願
##均
##深
##視
##售
##繁
##爭
##亦
##趨
##十
##買
##感
##故
##界
##獻
##差
##共
##蒐
##寶
##偏
##潮
##緻
##簡
##較
##期
##若
##強
##量
##今
##隨
##活
##演
##變
##掌
##握
##滿
##否
##客
##觀
##便
##收
##找
##先
##助
##繪
##別
##步
##從
##時
##瞭
##格
##咖
##啡
##例
##構
##價
##萃
##證
##；
≳
≊
◊
Ι
⇌
④

ž
‡
Ū
Í
ḟ
⅔
¾
⅙
р
С
〗
Ḥ
п
Ș
´
△
д
≨
ϭ
े
ꜗ
⟹
≢
Ṅ
ô
Ĩ
𝕆
𝜖
˅
č
ˈ
𝐷
𝒒
𝜀
𝜃
ϲ
ˆ
ὰ
葷
П
ä
Ë
Ὠ
¦
©
（
≰
－
㎝
創
再
將
人
提
##performancestructuresthat
informationextraction
##ologicalengineering
differentoptimization
##izationenvironment
##featuresofinterest
##onetechniquereally
##technoperformances
simulationexperiment
##idationexperiment
##amagedistribution
##andexperimentally
##ropotechnological
##ailedexperimental
##aminesenvironment
##atingeffectivenes
##rastructureneeded
##echnoperformances
##rosionengineering
##fetyperformances
algorithmprocesses
##docharacteristic
##underestimation.
##isemethodologies
postexperimentally
ondatadistribution
##multipleclassifi
technoperformances
##dingoptimization
knowledgediscovery
significantimprove
##athenvironments
underestimations,
combustionengines
##umedistribution
##izedistribution
##atedinformation
##fetyperformance
##ativeclustering
##herentstructure
basedoptimization
##fectinformation
##tivenomological
##omethodological
##nomethodologist
##ianoptimization
##isticalgorithms
##itedinformation
##technologically
##echaracteristic
##esofengineering
##aclassification
##eacherimplement
##ificinformation
##iredinformation
##edenvironments.
##ubledifferenti
costoptimization
vehiclecomponent
##entialsolution
##nessprediction
featuresimproved
thisexperimental
througheffective
##amagemechanism
developmentshave
##rastructuredri
systemsimulation
otherapplication
##ultistructured
##overestimating
##wedistribution
imageseffectivel
##roregistration
##ablestructured
methodspresented
##atureselection
##-lingistically
##acerecognition
##ametaknowledge
approachimproves
##-ofinformation
##hasetransition
##optimizations,
underestimations
##formationspace
motioneffectivel
##arithmatically
otherinformation
technologization
##multiselection
##dataconsidered
##arerepresented
##icalexperiment
##ativeselection
##urexperimental
##inginformation
##clerecognition
##antinformation
performancestudy
##dedinformation
##andinformation
##nonengineering
##ameffectivenes
studentsexposure
studentimplement
##edenvironments
mainexperimental
optimalsolution
##keconditions.
conditionsusing
thesetechniques
significantinfl
noneffectivenes
##ableselection
##predeterminer
##soptimization
##selenological
##developments,
##moformability
##engineeringof
##romachinetool
##otechnologist
##ronometration
variouspreventi
redevelopments,
##roprocessores
multiplenearest
##resolutionobt
##titionoptimal
##problematical
##ousprediction
##icationeffici
timeconditioned
performancestor
multitransition
##performatives
##redistributin
##reestructured
##ximateminimal
##multiplerobot
##-leveloptimal
##ultitechnique
multistructured
##problematised
##anopatterning
##informationex
##henomenologis
##systemaremade
##'sperformance
##ultiselection
clusteranalysis
forexperimentin
##roperformance
##overestimates
##aginformation
aclassification
postinstruction
postengineering
##omenvironment
##cedevelopment
##developments.
##stechnologies
intraprediction
##osimulations.
##iautomaticaly
##overestimated
informationeach
##encestructure
knowledgesystem
##abenvironment
basedextraction
##ndistribution
preregistration
hemodynamically
dynamicanalysis
##dexperimental
analysisprocess
performancelim
##Finformation
multipledestin
##umefficiency
multitechnolog
highefficiency
vehicledynamic
aresignificant
##alexperiment
##mentsystems.
providesimages
##roproperties
##destestructi
mesostructures
mechanismelect
monoresolution
##ilestructure
##superelement
##odestruction
higheraccuracy
##restructured
Astechnologies
##encentration
##formentioned
##otoprocesses
##systematical
parametersthat
##ledetermined
##consideratel
##entialeffect
##umedistribut
##harification
##utimatically
##oconditioned
##structureles
optimizationof
costeffectivel
optimizationor
##undifferenti
##ogicaleconom
##ldinterestin
imagestructure
##terestimates
##esostructure
##memprocessor
##anomechanism
##dodecomposed
techniquesused
##omologically
methodimproves
##odestimation
staterepresent
##linelearning
##vinformation
Thesecharacter
##sinformation
Anexperimental
##aperformance
##echanosensor
##estimations.
##senvironment
##ationaleffor
##declassified
##inodynamical
theirimplement
humanextracted
##Thisimproves
Ineffectivenes
performancenet
modelselection
##linformation
decompossition
decompostition
##acknowledges
##auselearning
##presingleton
##multimeasure
structuresthat
##undiscovered
systemological
attractedincre
poseclustering
machinemachine
##antimonotone
distributionen
developmentsin
##registerment
underexposures
##weconsidered
##verestimated
##ouralgorithm
##demonstrates
##avestructure
paperformation
##angibledigit
##twodifferent
##iapplication
overextraction
acosteffective
threedifferent
differentinter
technodetermin
techniquewhich
systemsperform
techniquesonly
##ativeconstra
programability
##onexperiment
##ifestructure
studentstudent
singlesemester
factoranalysis
##anocharacter
##enceconcepts
##sengineering
##ribulations,
##akecomponent
speedeffective
##utoformation
##anoclusters.
##postexposure
##erecognition
##unologically
contractivenes
##discontinous
##cestructures
costefficiency
##ropatterning
##odevelopment
postestimation
compareconcept
andinformation
##ostructured
##itiesofuser
##nelestimate
##nessthrough
parametersthe
##intrasystem
##suchengines
transtheoreti
spacevehicles
##inedeffects
##vetechnolog
developmentst
##finedengine
##mentsystems
activeregener
variousengine
##asingintake
andefficiency
##itionengine
performanceco
problematises
proproperties
robustoptimal
##technologic
##nematically
##ticommodity
##alsoreduced
##untsprocess
##distributer
##etheramines
##idigization
profilocorder
enginecontrol
##anofunction
deconditioned
##computerand
enginemeasure
##eselengines
##centraction
##trasystems,
##tematically
technologiall
##urofication
##multimotion
##sioneffects
##edoclimatic
ratedetection
##calevehicle
##timemethods
isocontouring
##eselethanol
##ducesengine
##modecontrol
##vecomponent
##anemethanol
##lerancespec
##sestimation
##idimplement
##conological
##abulations,
preestimation
##etraparamet
overestimator
surestimation
##uperforming
##stechnologi
technologized
algorithmachi
##edestimates
##docharacter
##nderexposed
rerepresented
providescorre
##canological
##ancereduced
##desproposed
##donetworks.
aredetermined
##riclusters.
##ecoresearch
##erseverance
intrapractice
formationally
legitimation.
overexposures
##spectorates
##automatical
##foremention
##ultisection
optimallinear
##anosystems.
##theragnosti
##ablecurrent
alsoperformed
alsopresented
##sivedynamic
##performable
##cessoptimal
multisolution
reconditioner
chanceconstra
##ediscovered
##finterested
algorithmstem
##asimonotone
##tisingleton
##egitimating
##idistributi
##ocompletion
prestructures
##ancesystems
statenetworks
##formationen
##ablesystems
nearoptimally
orapplication
##tonological
##restatement
monologically
##edifferenti
##ogicization
##amematerial
statemachines
##calemodels,
##sistworkers
practictioner
thesemethods,
##optimalsoft
ofinstruction
characteresti
##untimemodel
##calgorithms
processingint
rerepresentin
##henodynamic
hemodynamical
##ersistently
datarepresent
overextracted
datadifferent
applicationof
nomologically
##omethanesul
problematised
technologised
##stimations,
##aproperties
##ricomponent
##odiscovery,
##alextracted
##sexperiment
##ainexisting
##anopartical
##acknowledge
##outstanding
vehicledesign
##sionallevel
##instructure
##iconoclasti
##itestudents
testimplement
##ustersinclu
##timeresults
inengineering
asengineering
##credidation
plandeveloped
##transprofes
##redistribut
##eparameters
##waresupport
##uestimating
##uencedomain
##ogimplement
postimplement
##atinosenest
ispractically
##climatising
##urofunction
##arification
singletasking
thesesystems,
developmentof
processingof
spacevehicle
resultsespec
##atesimpact
techniquesto
##redecision
##isproposed
##thispaper,
datameasured
##reeloading
##tracluster
##ultisector
##nonordered
estimability
##fueleconom
processingin
##haserespon
dynamicinter
##sivesystem
##producethe
enginesunder
##esobtained
highereffici
Thesemeasure
simulationof
enginesusing
##icanalysis
##mallengine
##cessivenes
mineworkers.
##izationsof
##alocalcane
##redesigned
##amagelocal
##leresearch
significanti
demonstratet
##echnologis
##ribulation
##ristearate
##iabledevic
allimportant
##automakers
##abularised
##aminomethy
##idinomethy
##beffective
##sentration
##intramolec
##romaterial
sonomaterial
##ifemodeler
##ximationed
##enological
##etherester
hyposystems,
##uestimates
demostration
##Tolerances
##avedynamic
##ficication
##lectramoti
##ocharacter
##agecurrent
##utoregener
impactrather
##oratedinto
##dodecaneth
##arentheses
onecomponent
contradition
##eprocessed
##rorespecti
contintinous
compostition
##odynamicly
##dodecanedi
##henomenous
##gizations.
##climation.
##dridecured
declassified
##airesearch
##neffective
##odestructi
techniquepar
##romomonoch
##utonomated
##adological
##ilesupport
##sperformed
improvelarge
##ndocalcari
##echnologic
mechanismare
##olesomenes
##akermechan
##noisereduc
performation
##opletransp
performancec
##otradition
##cantration
dynamication
conentration
##profundity
intemperance
##mechanalyz
##herachical
##rospectral
##umodynamic
##anotechnol
##enentratin
##iamultiple
##aparticles
##ndeveloped
determinewhe
##ronostrati
fiberelement
##edological
##anological
##ultitestin
##ronotherap
##reexisting
##femasters,
##fevehicles
##umoperated
technologiqu
##rispectral
monospectral
intrapattern
preestimated
##cedetermin
##rometermag
wediscovered
##ecorrespon
##adrilinear
##undecanone
intracomplet
##largethisp
estimationof
##ematically
##egistratin
##ugenofuzzy
Indifferenti
multisimplex
##aretakers.
multiplelear
##technologi
##statespace
##stractspec
problemsthat
##-locomotin
##mprovident
methodogical
##vecompared
##ativetrans
##edigogical
discontinous
##formantion
generatemore
structurenes
anomalocaris
##loadenergy
##ratitioner
##ularitises
##transposon
##roretionog
systemstheor
##vizations,
##vizations.
##imagelevel
resolutionor
mechanosesor
withexisting
##anoforming
##elesystems
##ceptically
##enumerated
minocomputer
redistributi
##domonotone
##Astructure
##inemachine
singlerespon
formachining
resimulation
##acecomplet
##ationexpen
coprediction
##ighthrough
##idethrough
##stematised
algorithmand
##performant
##intracardi
##commanding
propostition
propotranent
##teledesign
##erepresent
reconception
##lectorates
##comonotone
##asimonoton
##domeasures
algorithmson
preextracted
##achization
commemorated
##tellection
##Indetermin
predictionof
methododolog
##ispresents
##instructin
##nonetheles
##disempower
##gitimation
##astatement
##ugoustinos
##andestinel
soundemotion
##asiminimal
algorithmsex
wasimplement
##expresents
##isexposure
Anexperiment
##iropractor
##distracter
##componenti
formultitask
##rediscover
##sprocessor
timerequired
##ingordered
##mprocessor
##multimemor
##gosentinel
##transester
##iridescent
##romatherap
##omemakers.
endofunction
##multistrat
##allengenes
##spacemodel
onextracting
##igificance
##caretakers
rediscovery,
legitimative
##rasystems.
##decompared
##roflective
parametrable
##emological
restructurer
multispectra
##malgorithm
nonoptimally
##acharacter
##edistribut
##vesoptimal
algorithmsin
problemposed
thesesystems
##nosesystem
##otopattern
##posthistor
##presentist
##formatised
##technocent
##agecontrol
##utoprogram
Ineffectivel
##classifled
##haproblems
##hasolution
##classifler
##foretherat
##llimation.
machinetrans
theresulting
##esprovided
featureshave
##ationstrat
##flectivech
coresearcher
minimesters,
minimesters.
programinclu
throughexten
conditionson
##ticlimacti
##romachiner
##sisthrough
##problemsol
##omorelevel
##semesters.
twosemesters
##edogogical
##reselectin
algorithmeti
informatione
multipleleng
timedifferen
##ancetestin
multipledire
thesemethods
predistribut
##structeded
storethrough
##antimatter
##omodynamic
##aprocesses
imagological
##posemodels
##datamodels
##modecompos
knowledgerel
multiplestep
determinemob
##ficationes
activesystem
waseffective
##methodical
##uresimpact
parametersin
##odetection
##maticalcon
##gramatical
##ultimethod
##ultisystem
stegoprogram
##etradition
##omemakers,
imagedataset
##odomethane
##ationexten
##agroforest
##firesentin
##penetrable
##formatives
knowledgeman
constracting
manyparticle
##threedimen
##abledesign
##datamining
complimentor
##adicommun
non-loading
##ressestra
corresponen
##ativesoft
##toprovide
intrasector
##ultispect
##reeloader
##temperate
##ledgement
##cessinter
intraservic
##multisign
undiscarded
##ationspec
##asimoment
##oproduced
##aterespon
##atematter
variousoper
threedesign
vehicleshas
##nessoptim
provideseno
wasoperated
isestimated
##inesystem
##derengine
firstengine
##idationof
##sproduced
##gitimacy.
##moderates
##revisoren
##stranding
##anoconver
##multiples
##automatis
##ropotechn
##decompose
##ublecanti
##omeasures
##antsevich
##romagenti
##hasespace
##severated
##igiblenes
##intererev
Todetermine
##antoprene
##mentsempl
##simproved
##processer
##ustanding
##ersteller
##composted
##imability
##inematicl
##missionen
composters,
##robotised
##eselelect
##inonemono
enginespeed
##yprofiles
##acementof
##olarising
##ropowered
##igomerate
##vesystems
##vestement
dataclasses
researchand
##formanced
##rimemover
##tectorant
##illimoles
commisioned
##enetraton
##haserever
##celerater
##acteresti
##atterance
##henemenon
##iresearch
requiresent
propertiesy
##chandised
##generatel
##obehavior
##undespost
##disconect
##ametrally
##anologist
##omecurate
##henomonon
##uencesthe
##kelengine
##intransit
##ationsthe
##bustionon
##combution
##adomeanti
##modically
##ostearate
##desperate
##rinvestig
##sinvestig
##alelement
##fromances
##omodisper
##ferencede
##icalelect
##ractioned
##ternetion
monosterate
##agisters,
##rachishyp
##wererecor
casecontrol
##izedinter
hermomechan
machinewere
##ublerever
presentedof
structurese
##extenergy
##lectrabel
multistrand
machinework
##postition
##ulationon
##rofroming
dynamicalco
performated
##ravestone
##etragonol
##asthenosp
##echanolog
##transesop
magistracy.
##tradisper
##anofilled
##ultistrad
##calemodel
##otorantim
##umproblem
##onodomain
differerent
##isostruct
usemultiple
##monetised
appliedinto
##ranoplane
##izetemper
performedin
##berexpres
##lectraton
torepresent
theresearch
##ocarditis
##arantines
multitestin
ispresented
##mosysteme
##astischer
formultiple
superformed
efficinecy.
##gocontrol
##resstoper
##betweener
##ationspar
##inentechn
##nessecary
multinumber
coregisters
##agemagici
defficiency
##tivetrans
systemstrac
##ferenceto
imagecompos
didifferent
postimposed
##egomotion
##esturerel
##ceproblem
##gemeasure
datacompres
mechanostim
##unesystem
##eregenous
unexplocled
registratin
##edorandom
deselection
##dominimal
measuresthe
##eclassifi
##echnochan
attentioned
disconsider
##curatenes
##rofeature
##ativedisc
##predigiti
##simpledet
##estimable
outspeeding
##ximatenes
##ristofide
##sivenumer
##ingenergy
##subexpres
##icalevalu
largelinear
##formatton
##clecommen
##goloading
##whichever
##amplesort
multinested
automaticly
##students.
traditionly
##utworthy,
##ationsche
##commentin
##omologize
##demasking
##transiton
##ocomputer
twoproblems
##bleaching
##correntop
preexposure
##'standing
##isprogram
proproposed
##ocontrast
##kersensor
##implantin
##ultimates
##computist
supereffici
threecompar
asystematic
##supporter
##securenes
##akesters,
##romaching
##daterates
robotsensor
##gological
##isiononly
##inesearch
activedevic
##romodels.
##curantsto
##enomation
endeffecter
##elesystem
##ematerial
##contraven
##rofesores
##oratemore
presentwork
##ecomposer
##reesearch
parametersh
##ointstate
characteren
##auselevel
##ationstep
##emethods.
timedenotin
##presuming
##iatespace
##andeditin
##ismeasure
##multitrac
##ultinomin
##romedical
##ignespace
##dopattern
##classific
##moleclare
somatically
vehiclesche
##eterminer
##linedinst
##calemates
##gorematic
##ressement
problematis
##eledesign
##itedomain
##databased
##abularity
##numerated
##agemining
##acementon
##riconcept
##ricluster
analysishas
systemsplan
vehiclechar
##umetemper
##ologicall
databasedri
##titration
##tematives
##mentsthat
##mapreduce
##iciclasti
##ificially
##sumesthat
improvident
##evalution
methodologi
particlestu
##ospection
##ologistic
##bereconom
##erroreson
##amations,
##ramatised
recompletin
##detouring
##nomethods
##tectorate
##mologised
transparant
discreditin
##intimates
##betweenes
##discredit
##eproduces
##izemotion
Thesemodels
mechanismin
undithering
##elemaster
##irigibles
##ndorobots
##tratheses
##ifferenes
classiffies
##cenerelev
featurevalu
componentin
##Stimation
##monogical
presenthere
##izationst
##acomments
predestines
##bulations
approcessor
##structrat
##idetermin
##domodels,
statedistin
##reeminent
##isologous
##obotherap
##corelevel
##gotrading
##uropropos
##elardinel
timecomplex
##henomenol
##agementof
legitimated
##patterner
##sproposed
##elemechan
##tellectic
##remission
therequired
##demonetis
##amations.
##rimesters
##contrales
filesystems
##esounding
effectivele
##henomemon
classifical
postoptimal
##cononomet
##omonotone
##suratenes
determinewh
##ampledata
anon-linear
mechanismof
##undelimin
systemsthat
thisproblem
##atorerror
##ogiclevel
##tworkers,
##anocommun
##controler
threetransp
##umomechan
##igisector
undetection
monologised
legitimatis
##visection
##ancestral
##shelevich
##iaselimin
##ightother
##utopredic
contraposed
##asperates
typereducer
##eprovider
##disparate
multitraver
benefficial
##iblespect
postimplant
##misection
##fusimotor
##anetworks
detectionof
##inemethod
##ultyposed
anotheronly
##ismologic
##imachines
presentsome
variousprob
modelsusing
##ractionof
##ologicaly
##fectioned
vehicletrac
##amoptimal
moderatenes
multititrat
estimatives
##gemakers.
##emesters,
##areconduc
differentis
##Wentworth
##dsemester
minimesters
##vigorates
##superelev
##ativedata
throughasum
##mistakes.
##firsthand
##poserenew
becharacter
##telenovel
studentsent
##usimprove
##emesters.
onesemester
coremakers,
##utomatton
designexper
##atoproduc
isimplement
##atimation
##docontrol
##dataspace
morecomment
##womethods
Thispattern
noiserobust
##idedomain
##exposures
##ifization
##onemechan
##ningimage
##cenemodel
##vestiment
##icationor
optimation.
##surancede
##gorithmin
nocandidate
##egisters.
##reemotion
##ismocardi
##threechan
##astration
##ionetwork
intrageneti
largenumber
Indifferent
transprofes
##climatise
legitimates
##conection
sedimention
##omonomous
##utomaticl
##videdinto
##traposing
##stractsof
##alleloche
systemstate
##integeren
computionly
##etrapares
##odologiqu
##ffinement
##instructs
orderedeven
singledimen
intimation.
##resection
thesediment
##ampletest
##icomputin
##uledevent
##kencentra
improvesthe
##securing
##'section
##telecomm
##ermeance
##ultitime
multitimes
##itramine
##avichand
reducechar
##ffloaded
##otspotor
parameterm
##atesusto
##facemodi
##semethod
##ypowered
##mparamet
singledire
multisecur
##domotion
softhandof
deregister
##evention
##ridesour
proposeded
locomation
enginespec
resultedin
##lesunder
enginetest
theringing
##intested
##ortionof
##vecomput
engineload
amortising
##intracon
##tradoses
therequire
##diffusor
##resters,
##hattered
##amemodel
##allowear
##anodised
##toproduc
##dostates
##valentin
vehiclesim
isobtained
##edynamic
##reselect
##rosters.
##resignal
twoleveled
##onomethy
##tstellen
##raphenes
##calarise
redistribu
##adoprone
##omations
##splanter
##orthants
##ermatech
##foregone
##omodels.
##gotherap
aminotrans
##uroperan
##onomolec
##robehavi
currentout
##ethanoly
##eparates
##ompresed
processthe
##inomethy
undiffused
##dimenthy
##prerecor
##utomator
##iminoben
##ultispar
controlare
##netother
##ldimethy
##matherap
##ctiction
##avirales
##omavirid
##asurants
##ionoprop
##ualevalu
##portines
##ressurex
##riproply
##roformab
chastising
mechanofus
##ranoplan
##ributrat
##amespeed
##rospacec
compreshen
##ricantin
##antinode
##mentspec
##Stratton
##planenes
regenerant
##methanog
##sicalche
##yposture
desolution
##amabased
##utopower
##ublespar
##roformer
##waretool
##ultispot
##acematic
##otesters
##valution
##ravimeti
##socandel
tractioned
##ditising
##roplaned
##hicoutim
##ingition
##onomenon
##untilled
##icantion
acelerated
##epostion
enginewill
##rofurane
premission
##mentsuti
##dodecone
##destined
retractile
##odourant
##umatical
##-levered
transister
actractive
##avengine
##illinear
##ropartic
airesearch
##henomone
##lesters.
practicaly
functionel
##ginetest
##henomema
reducetion
##contered
anodically
##destruct
enginecalc
fueleffici
##antspeed
##ynamotor
undescaled
##-leveler
automobles
##irsthand
##restores
threespace
##richened
forestruct
##cestersh
redesignec
intraplant
monofueled
##inesuser
##timating
##arically
designdata
stratofire
Stratofire
improposed
##felector
##icontrol
##rosters,
##opowered
##odorants
##ctically
##romodine
##presened
##restorer
##ellarene
##probleme
##ematical
##isposing
##selement
##asearche
##casespec
##comation
##lesystem
##hasemask
##efficint
##-lowered
evidentest
declarated
##stragole
##elduring
##timothy.
##ancechan
##apotrasp
undifferen
##fishery,
##romemoly
##racleach
##thenocar
reselectin
##currento
##larified
##roprofil
##osemarin
##tonemato
##enetrans
##destoner
measuresto
##roproper
##stransit
remeasured
methododol
##motorequ
##moconduc
doserespon
##radenton
##reenouse
threestone
##isystems
##anenergy
##avetrans
##tetrasul
##intracar
##storeduc
##entioner
##ferencer
##mentoned
##forances
investiget
interester
sustention
##genenous
##uperates
##hardener
##ultistor
##adecanol
##anodimen
##intrados
##extrados
deffection
##etramine
valentines
##operando
##contouro
##igomethy
calcarifer
sedimentin
##igimatic
##iseconom
technosoft
##ethelene
##aselecti
##avititon
##titionof
##ectorate
##andelari
##orentine
##romodich
##romoform
##stransis
##inespeed
##canologi
##ismologi
##reestone
##penetrab
##eldsthat
vehicleson
##formagro
selenodesy
##roformat
##imachino
considerer
##otechnog
##rerestin
##orthened
##astische
##imotoren
##irischer
##ermenent
##uemotion
##ightwork
##moformer
##resedent
accuratele
##iletrans
##datation
##reetrade
##ustellen
##sortechn
vehiclerel
transparan
redisigned
##anoveran
performane
coregister
##ratesthe
##multiton
##acerecon
##ancevide
thispaper,
##otherror
##actimage
reconduced
##rigidily
##ifeature
##fficlent
atechnique
##relevent
##timation
##isopleth
classifler
mousemodel
##onomaren
##ecovery.
##tramolec
##anomolar
##rimodels
##actioned
monotherap
multisuper
##veroboti
##respects
##intrasub
##onemodel
andimpacts
##ffunding
##adenomas
##imageret
featureset
non-larger
##odestino
##multisur
##iamation
##attiston
##icatione
##aparamet
##aintyper
##adescent
##ererevis
##reesomes
##astermin
amoderatel
formultisp
##agically
##eproblem
anexisting
contstruct
Thevarious
##amegiven
##unespace
##uprogram
##numerate
##distract
##igibleto
##erequire
redeclared
##-locomot
##importer
interexper
##oderates
##composer
##non-leth
##presenet
newelement
presection
temperance
##roposter
##largened
##coproduc
largedimen
##ketiming
##testers.
##cardomal
##Stranded
##iberobot
##ultitrap
predestine
##waretrac
##akesters
clustermem
adifferent
##emposter
intradimen
##sedation
##etititon
disparated
##ersioned
singlecont
##atelegib
##fforance
vehiclenes
##tsolarit
##gramable
statestate
##rospacer
##norkeler
##onosocop
##getinter
##monoprop
##ocomotin
##operatel
##allengin
##iginosus
spacemouse
##undesign
multitechn
##stateles
##demating
##inomatic
##ogistell
##randisol
##toreduce
##ineshave
##nocompre
explantion
twomethods
##arestech
costeffect
statedomin
##foremake
conceptwor
propertise
##enerates
##predatin
##ronesthe
##ultitrac
##itenoise
##asemodel
##comesome
##idoreduc
##sterated
##oclimato
##ainobser
##ableclas
imposters,
##imagecle
##eleventh
##rorespon
disperatel
recurrents
##iallocor
retinocent
##Westerst
##ausemate
monosemous
##completi
detransiti
##cantered
##ortising
##itectral
##henomeno
##itecural
##ademaker
singlevalu
##iformati
##ultranet
##esumevis
##ialimage
noisemodel
##atrandom
##ravelent
##telerant
##acluster
##omospace
##proposer
##anoutsos
##elimaint
##sinorder
##gorithme
##robotsum
hemotherap
##otechnol
##everenes
##illedema
##isestate
##ailentit
##itecures
##andeleti
##sionalen
##resotion
##aturegro
##aconstra
##domained
##tramathe
##elemaker
##esperate
##deselect
##nerevent
##charoper
##ightsign
##curantis
##echnomet
##Stratono
legitimati
##iestutor
##multisem
coproducer
##proficis
##rimander
##ologised
##compossi
##esemanti
##toprofes
differance
##intraloc
##amasiman
##extinter
##istische
##elestere
##iationsp
##atherand
##foremore
##jectinde
timecontin
##mentione
##ecostate
##denomato
##Anetwork
##handouts
##omatises
##ulestore
##distribu
endoroboti
endorobots
##cheveste
##restenos
##comodity
imagespace
##wasters.
machinenes
##elegitim
##anomolec
##estemale
sparesenes
##rastered
##vedesign
##mistaken
##uploader
##complele
##arischen
##wherever
##gestured
##hevallet
##namenode
##igoutsos
##timetask
##ibletask
##ksearche
##atingint
##avallaro
##domodels
structuren
##gosystem
##hardines
##oschelet
##onetised
##agonolog
##-locales
##utschera
##properti
##molarity
##intraves
multimolec
##ractivel
##ostevalu
##acleclim
robothuman
##emesolim
##oundedin
reducesthe
##itworthy
thesemanti
##imachine
##terevent
##Tonomous
fromproduc
##temation
##formaton
##unterobj
##ationall
##sivecare
##lectofin
##mistrans
##emakers.
##emakers,
##conoclas
##unologic
##ticommun
##encedire
##herentis
##uronomin
##ellectic
##systemog
##bemetiti
##larifies
##atetheir
##astevalu
##datemost
##hanement
##simprove
##herimage
##raphable
Tomotherap
unobtained
##foretime
##ocentral
candidated
##cenereco
##processo
redecompos
transouter
restructed
##itasking
##ultistra
##enevirat
##ogimatti
##extrapos
##acomment
##ifestent
##arentest
##curegion
##ampleson
##ribedout
##umation.
##netorest
performper
##sidestep
redounding
##revenous
mechanomop
##datareve
##timedesc
##aillarge
##potherap
##arifocal
##herobots
enological
##toformal
systemspec
##eletrans
##tramarit
##memorate
##mageneto
##erminoma
##intrapar
##linesthe
##agemodel
isimproved
##ualevent
##singrole
##mentiser
spacetimes
##llimates
problemsex
intimation
##edically
problemsin
##basethat
modelstrat
twoclasses
##ulesthat
##soperate
##abledata
##attestin
##ationsen
##fferenti
##angiones
##mordered
##instenti
##airinter
##heration
##iplesthe
##emesters
##unestone
##eclaring
##sorexper
##costrati
##mastered
##agogocal
##instruct
topractice
havediffic
##ousetrap
##taskers.
##usenergy
##sisters,
Toleranced
##onengine
##ointhigh
##extracur
##sisters.
##reengine
##lectrath
##racticed
##meresour
##emativel
transinent
##ilerobot
##ablesent
##clustion
##actititi
classifici
dynamicaly
conceptive
##imultion
##alenging
##omplenet
##nostisti
##tradevic
classifing
##asupport
##masters.
##warespec
istruction
indatabase
##-lenging
energyprop
##inemodel
##ainstwol
betweentwo
##atelevel
contrasten
##otoframe
multisenor
##urantion
##asproper
intraparen
##echanost
mechanoreg
noisereduc
##itecanes
##ationsof
formachine
##socalled
##ineffect
##spresent
##atitises
##regerant
##ficiales
##edimento
##tingemer
##inginteg
dataduring
##uprocess
##hattrans
##sumemore
##-lection
##othrough
##otopleth
##icomolar
##stratist
##entrales
achitecure
##adestudy
##atinotyp
##etrasodi
##ablecomb
##ouserror
andimprove
morecompre
##gemakers
##istracti
whendesign
##allerand
##handines
##liningit
##amemaker
##uteranop
##ffidenti
##ravidity
presention
##avimento
##ficinecy
##iciderel
##riminent
##parameti
##undecano
transhuman
##automati
##ialement
##maticale
datastores
##ationsis
##hacement
##ctivenor
thesestudi
knowledgec
##ksupport
##rosinone
##modelare
mesomodels
##ignemode
##istrador
##timative
mesostruct
##oundenes
##akedenes
##calevent
##echnomar
##ridespl
##istimed
##rimages
##needing
monotonel
##igherat
##agesour
noneconom
impactind
##roprest
##sitises
##hardest
##softest
##Astrall
asthenosp
##ndrical
##restral
##sivesen
atonomous
##ultinor
resultson
##iterror
andenergy
thanother
##dexpres
singlerel
##ternode
multitrap
##valelev
singlerec
transorth
##romulti
##iverant
##olerror
##iasterm
##sionone
##ksters,
##esosene
##sterman
##iciclet
##destino
##uresome
##ralocal
##domasto
##tsignal
evalustes
##ustates
programes
recommand
##decanot
lowengine
higheraro
producesp
acommonly
beenobser
toprovide
##itexten
andintake
##inevalu
##ateshow
##inedire
andeffici
##ctinteg
##tiveche
##'servic
##ronober
##attopar
##aringin
##abletin
##acompos
##tichari
attracter
toparamet
resignall
##acharis
inevident
alsogiven
##iaspect
##etraval
seminumer
##achance
frequires
##ightout
##setimes
##ablesti
##entimes
##hasedow
##asenger
effectson
##clution
##anocore
twotemper
##achites
##ultrama
##erenger
singledri
undynamic
redounded
monofrequ
distructi
##Allento
##engesel
##romolog
##methodi
##illeton
##raments
##ugeneti
##conocle
##ativere
##soprene
isoconver
##ingocel
modesover
operandis
automater
##dedores
##isterel
##rimarel
##allocer
##rofined
##ofueled
mecanoche
##etramer
reveresed
##celerex
##hamento
##dimento
##iradent
##adecano
##amoding
##ricardo
##ostelet
stearanes
##pentest
currented
##ouresen
##ingomon
##meances
##gedised
##ypother
multipled
##iriment
##electon
intereset
##momecan
##simples
##didered
##ermodin
numerated
##ethanex
##ressiti
##onother
##ightshe
##optimod
##ughener
presensor
automeshe
##ridinol
machinesh
##inerate
##amingos
##unewell
##tetrach
##radated
##gonomet
magistral
##rigonos
##calcane
##icances
##rameles
##omances
##aminous
multitest
standouts
##reviled
##usumano
##emoment
##ellowed
##silecon
amortises
##basesto
##rucures
##orthane
##burater
##yplethy
atractive
##omachan
##tratrac
hectrares
##tematic
##iplaner
##terants
##atesthe
##ultrale
undischar
##lenesul
##nesound
##ficance
##attrans
##rimaril
##rimarec
##andated
##parater
undestand
##iplants
##aketime
##icomole
##itransi
##acerate
##siflect
combuster
diffusore
##efficic
##ampared
##elevide
##acterer
##distrib
##icition
##centiti
##-largel
##formatt
##aticaly
##ldspace
##ametest
##owever,
##herened
##upracon
##andates
##romechn
##linered
##nomatic
##utonoti
clarifing
systemeti
##bletest
commodore
automised
##iesters
##ndother
##emanent
##echicle
##proplet
##takedow
##nomasto
##trastop
##istruct
##temator
##achimet
##sisered
##linging
##iprofes
[...]
